<pad>	0
<unk>	0
<s>	0
</s>	0
<0x00>	0
<0x01>	0
<0x02>	0
<0x03>	0
<0x04>	0
<0x05>	0
<0x06>	0
<0x07>	0
<0x08>	0
<0x09>	0
<0x0A>	0
<0x0B>	0
<0x0C>	0
<0x0D>	0
<0x0E>	0
<0x0F>	0
<0x10>	0
<0x11>	0
<0x12>	0
<0x13>	0
<0x14>	0
<0x15>	0
<0x16>	0
<0x17>	0
<0x18>	0
<0x19>	0
<0x1A>	0
<0x1B>	0
<0x1C>	0
<0x1D>	0
<0x1E>	0
<0x1F>	0
<0x20>	0
<0x21>	0
<0x22>	0
<0x23>	0
<0x24>	0
<0x25>	0
<0x26>	0
<0x27>	0
<0x28>	0
<0x29>	0
<0x2A>	0
<0x2B>	0
<0x2C>	0
<0x2D>	0
<0x2E>	0
<0x2F>	0
<0x30>	0
<0x31>	0
<0x32>	0
<0x33>	0
<0x34>	0
<0x35>	0
<0x36>	0
<0x37>	0
<0x38>	0
<0x39>	0
<0x3A>	0
<0x3B>	0
<0x3C>	0
<0x3D>	0
<0x3E>	0
<0x3F>	0
<0x40>	0
<0x41>	0
<0x42>	0
<0x43>	0
<0x44>	0
<0x45>	0
<0x46>	0
<0x47>	0
<0x48>	0
<0x49>	0
<0x4A>	0
<0x4B>	0
<0x4C>	0
<0x4D>	0
<0x4E>	0
<0x4F>	0
<0x50>	0
<0x51>	0
<0x52>	0
<0x53>	0
<0x54>	0
<0x55>	0
<0x56>	0
<0x57>	0
<0x58>	0
<0x59>	0
<0x5A>	0
<0x5B>	0
<0x5C>	0
<0x5D>	0
<0x5E>	0
<0x5F>	0
<0x60>	0
<0x61>	0
<0x62>	0
<0x63>	0
<0x64>	0
<0x65>	0
<0x66>	0
<0x67>	0
<0x68>	0
<0x69>	0
<0x6A>	0
<0x6B>	0
<0x6C>	0
<0x6D>	0
<0x6E>	0
<0x6F>	0
<0x70>	0
<0x71>	0
<0x72>	0
<0x73>	0
<0x74>	0
<0x75>	0
<0x76>	0
<0x77>	0
<0x78>	0
<0x79>	0
<0x7A>	0
<0x7B>	0
<0x7C>	0
<0x7D>	0
<0x7E>	0
<0x7F>	0
<0x80>	0
<0x81>	0
<0x82>	0
<0x83>	0
<0x84>	0
<0x85>	0
<0x86>	0
<0x87>	0
<0x88>	0
<0x89>	0
<0x8A>	0
<0x8B>	0
<0x8C>	0
<0x8D>	0
<0x8E>	0
<0x8F>	0
<0x90>	0
<0x91>	0
<0x92>	0
<0x93>	0
<0x94>	0
<0x95>	0
<0x96>	0
<0x97>	0
<0x98>	0
<0x99>	0
<0x9A>	0
<0x9B>	0
<0x9C>	0
<0x9D>	0
<0x9E>	0
<0x9F>	0
<0xA0>	0
<0xA1>	0
<0xA2>	0
<0xA3>	0
<0xA4>	0
<0xA5>	0
<0xA6>	0
<0xA7>	0
<0xA8>	0
<0xA9>	0
<0xAA>	0
<0xAB>	0
<0xAC>	0
<0xAD>	0
<0xAE>	0
<0xAF>	0
<0xB0>	0
<0xB1>	0
<0xB2>	0
<0xB3>	0
<0xB4>	0
<0xB5>	0
<0xB6>	0
<0xB7>	0
<0xB8>	0
<0xB9>	0
<0xBA>	0
<0xBB>	0
<0xBC>	0
<0xBD>	0
<0xBE>	0
<0xBF>	0
<0xC0>	0
<0xC1>	0
<0xC2>	0
<0xC3>	0
<0xC4>	0
<0xC5>	0
<0xC6>	0
<0xC7>	0
<0xC8>	0
<0xC9>	0
<0xCA>	0
<0xCB>	0
<0xCC>	0
<0xCD>	0
<0xCE>	0
<0xCF>	0
<0xD0>	0
<0xD1>	0
<0xD2>	0
<0xD3>	0
<0xD4>	0
<0xD5>	0
<0xD6>	0
<0xD7>	0
<0xD8>	0
<0xD9>	0
<0xDA>	0
<0xDB>	0
<0xDC>	0
<0xDD>	0
<0xDE>	0
<0xDF>	0
<0xE0>	0
<0xE1>	0
<0xE2>	0
<0xE3>	0
<0xE4>	0
<0xE5>	0
<0xE6>	0
<0xE7>	0
<0xE8>	0
<0xE9>	0
<0xEA>	0
<0xEB>	0
<0xEC>	0
<0xED>	0
<0xEE>	0
<0xEF>	0
<0xF0>	0
<0xF1>	0
<0xF2>	0
<0xF3>	0
<0xF4>	0
<0xF5>	0
<0xF6>	0
<0xF7>	0
<0xF8>	0
<0xF9>	0
<0xFA>	0
<0xFB>	0
<0xFC>	0
<0xFD>	0
<0xFE>	0
<0xFF>	0
▁我	-0
▁你	-1
什么	-2
▁这	-3
▁不	-4
▁那	-5
怎么	-6
我们	-7
就是	-8
▁是	-9
不是	-10
没有	-11
▁但	-12
的话	-13
这个	-14
知道	-15
这样	-16
▁好	-17
现在	-18
已经	-19
你们	-20
自己	-21
因为	-22
▁真	-23
一个	-24
他们	-25
的人	-26
这么	-27
▁我们	-28
我的	-29
时候	-30
还是	-31
这里	-32
可以	-33
▁但是	-34
那个	-35
▁就	-36
为什么	-37
▁在	-38
不会	-39
所以	-40
了吗	-41
家伙	-42
你的	-43
▁没	-44
如果	-45
来了	-46
▁啊	-47
▁要	-48
▁对	-49
▁他	-50
应该	-51
也是	-52
一下	-53
开始	-54
可能	-55
一起	-56
大家	-57
的事	-58
到了	-59
可是	-60
为了	-61
这种	-62
▁还	-63
▁一	-64
▁只	-65
觉得	-66
▁这是	-67
一样	-68
来的	-69
▁所以	-70
今天	-71
▁不过	-72
真是	-73
先生	-74
▁怎么	-75
虽然	-76
好了	-77
不能	-78
▁你们	-79
▁小	-80
▁那个	-81
人的	-82
了吧	-83
▁如果	-84
▁喂	-85
真的	-86
▁有	-87
▁也	-88
给我	-89
东西	-90
同学	-91
▁而	-92
▁因为	-93
都是	-94
▁嗯	-95
▁别	-96
一定	-97
喜欢	-98
到底	-99
的时候	-100
不要	-101
一直	-102
▁说	-103
起来	-104
▁看	-105
孩子	-106
▁真是	-107
▁虽然	-108
只是	-109
世界	-110
时间	-111
▁为什么	-112
▁什么	-113
之前	-114
▁请	-115
的是	-116
▁这个	-117
▁这样	-118
意思	-119
还有	-120
▁现在	-121
一点	-122
大人	-123
那么	-124
▁那么	-125
我也	-126
问题	-127
下来	-128
地方	-129
刚才	-130
不起	-131
让我	-132
▁她	-133
如此	-134
这是	-135
工作	-136
之后	-137
巨人	-138
在这里	-139
关系	-140
无法	-141
哪里	-142
一次	-143
老师	-144
▁不是	-145
不知道	-146
去了	-147
抱歉	-148
感觉	-149
▁就是	-150
▁可	-151
明白	-152
好像	-153
出来	-154
然后	-155
朋友	-156
▁等	-157
小姐	-158
自己的	-159
▁快	-160
我就	-161
妈妈	-162
发生	-163
只有	-164
了啊	-165
是什么	-166
果然	-167
谢谢	-168
告诉	-169
▁我是	-170
回事	-171
回来	-172
人类	-173
▁从	-174
完全	-175
了我	-176
的吧	-177
也不	-178
就会	-179
最后	-180
那样	-181
▁总	-182
▁而且	-183
准备	-184
过来	-185
下去	-186
成为	-187
当然	-188
战斗	-189
难道	-190
▁能	-191
说了	-192
好好	-193
▁大	-194
这些	-195
▁我也	-196
两个	-197
办法	-198
非常	-199
▁再	-200
想要	-201
比赛	-202
那里	-203
需要	-204
有点	-205
居然	-206
明明	-207
▁就算	-208
给你	-209
其实	-210
是我	-211
力量	-212
厉害	-213
变成	-214
▁这里	-215
的吗	-216
说什么	-217
艾连	-218
他的	-219
▁你是	-220
▁今天	-221
情况	-222
不到	-223
原来	-224
而已	-225
▁他们	-226
▁然后	-227
▁不要	-228
拜托	-229
能力	-230
一个人	-231
就能	-232
▁还有	-233
▁要是	-234
▁只要	-235
希望	-236
竟然	-237
▁可是	-238
▁和	-239
▁太	-240
话说	-241
哥哥	-242
大的	-243
我是	-244
没事	-245
必须	-246
▁把	-247
的东西	-248
▁很	-249
肯定	-250
进行	-251
▁大家	-252
▁让	-253
你是	-254
不过	-255
我们的	-256
有人	-257
▁我想	-258
以为	-259
发现	-260
▁来	-261
你了	-262
说的	-263
▁听	-264
如何	-265
看到	-266
重要	-267
有什么	-268
上的	-269
不行	-270
身体	-271
不好	-272
想到	-273
姐姐	-274
作为	-275
那种	-276
绝对	-277
打算	-278
继续	-279
回去	-280
不了	-281
突然	-282
麻烦	-283
▁为了	-284
名字	-285
结束	-286
担心	-287
▁我的	-288
死了	-289
▁「	-290
▁没有	-291
的事情	-292
这样的	-293
奇怪	-294
▁都	-295
终于	-296
说过	-297
怎么样	-298
不想	-299
很多	-300
调查	-301
在这	-302
根本	-303
看看	-304
的地方	-305
件事	-306
▁哎	-307
以前	-308
▁下	-309
▁被	-310
是个	-311
的一	-312
保护	-313
来说	-314
接下来	-315
样子	-316
了一	-317
▁您	-318
干什么	-319
要是	-320
爸爸	-321
决定	-322
清楚	-323
走了	-324
让你	-325
▁阿	-326
确实	-327
▁话说	-328
努力	-329
中的	-330
都不	-331
第一	-332
▁那是	-333
生活	-334
▁正	-335
使用	-336
▁想	-337
了你	-338
▁果然	-339
怎么了	-340
好的	-341
明天	-342
马上	-343
怎么办	-344
▁我说	-345
▁是啊	-346
别人	-347
那些	-348
也没	-349
▁我要	-350
▁抱歉	-351
敌人	-352
那家伙	-353
让人	-354
▁无	-355
讨厌	-356
▁难道	-357
不错	-358
相信	-359
那边	-360
是在	-361
也会	-362
父亲	-363
男人	-364
▁这种	-365
过去	-366
其他	-367
笨蛋	-368
▁又	-369
▁诶	-370
才能	-371
▁你的	-372
你在	-373
出现	-374
有一	-375
▁你在	-376
行动	-377
▁没错	-378
▁去	-379
存在	-380
我会	-381
▁原来	-382
▁可恶	-383
怎么回事	-384
才是	-385
的话就	-386
我说	-387
机会	-388
这一	-389
了呢	-390
可爱	-391
学校	-392
找到	-393
前辈	-394
结果	-395
▁以	-396
说是	-397
不用	-398
日本	-399
认为	-400
能够	-401
▁已经	-402
▁即	-403
▁还是	-404
怎样	-405
既然	-406
做什么	-407
只能	-408
▁看来	-409
下的	-410
危险	-411
上了	-412
只要	-413
开心	-414
游戏	-415
任何	-416
▁对不起	-417
记得	-418
攻击	-419
▁这就是	-420
都没	-421
公主	-422
的我	-423
混蛋	-424
▁谢谢	-425
所谓	-426
个人	-427
出去	-428
加油	-429
这家伙	-430
▁也就是	-431
要去	-432
的女	-433
你也	-434
所有	-435
离开	-436
▁比	-437
多少	-438
学长	-439
不可能	-440
刚刚	-441
是谁	-442
的小	-443
我想	-444
还没	-445
知道了	-446
学生	-447
▁咦	-448
▁那就	-449
一定会	-450
了什么	-451
毕竟	-452
声音	-453
▁我会	-454
▁等等	-455
都会	-456
得到	-457
变得	-458
全部	-459
注意	-460
各位	-461
国家	-462
▁谁	-463
事情	-464
参加	-465
很好	-466
就算	-467
练习	-468
▁最	-469
▁会	-470
▁真的	-471
对不起	-472
对吧	-473
年前	-474
▁不管	-475
▁用	-476
特别	-477
的家伙	-478
的大	-479
计划	-480
的啊	-481
▁哎呀	-482
▁好了	-483
▁当然	-484
不多	-485
放弃	-486
▁明明	-487
目标	-488
也有	-489
还在	-490
快点	-491
成功	-492
比较	-493
▁不行	-494
▁刚才	-495
▁总之	-496
▁它	-497
但是	-498
子的	-499
就要	-500
欢迎	-501
这次	-502
▁接下来	-503
不见	-504
这边	-505
第一次	-506
▁其实	-507
正在	-508
在一起	-509
房间	-510
通过	-511
▁只是	-512
消失	-513
▁人	-514
樱木	-515
容易	-516
高中	-517
一切	-518
我来	-519
做的	-520
第二	-521
这么说	-522
▁哦	-523
不同	-524
▁没事	-525
我要	-526
▁三	-527
你说	-528
辛苦	-529
你就	-530
不管	-531
对方	-532
▁是吗	-533
理解	-534
▁这么	-535
都没有	-536
▁怎么了	-537
在意	-538
真正	-539
选择	-540
没什么	-541
▁可以	-542
▁好像	-543
▁是的	-544
学姐	-545
一定要	-546
母亲	-547
走吧	-548
▁真是的	-549
接受	-550
▁当	-551
漂亮	-552
就好了	-553
▁对了	-554
完成	-555
▁也就是说	-556
▁既然	-557
不定	-558
都在	-559
▁上	-560
似乎	-561
出了	-562
心情	-563
里面	-564
▁跟	-565
东京	-566
▁应该	-567
是你	-568
会有	-569
▁打	-570
活着	-571
精神	-572
是因为	-573
是一	-574
差不多	-575
反正	-576
玩笑	-577
里的	-578
▁不好	-579
和我	-580
▁将	-581
▁老	-582
不在	-583
年级	-584
▁放	-585
对手	-586
会被	-587
状态	-588
或许	-589
到的	-590
改变	-591
▁到底	-592
公司	-593
回家	-594
以后	-595
作战	-596
电话	-597
解决	-598
女人	-599
休息	-600
帮我	-601
▁艾连	-602
也很	-603
本来	-604
衣服	-605
高兴	-606
小心	-607
▁那家伙	-608
▁到	-609
好吗	-610
昨天	-611
艾尔	-612
干嘛	-613
身边	-614
拥有	-615
考虑	-616
冷静	-617
帮忙	-618
不可	-619
过了	-620
什么啊	-621
不得	-622
活动	-623
▁一定	-624
▁这次	-625
▁才	-626
说话	-627
进入	-628
▁我觉得	-629
也要	-630
和你	-631
认识	-632
负责	-633
▁毕竟	-634
▁为	-635
▁今	-636
同伴	-637
什么的	-638
并不是	-639
是这样	-640
看见	-641
还要	-642
▁多	-643
▁连	-644
还能	-645
▁只有	-646
回来了	-647
的样子	-648
就行	-649
▁不用	-650
▁无论	-651
的力量	-652
实在	-653
情报	-654
队长	-655
早上	-656
不太	-657
为止	-658
就在	-659
对我	-660
▁给我	-661
的那	-662
也没有	-663
意义	-664
警察	-665
出来的	-666
有些	-667
稍微	-668
十分	-669
破坏	-670
关于	-671
期待	-672
得好	-673
杀了	-674
也好	-675
她的	-676
没办法	-677
你能	-678
你们的	-679
掉了	-680
曾经	-681
直接	-682
任务	-683
方法	-684
究竟	-685
阻止	-686
▁居然	-687
总是	-688
之间	-689
忘记	-690
面的	-691
告诉我	-692
感谢	-693
算是	-694
自由	-695
▁我就	-696
早就	-697
还真是	-698
你要	-699
样的	-700
▁妈妈	-701
▁没想到	-702
家的	-703
幸福	-704
两个人	-705
一般	-706
夏目	-707
▁我已经	-708
交给	-709
去吧	-710
身上	-711
附近	-712
▁天	-713
可怕	-714
▁像	-715
训练	-716
如今	-717
普通	-718
多了	-719
她们	-720
▁你说	-721
▁但是我	-722
妖怪	-723
害怕	-724
理由	-725
生命	-726
确认	-727
▁先	-728
下了	-729
简直	-730
原因	-731
客人	-732
目的	-733
▁我在	-734
是不是	-735
抓住	-736
殿下	-737
是我的	-738
什么时候	-739
小子	-740
什么事	-741
▁与	-742
▁全	-743
因此	-744
▁我还	-745
让他	-746
▁感觉	-747
学习	-748
有个	-749
他们的	-750
赶紧	-751
▁我不	-752
算了	-753
在哪里	-754
出的	-755
命令	-756
记忆	-757
见过	-758
▁那我	-759
投手	-760
痛苦	-761
利用	-762
▁这些	-763
每天	-764
▁即使	-765
跟我	-766
说我	-767
之类	-768
▁不会	-769
▁你也	-770
倒是	-771
首先	-772
▁该	-773
这件事	-774
或者	-775
看着	-776
没问题	-777
太好了	-778
没事吧	-779
▁所以我	-780
把你	-781
梦想	-782
用的	-783
不一样	-784
恢复	-785
简单	-786
也能	-787
我了	-788
替身	-789
随便	-790
魔法	-791
回答	-792
分钟	-793
回到	-794
▁不能	-795
▁听说	-796
▁不好意思	-797
够了	-798
生的	-799
见到	-800
必要	-801
愿意	-802
▁你要	-803
杀人	-804
武器	-805
没错	-806
这种事	-807
我还	-808
秘密	-809
出来了	-810
▁开	-811
加入	-812
我都	-813
那是	-814
▁由	-815
生气	-816
受到	-817
时的	-818
一天	-819
不上	-820
家里	-821
得很	-822
▁是我	-823
▁竟然	-824
新的	-825
跟你	-826
就好	-827
教练	-828
住手	-829
做了	-830
最近	-831
自然	-832
距离	-833
不对	-834
在我	-835
毫无	-836
你不	-837
上去	-838
太郎	-839
斯特	-840
时代	-841
等等	-842
一些	-843
你会	-844
一直在	-845
听说	-846
好吃	-847
▁不知道	-848
才会	-849
色的	-850
▁一直	-851
▁你这	-852
▁反正	-853
是为了	-854
成了	-855
永远	-856
面前	-857
联系	-858
瞬间	-859
立刻	-860
就可以	-861
▁给	-862
咖啡	-863
真正的	-864
位置	-865
妹妹	-866
方式	-867
▁你想	-868
▁我可	-869
▁并	-870
守护	-871
有趣	-872
森林	-873
照片	-874
两人	-875
认真	-876
明白了	-877
兴趣	-878
▁这家伙	-879
想法	-880
我不	-881
把我	-882
至少	-883
选手	-884
▁我知道	-885
受伤	-886
就像	-887
等一下	-888
保持	-889
感到	-890
战争	-891
不好意思	-892
令人	-893
失去	-894
恐怕	-895
流川	-896
眼睛	-897
过分	-898
▁我只是	-899
怎么可能	-900
小鬼	-901
愧是	-902
见面	-903
▁我去	-904
为什么要	-905
了哦	-906
大概	-907
部分	-908
还没有	-909
做到	-910
还不	-911
听到	-912
除了	-913
应该是	-914
实力	-915
结婚	-916
▁终于	-917
了解	-918
它们	-919
爷爷	-920
你想	-921
出发	-922
就不	-923
没法	-924
城市	-925
家人	-926
死的	-927
▁好的	-928
到底是	-929
▁这里是	-930
都要	-931
些什么	-932
起来了	-933
重要的	-934
住了	-935
全力	-936
大赛	-937
安全	-938
意识	-939
▁这样啊	-940
▁妳	-941
之力	-942
地下	-943
表情	-944
▁最后	-945
之中	-946
研究	-947
▁你看	-948
一起去	-949
让我们	-950
未来	-951
试试	-952
▁喂喂	-953
袭击	-954
请你	-955
叫我	-956
来到	-957
顺利	-958
▁前	-959
▁难	-960
不断	-961
恶魔	-962
湘北	-963
适合	-964
▁你不	-965
不知	-966
也太	-967
人了	-968
几个	-969
士兵	-970
我在	-971
接近	-972
没关系	-973
▁这不是	-974
甚至	-975
看来	-976
考试	-977
进去	-978
▁让我	-979
人啊	-980
吃饭	-981
哪儿	-982
我吗	-983
糟糕	-984
▁白	-985
开了	-986
▁你怎么	-987
的确	-988
胜负	-989
▁虽	-990
▁你就	-991
遇到	-992
▁作为	-993
事件	-994
你这	-995
医生	-996
原谅	-997
同时	-998
好吧	-999
的时间	-1000
▁没关系	-1001
什么都	-1002
▁据	-1003
打倒	-1004
根据	-1005
死亡	-1006
相当	-1007
错了	-1008
也不会	-1009
来这里	-1010
那个人	-1011
▁我才	-1012
其中	-1013
经常	-1014
被人	-1015
▁但我	-1016
的情况	-1017
这么多	-1018
一边	-1019
无聊	-1020
▁爸爸	-1021
▁本	-1022
动作	-1023
照顾	-1024
大家都	-1025
▁若	-1026
再次	-1027
地球	-1028
马莱	-1029
▁我有	-1030
▁那就是	-1031
一场	-1032
当时	-1033
结束了	-1034
▁干	-1035
介绍	-1036
无论	-1037
篮球	-1038
外面	-1039
实现	-1040
一来	-1041
你啊	-1042
至今	-1043
▁之前	-1044
制作	-1045
肚子	-1046
道歉	-1047
面对	-1048
▁拜托	-1049
▁说起来	-1050
不懂	-1051
年的	-1052
更加	-1053
再来	-1054
帮你	-1055
社长	-1056
过的	-1057
▁首先	-1058
▁太好了	-1059
▁就像	-1060
别的	-1061
才行	-1062
好啊	-1063
父母	-1064
速度	-1065
▁好好	-1066
在那里	-1067
找到了	-1068
的世界	-1069
灵魂	-1070
现实	-1071
等着	-1072
紧张	-1073
队伍	-1074
▁确实	-1075
▁结果	-1076
做好	-1077
儿子	-1078
兵团	-1079
成的	-1080
进来	-1081
重新	-1082
▁自	-1083
完了	-1084
战士	-1085
技术	-1086
处理	-1087
是吧	-1088
社团	-1089
者的	-1090
▁话说回来	-1091
味道	-1092
忘了	-1093
遗憾	-1094
可不是	-1095
▁我不会	-1096
关照	-1097
温柔	-1098
▁哥哥	-1099
▁姐姐	-1100
▁我来	-1101
▁老师	-1102
并没有	-1103
▁哇	-1104
失败	-1105
帮助	-1106
年轻	-1107
怪物	-1108
的你	-1109
的手	-1110
▁第	-1111
并不	-1112
熊猫	-1113
开始就	-1114
怎么说	-1115
▁原来如此	-1116
国的	-1117
放心	-1118
无所谓	-1119
▁美	-1120
感情	-1121
生物	-1122
▁不对	-1123
的工作	-1124
看起来	-1125
周围	-1126
获得	-1127
▁也是	-1128
▁明天	-1129
一样的	-1130
不出	-1131
女儿	-1132
小秋	-1133
来看	-1134
就行了	-1135
▁你知道	-1136
▁却	-1137
不少	-1138
拯救	-1139
晚上	-1140
暂时	-1141
留下	-1142
小时	-1143
我去	-1144
▁直	-1145
主人	-1146
在那	-1147
他是	-1148
您的	-1149
投球	-1150
拒绝	-1151
细胞	-1152
蛋糕	-1153
部的	-1154
▁海	-1155
再见	-1156
女生	-1157
弟弟	-1158
手的	-1159
赢了	-1160
那就	-1161
部队	-1162
王牌	-1163
约定	-1164
继承	-1165
▁你好	-1166
之类的	-1167
▁怎么会	-1168
利亚	-1169
寻找	-1170
很难	-1171
也不是	-1172
人类的	-1173
有没有	-1174
▁没什么	-1175
发生了什么	-1176
莱纳	-1177
进攻	-1178
都能	-1179
我已经	-1180
▁亚	-1181
妖精	-1182
牺牲	-1183
身份	-1184
迪亚	-1185
告诉你	-1186
就这样	-1187
巨人的	-1188
没想到	-1189
▁怎么回事	-1190
你还	-1191
正常	-1192
没能	-1193
这点	-1194
长的	-1195
阿尔	-1196
▁之后	-1197
▁欢迎	-1198
▁少	-1199
▁每	-1200
反应	-1201
哈哈	-1202
不过是	-1203
前进	-1204
早上好	-1205
▁怎么样	-1206
▁等一下	-1207
▁你说什么	-1208
▁伊	-1209
各种	-1210
带着	-1211
日子	-1212
结衣	-1213
▁快点	-1214
怎么做	-1215
也在	-1216
方向	-1217
组织	-1218
▁你还	-1219
▁可能	-1220
这么想	-1221
▁出	-1222
▁花	-1223
下一	-1224
下次	-1225
故事	-1226
▁千	-1227
▁明	-1228
人们	-1229
报告	-1230
控制	-1231
开始了	-1232
▁我不是	-1233
交往	-1234
只会	-1235
都被	-1236
▁即便	-1237
子小姐	-1238
会儿	-1239
对你	-1240
心里	-1241
有的	-1242
▁我很	-1243
▁那些	-1244
▁哪	-1245
旅行	-1246
有一天	-1247
看到了	-1248
▁中	-1249
一人	-1250
想象	-1251
系统	-1252
▁大概	-1253
说不定	-1254
▁做	-1255
强的	-1256
漫画	-1257
程度	-1258
米尔	-1259
胜利	-1260
身为	-1261
闭嘴	-1262
▁你不是	-1263
▁因为我	-1264
干掉	-1265
表现	-1266
▁都是	-1267
不容易	-1268
的男人	-1269
一种	-1270
医院	-1271
影响	-1272
监视	-1273
▁大家都	-1274
是怎么回事	-1275
石头	-1276
罢了	-1277
的话我	-1278
辛苦了	-1279
▁怎么可能	-1280
变化	-1281
城墙	-1282
实际	-1283
恐怖	-1284
▁我可是	-1285
再说	-1286
的孩子	-1287
的那个	-1288
过来了	-1289
不如	-1290
允许	-1291
方面	-1292
而言	-1293
▁必须	-1294
习惯	-1295
动物	-1296
目前	-1297
赤木	-1298
回去了	-1299
▁于	-1300
全国	-1301
左右	-1302
我一	-1303
这座	-1304
▁非常	-1305
那样的	-1306
国王	-1307
正是	-1308
▁因此	-1309
我们就	-1310
▁谢谢你	-1311
原本	-1312
性命	-1313
问你	-1314
难以	-1315
▁完全	-1316
▁那样	-1317
▁后	-1318
▁新	-1319
以来	-1320
完美	-1321
得太	-1322
慢慢	-1323
毕业	-1324
消息	-1325
生存	-1326
音乐	-1327
不是吗	-1328
你怎么	-1329
真的是	-1330
▁我们的	-1331
做出	-1332
拼命	-1333
故意	-1334
的呢	-1335
下来的	-1336
▁为什么要	-1337
关键	-1338
去找	-1339
移动	-1340
糟了	-1341
▁他是	-1342
▁我叫	-1343
所有人	-1344
为什么会	-1345
句话	-1346
心的	-1347
正义	-1348
轻松	-1349
运动	-1350
▁很好	-1351
▁算了	-1352
出现了	-1353
我很	-1354
杀掉	-1355
状况	-1356
说明	-1357
▁我都	-1358
这个世界	-1359
▁这是什么	-1360
上场	-1361
对了	-1362
彻底	-1363
恋爱	-1364
把它	-1365
社会	-1366
这一点	-1367
▁有什么	-1368
反而	-1369
女孩	-1370
这份	-1371
▁事	-1372
团长	-1373
少女	-1374
英雄	-1375
超级	-1376
防守	-1377
▁不不	-1378
▁接	-1379
制造	-1380
平时	-1381
愿望	-1382
我啊	-1383
条件	-1384
正式	-1385
▁想要	-1386
发生了	-1387
不住	-1388
的心	-1389
尤米尔	-1390
绝对不会	-1391
勉强	-1392
后的	-1393
我和	-1394
是被	-1395
杀死	-1396
▁我现在	-1397
一步	-1398
军团	-1399
力的	-1400
吃掉	-1401
很有	-1402
日元	-1403
证明	-1404
责任	-1405
▁我和	-1406
活下去	-1407
▁说不定	-1408
▁水	-1409
地狱	-1410
说你	-1411
的感觉	-1412
我才	-1413
让她	-1414
集中	-1415
▁樱木	-1416
▁那种	-1417
▁尽	-1418
▁得	-1419
也许	-1420
约会	-1421
说要	-1422
赶快	-1423
都有	-1424
▁你能	-1425
▁比起	-1426
怎么会	-1427
我还是	-1428
宇宙	-1429
手机	-1430
的球	-1431
▁或许	-1432
▁那你	-1433
真的很	-1434
▁光	-1435
▁神	-1436
唯一	-1437
属于	-1438
成员	-1439
什么呢	-1440
出局	-1441
对付	-1442
资格	-1443
轻易	-1444
食物	-1445
▁搞	-1446
少年	-1447
按照	-1448
是有	-1449
建筑	-1450
着我	-1451
记录	-1452
里斯	-1453
队的	-1454
▁据说	-1455
回去吧	-1456
这就是	-1457
艾尔迪亚	-1458
哪个	-1459
舞台	-1460
要求	-1461
还真	-1462
▁希望	-1463
的能力	-1464
正确	-1465
黑暗	-1466
▁知道	-1467
可能会	-1468
▁嘛	-1469
魔术	-1470
的问题	-1471
吃了	-1472
婆婆	-1473
所在	-1474
留在	-1475
▁喂你	-1476
开玩笑	-1477
伤害	-1478
奇犽	-1479
子里	-1480
尸体	-1481
我能	-1482
然而	-1483
眼前	-1484
▁下次	-1485
现在的	-1486
麻烦了	-1487
传说	-1488
停止	-1489
坚持	-1490
我有	-1491
才对	-1492
都很	-1493
让他们	-1494
这么做	-1495
们的	-1496
吉克	-1497
天才	-1498
把他	-1499
犯人	-1500
还会	-1501
拜托你了	-1502
之外	-1503
去的	-1504
口气	-1505
想想	-1506
我吧	-1507
执行	-1508
莉亚	-1509
▁也许	-1510
做不到	-1511
多关照	-1512
▁安	-1513
打开	-1514
现场	-1515
见了	-1516
贝尔	-1517
输了	-1518
降谷	-1519
▁刚刚	-1520
久不见	-1521
▁早	-1522
来着	-1523
逃跑	-1524
▁我我	-1525
▁就这样	-1526
▁万	-1527
估计	-1528
你看	-1529
判断	-1530
想着	-1531
▁来吧	-1532
在这种	-1533
▁是因为	-1534
▁长	-1535
三个	-1536
决赛	-1537
尔斯	-1538
拿到	-1539
是吗	-1540
来越	-1541
的好	-1542
▁肯定	-1543
发现了	-1544
为何	-1545
大了	-1546
怪盗	-1547
来吧	-1548
电视	-1549
▁各位	-1550
任何人	-1551
▁总觉得	-1552
▁另	-1553
女王	-1554
犯罪	-1555
王子	-1556
真的吗	-1557
越来越	-1558
▁不愧是	-1559
▁我一直	-1560
之一	-1561
会长	-1562
基本	-1563
它的	-1564
是想	-1565
泽村	-1566
的哦	-1567
厉害啊	-1568
▁什么啊	-1569
到底是什么	-1570
▁黑	-1571
产生	-1572
路上	-1573
▁只能	-1574
实在是	-1575
中央	-1576
代表	-1577
偶尔	-1578
炸弹	-1579
瞄准	-1580
称为	-1581
而且	-1582
行为	-1583
世界的	-1584
我觉得	-1585
段时间	-1586
▁两	-1587
兄弟	-1588
出手	-1589
创造	-1590
回忆	-1591
复活	-1592
舒服	-1593
回来的	-1594
所谓的	-1595
▁更	-1596
▁艾	-1597
▁马	-1598
不像	-1599
不安	-1600
以及	-1601
实验	-1602
察觉	-1603
是从	-1604
等了	-1605
给他	-1606
▁然而	-1607
▁这下	-1608
也可以	-1609
最后一	-1610
▁我也是	-1611
▁随	-1612
命运	-1613
客气	-1614
棒了	-1615
棒球	-1616
用了	-1617
真相	-1618
▁关于	-1619
▁对于	-1620
也不能	-1621
大人的	-1622
是不会	-1623
的名字	-1624
▁怎么办	-1625
▁主	-1626
▁月	-1627
一遍	-1628
全都	-1629
墙壁	-1630
意外	-1631
的水	-1632
的声音	-1633
▁什么嘛	-1634
▁是不是	-1635
该怎么办	-1636
你来	-1637
前往	-1638
解释	-1639
▁有人	-1640
在这个	-1641
上面	-1642
值得	-1643
的新	-1644
站住	-1645
表演	-1646
了我们	-1647
交给你	-1648
给你们	-1649
怎么样了	-1650
▁呃	-1651
仅仅	-1652
优秀	-1653
政府	-1654
是的	-1655
有多	-1656
礼物	-1657
▁不知	-1658
▁高	-1659
偶像	-1660
武士	-1661
▁人类	-1662
▁绝对	-1663
说的话	-1664
▁夏	-1665
会的	-1666
你去	-1667
加上	-1668
擅长	-1669
资料	-1670
钥匙	-1671
▁最近	-1672
一下吧	-1673
真是的	-1674
过来的	-1675
叶卡	-1676
大学	-1677
打扰	-1678
最终	-1679
而是	-1680
▁比如	-1681
▁虽说	-1682
交给我	-1683
▁在这里	-1684
▁向	-1685
▁此	-1686
享受	-1687
大叔	-1688
很快	-1689
更多	-1690
那时	-1691
靠近	-1692
▁于是	-1693
▁本来	-1694
下来了	-1695
会议	-1696
小的	-1697
接触	-1698
有了	-1699
睡着	-1700
装置	-1701
进了	-1702
▁我能	-1703
▁请问	-1704
到这里	-1705
▁我还是	-1706
▁那我们	-1707
▁什	-1708
▁哟	-1709
价值	-1710
几乎	-1711
强大	-1712
思考	-1713
想去	-1714
掌握	-1715
放在	-1716
深海	-1717
驾驶	-1718
▁在这	-1719
场比赛	-1720
一条	-1721
仔细	-1722
动了	-1723
后悔	-1724
和平	-1725
店里	-1726
正好	-1727
说得	-1728
阁下	-1729
谢谢你	-1730
▁日	-1731
▁青	-1732
始祖	-1733
将军	-1734
男生	-1735
不成	-1736
内容	-1737
历史	-1738
可怜	-1739
我没	-1740
打击	-1741
方便	-1742
是最	-1743
电影	-1744
美国	-1745
▁以前	-1746
▁明白	-1747
比较好	-1748
不去	-1749
之王	-1750
依然	-1751
假的	-1752
内心	-1753
恶心	-1754
意见	-1755
指挥	-1756
爆炸	-1757
设计	-1758
邀请	-1759
▁你你	-1760
▁而是	-1761
这样啊	-1762
即使	-1763
实话	-1764
操纵	-1765
演奏	-1766
的对	-1767
经历	-1768
老板	-1769
▁一个	-1770
▁阿尔	-1771
了不起	-1772
就不会	-1773
▁吃	-1774
▁呐	-1775
充满	-1776
名的	-1777
寂寞	-1778
得分	-1779
想的	-1780
的嘛	-1781
确定	-1782
答案	-1783
▁哪里	-1784
▁昨天	-1785
你不是	-1786
这个人	-1787
▁真是个	-1788
▁二	-1789
▁铃	-1790
在哪	-1791
奇迹	-1792
库鲁	-1793
的气	-1794
说出	-1795
▁我从	-1796
▁突然	-1797
就没有	-1798
还活着	-1799
人员	-1800
他人	-1801
到我	-1802
帝国	-1803
带来	-1804
水晶	-1805
空间	-1806
答应	-1807
证据	-1808
▁是你	-1809
也就是	-1810
克里斯	-1811
▁怎	-1812
▁求	-1813
伙伴	-1814
即将	-1815
叔叔	-1816
战场	-1817
检查	-1818
飞机	-1819
▁笨蛋	-1820
真是太	-1821
这里的	-1822
▁那我就	-1823
不明	-1824
人家	-1825
出场	-1826
发挥	-1827
困难	-1828
增加	-1829
得了	-1830
打败	-1831
指教	-1832
有着	-1833
特殊	-1834
睡觉	-1835
蠢货	-1836
跟他	-1837
道的	-1838
▁听好了	-1839
▁难道说	-1840
和他	-1841
成绩	-1842
拿着	-1843
挑战	-1844
收拾	-1845
角色	-1846
▁至少	-1847
知道的	-1848
▁卡	-1849
▁哈	-1850
▁莫	-1851
保证	-1852
入了	-1853
地的	-1854
大量	-1855
威胁	-1856
岩石	-1857
很久	-1858
收集	-1859
规则	-1860
还挺	-1861
里维	-1862
▁加油	-1863
一年级	-1864
你们了	-1865
我现在	-1866
▁就算是	-1867
▁春	-1868
乖乖	-1869
仗助	-1870
动手	-1871
头发	-1872
小孩	-1873
我可	-1874
真实	-1875
站在	-1876
老实	-1877
阿姨	-1878
其他人	-1879
让你们	-1880
都不会	-1881
▁初	-1882
事吗	-1883
信任	-1884
平安	-1885
怀疑	-1886
爱的	-1887
自我	-1888
▁好吧	-1889
▁混蛋	-1890
奇怪的	-1891
有很多	-1892
▁四	-1893
到处	-1894
剩下	-1895
机动	-1896
猎人	-1897
眼镜	-1898
起了	-1899
这就	-1900
女孩子	-1901
把这个	-1902
就是这样	-1903
似的	-1904
信号	-1905
到达	-1906
开我	-1907
成长	-1908
整个	-1909
请求	-1910
边的	-1911
▁我没	-1912
▁这位	-1913
最后的	-1914
▁那个人	-1915
▁金	-1916
作品	-1917
又是	-1918
发射	-1919
叫做	-1920
少爷	-1921
就没	-1922
暴露	-1923
毁灭	-1924
浪费	-1925
看了	-1926
第三	-1927
美丽	-1928
遗产	-1929
那天	-1930
骑士	-1931
▁恐怕	-1932
▁第一	-1933
失去了	-1934
我不是	-1935
这不是	-1936
▁不可能	-1937
之下	-1938
侦探	-1939
发动	-1940
宝石	-1941
尼亚	-1942
放过	-1943
是否	-1944
有关	-1945
被你	-1946
见识	-1947
道路	-1948
剩下的	-1949
的人们	-1950
▁分	-1951
不够	-1952
事实	-1953
凶手	-1954
夺走	-1955
家庭	-1956
感受	-1957
支配	-1958
杀害	-1959
难得	-1960
实际上	-1961
上来	-1962
决心	-1963
垃圾	-1964
好多	-1965
方的	-1966
球的	-1967
节目	-1968
觉悟	-1969
跟着	-1970
隐藏	-1971
顺便	-1972
会变成	-1973
的人生	-1974
▁不不是	-1975
像是	-1976
基德	-1977
有所	-1978
穿着	-1979
老爸	-1980
诅咒	-1981
这条	-1982
随时	-1983
▁那时	-1984
你自己	-1985
▁早上好	-1986
互相	-1987
思议	-1988
晚了	-1989
请您	-1990
逃走	-1991
▁一旦	-1992
先生的	-1993
别人的	-1994
马上就	-1995
▁真的吗	-1996
▁回	-1997
一年	-1998
企鹅	-1999
到你	-2000
可惜	-2001
吃吧	-2002
合适	-2003
地点	-2004
太多	-2005
彼此	-2006
范围	-2007
观察	-2008
部长	-2009
▁第二	-2010
不会是	-2011
变成了	-2012
所有的	-2013
▁我们是	-2014
▁所以说	-2015
▁虽然我	-2016
▁这样下去	-2017
▁死	-2018
▁相	-2019
不及	-2020
世上	-2021
之人	-2022
后面	-2023
夏天	-2024
小杰	-2025
巧克	-2026
想过	-2027
支持	-2028
料理	-2029
暗杀	-2030
自信	-2031
误会	-2032
▁在那	-2033
不需要	-2034
消失了	-2035
由我来	-2036
▁如果你	-2037
▁我们要	-2038
干什么啊	-2039
真是太好了	-2040
严重	-2041
出生	-2042
协助	-2043
可疑	-2044
女性	-2045
姑娘	-2046
弗拉	-2047
▁今后	-2048
▁根据	-2049
▁这边	-2050
巨大的	-2051
我自己	-2052
那么多	-2053
那时候	-2054
调查军团	-2055
▁红	-2056
▁话	-2057
几天	-2058
圣诞	-2059
心脏	-2060
许多	-2061
面包	-2062
▁简直	-2063
久等了	-2064
可以吗	-2065
就这么	-2066
的方法	-2067
▁这可是	-2068
▁这样的话	-2069
一球	-2070
今后	-2071
叫你	-2072
多久	-2073
性格	-2074
打工	-2075
渐渐	-2076
高的	-2077
▁啊是	-2078
女朋友	-2079
男朋友	-2080
的朋友	-2081
▁哼	-2082
▁外	-2083
▁西	-2084
▁走	-2085
不着	-2086
区域	-2087
惩罚	-2088
收到	-2089
死去	-2090
的海	-2091
禁止	-2092
紧急	-2093
这位	-2094
颜色	-2095
▁不然	-2096
▁准备	-2097
▁来了	-2098
拜托了	-2099
不久	-2100
光临	-2101
振作	-2102
早点	-2103
眼神	-2104
线索	-2105
一定能	-2106
下去了	-2107
你知道	-2108
敌人的	-2109
的就是	-2110
给我们	-2111
这里是	-2112
这个国家	-2113
单纯	-2114
压力	-2115
地区	-2116
持续	-2117
烦恼	-2118
特意	-2119
等待	-2120
▁他的	-2121
▁开始	-2122
你还是	-2123
到现在	-2124
又不是	-2125
巧克力	-2126
已经是	-2127
必须要	-2128
最大的	-2129
的人类	-2130
的女人	-2131
说出来	-2132
▁你要是	-2133
不可思议	-2134
什么意思	-2135
那个时候	-2136
▁手	-2137
一旦	-2138
今年	-2139
仙道	-2140
你好	-2141
可真	-2142
司令	-2143
在想	-2144
对于	-2145
撤退	-2146
故乡	-2147
真心	-2148
经过	-2149
输给	-2150
▁的确	-2151
你这个	-2152
好像是	-2153
▁一定要	-2154
▁好厉害	-2155
▁你这家伙	-2156
发生什么事	-2157
交换	-2158
你有	-2159
前面	-2160
态度	-2161
手了	-2162
数量	-2163
去哪里	-2164
听我说	-2165
多指教	-2166
▁你觉得	-2167
▁我不想	-2168
▁投	-2169
三笠	-2170
个好	-2171
你一	-2172
在下	-2173
妻子	-2174
将会	-2175
并非	-2176
时刻	-2177
真好	-2178
背后	-2179
那位	-2180
陵南	-2181
▁如今	-2182
▁当时	-2183
今天的	-2184
做的事	-2185
有一个	-2186
这样吗	-2187
什么都没	-2188
以外	-2189
商量	-2190
场的	-2191
家族	-2192
抛弃	-2193
是要	-2194
老头	-2195
陛下	-2196
魔导	-2197
▁好痛	-2198
▁自己	-2199
的意思	-2200
▁所以才	-2201
▁这么说	-2202
说什么呢	-2203
▁这样一来	-2204
▁加	-2205
▁山	-2206
▁年	-2207
不就	-2208
之墙	-2209
传球	-2210
体内	-2211
你所	-2212
发展	-2213
名为	-2214
夫人	-2215
安排	-2216
心理	-2217
文化	-2218
斯的	-2219
不足	-2220
妨碍	-2221
小兔	-2222
指示	-2223
时机	-2224
炼金	-2225
用来	-2226
能量	-2227
话了	-2228
▁能够	-2229
成功了	-2230
肯定会	-2231
阿尔敏	-2232
▁我知道了	-2233
▁同	-2234
为我	-2235
人吗	-2236
兵长	-2237
吴羽	-2238
呼吸	-2239
啊我	-2240
在你	-2241
影子	-2242
打者	-2243
明显	-2244
犹豫	-2245
着的	-2246
背叛	-2247
脑子	-2248
▁住手	-2249
▁你有	-2250
很开心	-2251
我们也	-2252
的存在	-2253
能不能	-2254
艾尔文	-2255
▁没办法	-2256
一把	-2257
一杯	-2258
今晚	-2259
做得	-2260
好事	-2261
就被	-2262
相处	-2263
相遇	-2264
▁一点	-2265
▁让我们	-2266
中了	-2267
主意	-2268
亲手	-2269
信息	-2270
恭喜	-2271
期间	-2272
看我	-2273
空中	-2274
管理	-2275
▁公主	-2276
小孩子	-2277
打电话	-2278
有可能	-2279
田先生	-2280
什么玩笑	-2281
也就	-2282
厕所	-2283
定了	-2284
机器	-2285
杀手	-2286
理所	-2287
笑容	-2288
鱼住	-2289
▁还没	-2290
听到了	-2291
喜欢的	-2292
炼金术	-2293
起来的	-2294
▁拿	-2295
▁超	-2296
▁雷	-2297
不再	-2298
个月	-2299
会在	-2300
传达	-2301
何时	-2302
危机	-2303
子弹	-2304
擅自	-2305
晚饭	-2306
独自	-2307
逮捕	-2308
▁一起	-2309
▁对吧	-2310
▁我看	-2311
▁糟了	-2312
▁那里	-2313
不就是	-2314
怎样的	-2315
我们是	-2316
这种人	-2317
都可以	-2318
▁如	-2319
▁球	-2320
了他	-2321
吃的	-2322
当成	-2323
没人	-2324
至于	-2325
行的	-2326
通知	-2327
道具	-2328
道理	-2329
▁它们	-2330
其他的	-2331
就已经	-2332
▁就是说	-2333
▁拜托了	-2334
▁那是什么	-2335
▁换	-2336
介意	-2337
你和	-2338
使命	-2339
学园	-2340
无关	-2341
没用	-2342
找不到	-2343
说什么啊	-2344
▁我还以为	-2345
▁切	-2346
上吧	-2347
住在	-2348
可恶	-2349
太阳	-2350
女士	-2351
愚蠢	-2352
欺负	-2353
死吧	-2354
猩猩	-2355
行了	-2356
辈子	-2357
错误	-2358
黄金	-2359
▁以及	-2360
▁夏目	-2361
▁小秋	-2362
▁是吧	-2363
想办法	-2364
我不会	-2365
普通的	-2366
点什么	-2367
的不是	-2368
▁你就是	-2369
▁知道了	-2370
你那	-2371
到此	-2372
啤酒	-2373
大地	-2374
是很	-2375
被他	-2376
风格	-2377
▁啊啊	-2378
▁根本	-2379
▁法	-2380
了的	-2381
你呢	-2382
出门	-2383
合作	-2384
委员	-2385
封印	-2386
尽快	-2387
手段	-2388
是指	-2389
满足	-2390
经验	-2391
芽芽	-2392
叫什么	-2393
吵死了	-2394
的机会	-2395
算什么	-2396
这种话	-2397
▁我可以	-2398
▁我没有	-2399
▁没问题	-2400
这种东西	-2401
一名	-2402
宝物	-2403
导致	-2404
当作	-2405
无人	-2406
潜水	-2407
获胜	-2408
试着	-2409
陷入	-2410
▁一切	-2411
▁就能	-2412
不愧是	-2413
世界上	-2414
先走了	-2415
我们要	-2416
现在就	-2417
看不见	-2418
魔导士	-2419
▁刚	-2420
咱们	-2421
多么	-2422
失礼	-2423
性的	-2424
来自	-2425
案件	-2426
港口	-2427
男子	-2428
记住	-2429
▁不论	-2430
▁比赛	-2431
不是很	-2432
情况下	-2433
时间了	-2434
是我们	-2435
▁救	-2436
▁火	-2437
▁玛	-2438
一只	-2439
一趟	-2440
人是	-2441
仿佛	-2442
你吧	-2443
军队	-2444
勇气	-2445
和小	-2446
在此	-2447
开枪	-2448
搜查	-2449
班的	-2450
身的	-2451
避难	-2452
▁一般	-2453
▁多亏	-2454
不明白	-2455
之间的	-2456
和我们	-2457
强大的	-2458
▁看起来	-2459
中心	-2460
事了	-2461
公会	-2462
利尔	-2463
天空	-2464
头了	-2465
岛上	-2466
意志	-2467
我家	-2468
招呼	-2469
数据	-2470
无所	-2471
来啊	-2472
白痴	-2473
相同	-2474
类型	-2475
聚集	-2476
花道	-2477
陷阱	-2478
集合	-2479
▁以后	-2480
▁我只	-2481
之所以	-2482
冷静点	-2483
可能性	-2484
大家的	-2485
高中生	-2486
▁你已经	-2487
▁你这个	-2488
理所当然	-2489
▁号	-2490
之时	-2491
作用	-2492
使者	-2493
便当	-2494
内部	-2495
大哥	-2496
女的	-2497
巨大	-2498
才好	-2499
梦幻	-2500
气势	-2501
治疗	-2502
甘心	-2503
连续	-2504
▁或者	-2505
▁糟糕	-2506
完成了	-2507
得这么	-2508
▁你以为	-2509
▁你到底	-2510
▁差不多	-2511
▁没事的	-2512
也被	-2513
地面	-2514
夺回	-2515
委托	-2516
安静	-2517
建造	-2518
房子	-2519
效果	-2520
来找	-2521
特地	-2522
立花	-2523
观众	-2524
轮到	-2525
魔力	-2526
▁下集	-2527
▁再见	-2528
▁尽管	-2529
不得不	-2530
会不会	-2531
的巨人	-2532
过去了	-2533
交给你了	-2534
▁乔	-2535
▁王	-2536
一句	-2537
一片	-2538
上学	-2539
会很	-2540
听听	-2541
吸引	-2542
告辞	-2543
基拉	-2544
定的	-2545
异能	-2546
拉拉	-2547
棒的	-2548
游泳	-2549
▁敌人	-2550
▁看到	-2551
已经被	-2552
很奇怪	-2553
我可是	-2554
▁你们两个	-2555
▁吉	-2556
▁爱	-2557
上课	-2558
人物	-2559
他了	-2560
便是	-2561
初中	-2562
店的	-2563
律师	-2564
心中	-2565
想起	-2566
教室	-2567
某个	-2568
田中	-2569
给她	-2570
聪明	-2571
这场	-2572
造成	-2573
黑手	-2574
▁他在	-2575
▁在我	-2576
▁湘北	-2577
▁通过	-2578
好了吗	-2579
孩子们	-2580
就是个	-2581
得到了	-2582
的比赛	-2583
的理由	-2584
▁这种事	-2585
一位	-2586
下面	-2587
不清	-2588
他在	-2589
位于	-2590
先去	-2591
兴奋	-2592
听见	-2593
差点	-2594
救了	-2595
消灭	-2596
相关	-2597
看吧	-2598
队员	-2599
一件事	-2600
一定是	-2601
了很多	-2602
到最后	-2603
可不行	-2604
我可以	-2605
我知道	-2606
拜托你	-2607
要不要	-2608
银水晶	-2609
▁你这是	-2610
▁这个嘛	-2611
▁都说了	-2612
是什么意思	-2613
▁幸	-2614
一家	-2615
了就	-2616
务所	-2617
和她	-2618
在了	-2619
师父	-2620
平常	-2621
您了	-2622
放松	-2623
粉丝	-2624
职业	-2625
英语	-2626
采取	-2627
问问	-2628
▁另外	-2629
▁这一	-2630
成为了	-2631
给我的	-2632
▁如果是	-2633
▁应该是	-2634
▁十	-2635
上次	-2636
城镇	-2637
奶奶	-2638
姿势	-2639
总之	-2640
恒星	-2641
精灵	-2642
▁三笠	-2643
▁又是	-2644
▁就在	-2645
▁给你	-2646
一开始	-2647
听说过	-2648
是怎么	-2649
▁我就是	-2650
▁阿尔敏	-2651
发生什么	-2652
的话我就	-2653
重要的是	-2654
万一	-2655
之处	-2656
代替	-2657
偶然	-2658
对战	-2659
差距	-2660
战胜	-2661
承认	-2662
支援	-2663
星期	-2664
最好	-2665
本人	-2666
申请	-2667
的神	-2668
舍弃	-2669
行吗	-2670
解除	-2671
走的	-2672
▁多谢	-2673
▁她们	-2674
▁甚至	-2675
▁除了	-2676
▁马上	-2677
下一个	-2678
也无法	-2679
了一下	-2680
决胜负	-2681
总觉得	-2682
真是个	-2683
▁说什么	-2684
▁这是我	-2685
▁那那个	-2686
▁米	-2687
▁除	-2688
事故	-2689
从来	-2690
伤口	-2691
停下	-2692
向我	-2693
引发	-2694
快乐	-2695
无可	-2696
曲子	-2697
理想	-2698
维持	-2699
节奏	-2700
▁有点	-2701
出现在	-2702
可爱的	-2703
对我们	-2704
对方的	-2705
尽全力	-2706
承太郎	-2707
没有人	-2708
注意到	-2709
▁你还是	-2710
一点都不	-2711
▁佐	-2712
▁布	-2713
▁拉	-2714
不说	-2715
世纪	-2716
两位	-2717
去世	-2718
发出	-2719
各自	-2720
干净	-2721
干劲	-2722
干的	-2723
强烈	-2724
当做	-2725
影山	-2726
是啊	-2727
环境	-2728
祈祷	-2729
羡慕	-2730
追求	-2731
▁今晚	-2732
▁放心	-2733
▁讨厌	-2734
▁说是	-2735
▁难得	-2736
同学的	-2737
喜欢你	-2738
成这样	-2739
的位置	-2740
看上去	-2741
▁怎么说	-2742
都不知道	-2743
▁受	-2744
一会	-2745
亲自	-2746
区区	-2747
启动	-2748
啊你	-2749
对象	-2750
异常	-2751
悲伤	-2752
打了	-2753
拉斯	-2754
泉水	-2755
超越	-2756
辞职	-2757
▁不如	-2758
▁人们	-2759
▁流川	-2760
▁说得	-2761
▁请你	-2762
▁闭嘴	-2763
不能再	-2764
太多了	-2765
我只是	-2766
是一个	-2767
次见面	-2768
▁那时候	-2769
一开始就	-2770
大家一起	-2771
▁罗	-2772
丈夫	-2773
体力	-2774
偏偏	-2775
做法	-2776
千万	-2777
变态	-2778
城惠	-2779
完毕	-2780
很不	-2781
心意	-2782
最高	-2783
气的	-2784
王的	-2785
脑袋	-2786
跑了	-2787
那一	-2788
▁似乎	-2789
▁快看	-2790
▁是个	-2791
我没有	-2792
▁说实话	-2793
▁即便如此	-2794
▁那个时候	-2795
▁露	-2796
冒险	-2797
反对	-2798
否则	-2799
墙外	-2800
安心	-2801
就有	-2802
年纪	-2803
得上	-2804
怀念	-2805
柯尼	-2806
生日	-2807
的高	-2808
着你	-2809
着呢	-2810
第四	-2811
美味	-2812
遭到	-2813
▁对啊	-2814
▁干嘛	-2815
▁父亲	-2816
在这儿	-2817
应该会	-2818
第一个	-2819
绝不会	-2820
我一个人	-2821
▁乌	-2822
▁其	-2823
▁野	-2824
克斯	-2825
写的	-2826
列车	-2827
可不	-2828
咖喱	-2829
失误	-2830
头来	-2831
展开	-2832
旁边	-2833
昨晚	-2834
本身	-2835
混乱	-2836
的了	-2837
直球	-2838
逐渐	-2839
遵守	-2840
▁下一	-2841
▁不仅	-2842
▁由于	-2843
▁目前	-2844
因为你	-2845
弗拉明	-2846
杀了你	-2847
▁这也是	-2848
▁难道是	-2849
在干什么	-2850
▁果然还是	-2851
▁古	-2852
▁带	-2853
人吧	-2854
公园	-2855
可就	-2856
同意	-2857
喝酒	-2858
嗟嗟	-2859
复杂	-2860
就把	-2861
岛的	-2862
恐惧	-2863
提高	-2864
某种	-2865
毫不	-2866
海女	-2867
特的	-2868
玩意	-2869
突破	-2870
被杀	-2871
贵的	-2872
配合	-2873
▁你别	-2874
▁是谁	-2875
▁正是	-2876
像这样	-2877
厉害了	-2878
受欢迎	-2879
怎么能	-2880
站起来	-2881
给你的	-2882
▁不是吧	-2883
也没关系	-2884
的情况下	-2885
这样下去	-2886
不停	-2887
主动	-2888
也来	-2889
入侵	-2890
压制	-2891
去做	-2892
愉快	-2893
手里	-2894
提供	-2895
时期	-2896
是不	-2897
气氛	-2898
都市	-2899
▁与其	-2900
▁再说	-2901
▁我对	-2902
▁继续	-2903
一回事	-2904
就会被	-2905
房间里	-2906
的日子	-2907
那边的	-2908
▁不会吧	-2909
▁我认为	-2910
做了什么	-2911
无论如何	-2912
▁五	-2913
▁倒	-2914
▁发	-2915
▁趁	-2916
久没	-2917
也想	-2918
亚修	-2919
取得	-2920
射击	-2921
潜入	-2922
皮克	-2923
神的	-2924
联络	-2925
葡萄	-2926
问我	-2927
▁战斗	-2928
▁无法	-2929
▁直到	-2930
▁莱纳	-2931
▁请您	-2932
你已经	-2933
决定了	-2934
出去了	-2935
刚才的	-2936
告辞了	-2937
这一切	-2938
▁所以你	-2939
果然还是	-2940
离开这里	-2941
▁我不知道	-2942
▁啥	-2943
▁希	-2944
不觉	-2945
他会	-2946
偷偷	-2947
内的	-2948
前的	-2949
唱歌	-2950
圣杯	-2951
太过	-2952
好几	-2953
威力	-2954
御坂	-2955
无视	-2956
球员	-2957
碰到	-2958
立体	-2959
跑者	-2960
跟她	-2961
▁你可	-2962
▁你真	-2963
不可以	-2964
是这么	-2965
有多少	-2966
▁因	-2967
▁巴	-2968
「」	-2969
一副	-2970
举办	-2971
了这	-2972
事的	-2973
共同	-2974
力气	-2975
去哪	-2976
去看	-2977
暑假	-2978
模仿	-2979
玩家	-2980
肉体	-2981
要被	-2982
逃避	-2983
部下	-2984
鲁诺	-2985
▁如此	-2986
▁对方	-2987
▁走吧	-2988
不清楚	-2989
了一个	-2990
到如今	-2991
就只有	-2992
木同学	-2993
没事的	-2994
添麻烦	-2995
那件事	-2996
都已经	-2997
▁我说过	-2998
克里斯塔	-2999
巨人之力	-3000
▁无论如何	-3001
▁骗	-3002
一半	-3003
传闻	-3004
加拉	-3005
包括	-3006
区的	-3007
吵架	-3008
子园	-3009
孤独	-3010
幽灵	-3011
开的	-3012
弱点	-3013
担任	-3014
挥棒	-3015
来吗	-3016
死掉	-3017
诞生	-3018
说他	-3019
路线	-3020
▁特别	-3021
▁那边	-3022
你现在	-3023
小时候	-3024
开始吧	-3025
我也会	-3026
甲子园	-3027
被称为	-3028
跟你说	-3029
全国大赛	-3030
喜欢的人	-3031
这样的话	-3032
▁那是因为	-3033
一分	-3034
不该	-3035
也挺	-3036
亚妮	-3037
仪式	-3038
体的	-3039
做个	-3040
到这	-3041
变了	-3042
同样	-3043
居民	-3044
很像	-3045
得意	-3046
或是	-3047
手指	-3048
水平	-3049
痕迹	-3050
痛痛	-3051
空气	-3052
累了	-3053
贾碧	-3054
面具	-3055
▁并且	-3056
▁这就	-3057
一下吗	-3058
很危险	-3059
我们来	-3060
的味道	-3061
的学生	-3062
的生活	-3063
黑手党	-3064
▁谁知道	-3065
调查兵团	-3066
这样的人	-3067
▁我一定会	-3068
▁假	-3069
▁理	-3070
▁草	-3071
交易	-3072
全身	-3073
北铁	-3074
基础	-3075
复仇	-3076
好球	-3077
康一	-3078
很想	-3079
快看	-3080
感冒	-3081
提出	-3082
救我	-3083
极限	-3084
测试	-3085
深处	-3086
温泉	-3087
灌篮	-3088
美子	-3089
表示	-3090
转移	-3091
运气	-3092
避免	-3093
邮件	-3094
▁要不	-3095
意识到	-3096
我们会	-3097
每天都	-3098
的身体	-3099
▁我也想	-3100
▁我希望	-3101
▁但是如果	-3102
体验	-3103
反抗	-3104
召唤	-3105
右手	-3106
地上	-3107
得真	-3108
把这	-3109
时光	-3110
机关	-3111
村子	-3112
的老	-3113
等我	-3114
诱饵	-3115
说吧	-3116
超过	-3117
足够	-3118
▁时间	-3119
▁正如	-3120
▁身体	-3121
不错啊	-3122
从这里	-3123
全都是	-3124
就交给	-3125
正确的	-3126
的原因	-3127
的记忆	-3128
贝尔托	-3129
过来吧	-3130
还给我	-3131
都无法	-3132
▁才不是	-3133
交给我吧	-3134
你没事吧	-3135
好不容易	-3136
▁唉	-3137
▁波	-3138
不来	-3139
入口	-3140
务必	-3141
印象	-3142
只剩	-3143
奴隶	-3144
对他	-3145
把她	-3146
无数	-3147
比我	-3148
演出	-3149
的主	-3150
装备	-3151
说啊	-3152
阳菜	-3153
露出	-3154
面目	-3155
▁好啊	-3156
▁对我	-3157
▁小心	-3158
▁就连	-3159
▁工作	-3160
▁稍微	-3161
▁赶紧	-3162
了我的	-3163
只是个	-3164
帕尔斯	-3165
很厉害	-3166
有意思	-3167
的事了	-3168
老师的	-3169
那孩子	-3170
▁也不是	-3171
▁你真的	-3172
不就好了	-3173
世界遗产	-3174
也没什么	-3175
▁嘿	-3176
▁离	-3177
为你	-3178
单独	-3179
处于	-3180
大型	-3181
大海	-3182
头的	-3183
小看	-3184
比起	-3185
激动	-3186
自身	-3187
▁好啦	-3188
▁最终	-3189
▁顺便	-3190
不见了	-3191
到哪里	-3192
好厉害	-3193
很有趣	-3194
我也要	-3195
果然是	-3196
的表情	-3197
能力者	-3198
▁好久不见	-3199
▁算	-3200
一份	-3201
一大	-3202
天气	-3203
她是	-3204
姐妹	-3205
将来	-3206
小花	-3207
尽情	-3208
市民	-3209
快去	-3210
报仇	-3211
抱着	-3212
新闻	-3213
火星	-3214
的地	-3215
等你	-3216
等级	-3217
语言	-3218
车站	-3219
▁前辈	-3220
▁让你	-3221
一会儿	-3222
不出来	-3223
不行了	-3224
加拉提	-3225
很好吃	-3226
来帮忙	-3227
田同学	-3228
进来了	-3229
都不能	-3230
难道是	-3231
▁因为你	-3232
▁实际上	-3233
▁尤米尔	-3234
▁并不是	-3235
▁找到了	-3236
▁果然是	-3237
▁这件事	-3238
一张	-3239
一看	-3240
三天	-3241
不幸	-3242
东大	-3243
体育	-3244
你别	-3245
到来	-3246
向你	-3247
大利	-3248
尔可	-3249
尔的	-3250
废话	-3251
憎恨	-3252
断了	-3253
海胆	-3254
点的	-3255
犯规	-3256
的花	-3257
能在	-3258
自杀	-3259
▁不我	-3260
▁今年	-3261
▁嗯我	-3262
一下子	-3263
一切都	-3264
三个人	-3265
不是说	-3266
不要再	-3267
你也是	-3268
同样的	-3269
喜欢上	-3270
学校的	-3271
年前的	-3272
感兴趣	-3273
的女生	-3274
看看吧	-3275
▁不管是	-3276
▁你现在	-3277
▁我们也	-3278
就可以了	-3279
▁叫	-3280
▁平	-3281
▁心	-3282
▁追	-3283
▁飞	-3284
下吧	-3285
不动	-3286
二十	-3287
什麽	-3288
依旧	-3289
包围	-3290
失踪	-3291
尝尝	-3292
尽管	-3293
尽量	-3294
庆祝	-3295
手上	-3296
拍摄	-3297
更好	-3298
温暖	-3299
电车	-3300
能让	-3301
谁啊	-3302
过程	-3303
门的	-3304
预告	-3305
▁打扰	-3306
▁铃芽	-3307
▁面对	-3308
不喜欢	-3309
也不错	-3310
受不了	-3311
可爱啊	-3312
男人的	-3313
过分了	-3314
遇到了	-3315
那就是	-3316
▁什么事	-3317
▁但如果	-3318
在做什么	-3319
社团活动	-3320
这是什么	-3321
▁你为什么	-3322
▁找	-3323
▁的	-3324
人质	-3325
任性	-3326
变身	-3327
坏了	-3328
多亏	-3329
大声	-3330
形状	-3331
想让	-3332
战术	-3333
打到	-3334
晚安	-3335
火山	-3336
疑问	-3337
社的	-3338
秋叶	-3339
称呼	-3340
纳兹	-3341
莎夏	-3342
被我	-3343
路了	-3344
这事	-3345
选拔	-3346
那只	-3347
▁不错	-3348
▁你和	-3349
▁巨人	-3350
▁爷爷	-3351
▁都怪	-3352
不同的	-3353
不小心	-3354
把他们	-3355
是你的	-3356
的一切	-3357
的情报	-3358
的状态	-3359
肚子饿	-3360
这孩子	-3361
这样做	-3362
▁你给我	-3363
▁我记得	-3364
▁没事吧	-3365
斯特莉亚	-3366
至今为止	-3367
▁那样的话	-3368
▁久	-3369
下手	-3370
人生	-3371
再去	-3372
同一	-3373
啰嗦	-3374
多谢	-3375
干脆	-3376
打扫	-3377
文字	-3378
是小	-3379
直到	-3380
越是	-3381
里有	-3382
青道	-3383
▁奇怪	-3384
不得了	-3385
和你们	-3386
是无法	-3387
的人吗	-3388
的心情	-3389
跟我们	-3390
这回事	-3391
问题吗	-3392
魔术师	-3393
▁我也要	-3394
贝尔托特	-3395
都是为了	-3396
▁强	-3397
▁竟	-3398
不敢	-3399
之地	-3400
亲眼	-3401
依靠	-3402
公里	-3403
功夫	-3404
卡片	-3405
去年	-3406
好啦	-3407
宪兵	-3408
对抗	-3409
建立	-3410
想说	-3411
指导	-3412
推测	-3413
教育	-3414
汤音	-3415
沙漠	-3416
生意	-3417
的啦	-3418
组合	-3419
翔阳	-3420
藏在	-3421
规模	-3422
连接	-3423
铠甲	-3424
风景	-3425
▁但你	-3426
▁所谓	-3427
▁找到	-3428
带来的	-3429
的只有	-3430
的女儿	-3431
这次的	-3432
▁你应该	-3433
不用担心	-3434
要去哪里	-3435
艾尔迪亚人	-3436
▁开什么玩笑	-3437
▁修	-3438
▁冲	-3439
▁名	-3440
▁夜	-3441
▁穿	-3442
▁谢	-3443
专门	-3444
两次	-3445
关心	-3446
制裁	-3447
加速	-3448
区别	-3449
哭了	-3450
安打	-3451
差劲	-3452
帆高	-3453
忍耐	-3454
情绪	-3455
投篮	-3456
斗士	-3457
是他	-3458
服务	-3459
正面	-3460
碍事	-3461
解开	-3462
贵族	-3463
这群	-3464
迪斯	-3465
重复	-3466
镜子	-3467
▁你又	-3468
▁你来	-3469
▁小杰	-3470
▁那天	-3471
不是我	-3472
公司的	-3473
在我们	-3474
的人啊	-3475
▁你刚才	-3476
▁吵死了	-3477
▁那么就	-3478
怎么说呢	-3479
▁克	-3480
▁八	-3481
一同	-3482
反省	-3483
失望	-3484
头脑	-3485
嫌疑	-3486
幸运	-3487
开发	-3488
引起	-3489
打个	-3490
抓到	-3491
搭档	-3492
每次	-3493
的名	-3494
笑了	-3495
红色	-3496
绝不	-3497
详细	-3498
调整	-3499
▁你会	-3500
▁其他	-3501
▁发现	-3502
▁好想	-3503
一口气	-3504
危险了	-3505
我们在	-3506
我就是	-3507
的话会	-3508
要怎么	-3509
让我来	-3510
那种事	-3511
▁不过我	-3512
▁是为了	-3513
你们两个	-3514
变成这样	-3515
是不可能	-3516
▁接下来是	-3517
▁仅	-3518
▁恩	-3519
▁石	-3520
▁银	-3521
一声	-3522
上一	-3523
上有	-3524
人呢	-3525
作业	-3526
你都	-3527
博士	-3528
可靠	-3529
名其	-3530
坚强	-3531
好想	-3532
学会	-3533
明日	-3534
期望	-3535
满意	-3536
球队	-3537
由于	-3538
纪念	-3539
结局	-3540
结界	-3541
背负	-3542
要说	-3543
跟踪	-3544
遭遇	-3545
长大	-3546
了不少	-3547
同学你	-3548
察觉到	-3549
很喜欢	-3550
没事了	-3551
的敌人	-3552
看到的	-3553
篮球队	-3554
▁这个人	-3555
到此为止	-3556
▁但是现在	-3557
▁宫	-3558
为此	-3559
伯爵	-3560
做过	-3561
刺激	-3562
双手	-3563
台词	-3564
坏球	-3565
天真	-3566
待在	-3567
打扮	-3568
承蒙	-3569
掉的	-3570
机体	-3571
混账	-3572
由我	-3573
看过	-3574
知识	-3575
老大	-3576
艺术	-3577
讨论	-3578
说法	-3579
这儿	-3580
防御	-3581
▁一边	-3582
▁学长	-3583
▁里面	-3584
事务所	-3585
你到底	-3586
做好了	-3587
发生过	-3588
同一个	-3589
名其妙	-3590
存在的	-3591
宪兵团	-3592
差一点	-3593
我们去	-3594
放开我	-3595
用这个	-3596
监视官	-3597
这可是	-3598
▁不可以	-3599
▁真的是	-3600
▁能不能	-3601
多多关照	-3602
好久不见	-3603
添麻烦了	-3604
▁对不起我	-3605
就拜托你了	-3606
▁叶	-3607
▁已	-3608
▁通	-3609
▁风	-3610
一件	-3611
丹波	-3612
了么	-3613
他吗	-3614
企图	-3615
基地	-3616
手中	-3617
放了	-3618
最大	-3619
本事	-3620
模样	-3621
民众	-3622
汉吉	-3623
点心	-3624
玩具	-3625
精彩	-3626
约翰	-3627
置信	-3628
耳朵	-3629
职责	-3630
要做	-3631
规定	-3632
雷斯	-3633
▁不准	-3634
▁小花	-3635
▁还要	-3636
▁这座	-3637
你就是	-3638
感受到	-3639
把你们	-3640
最强的	-3641
觉得很	-3642
该不会	-3643
跟我说	-3644
迟到了	-3645
▁今天的	-3646
▁我不能	-3647
▁我想要	-3648
▁抱歉我	-3649
▁那不是	-3650
完全没有	-3651
这个意思	-3652
不准	-3653
不开	-3654
了个	-3655
体会	-3656
像你	-3657
哎呀	-3658
国民	-3659
坂本	-3660
城堡	-3661
大意	-3662
天的	-3663
子上	-3664
子吧	-3665
子啊	-3666
小学	-3667
小春	-3668
尾巴	-3669
快要	-3670
拦网	-3671
束缚	-3672
植物	-3673
模式	-3674
狡猾	-3675
般的	-3676
迅速	-3677
铃鹿	-3678
随意	-3679
▁等下	-3680
▁麻烦	-3681
一个月	-3682
一般的	-3683
不会有	-3684
之后就	-3685
搞什么	-3686
是谁啊	-3687
看不到	-3688
过去的	-3689
▁不过你	-3690
▁啊那个	-3691
▁我明明	-3692
干什么呢	-3693
▁好不容易	-3694
▁七	-3695
▁晴	-3696
▁烦	-3697
▁雪	-3698
三人	-3699
不惜	-3700
主任	-3701
你先	-3702
借口	-3703
光芒	-3704
出口	-3705
化为	-3706
十二	-3707
团的	-3708
图书	-3709
外野	-3710
带走	-3711
很强	-3712
执着	-3713
挣扎	-3714
洛克	-3715
点了	-3716
热闹	-3717
田一	-3718
的天	-3719
相比	-3720
绝望	-3721
罗斯	-3722
送到	-3723
▁事情	-3724
▁全部	-3725
▁就会	-3726
▁这点	-3727
不要紧	-3728
可能是	-3729
我一直	-3730
我也是	-3731
把我们	-3732
未来的	-3733
秋叶原	-3734
这也是	-3735
▁你们的	-3736
▁这孩子	-3737
留在这里	-3738
觉得自己	-3739
都无所谓	-3740
到什么时候	-3741
▁凭	-3742
▁女	-3743
一脸	-3744
下场	-3745
为难	-3746
冰川	-3747
刑警	-3748
去见	-3749
变回	-3750
变强	-3751
展现	-3752
帅气	-3753
形式	-3754
惊讶	-3755
战的	-3756
护卫	-3757
斯达	-3758
是对	-3759
材料	-3760
来得	-3761
没了	-3762
灭亡	-3763
的真	-3764
盯着	-3765
结论	-3766
药师	-3767
观光	-3768
规矩	-3769
设施	-3770
达到	-3771
这片	-3772
醒了	-3773
长得	-3774
顺序	-3775
飞行	-3776
▁为此	-3777
▁哪怕	-3778
▁熊猫	-3779
▁莫非	-3780
三年级	-3781
不错的	-3782
太先生	-3783
带来了	-3784
很重要	-3785
最好的	-3786
根本就	-3787
▁太棒了	-3788
▁如果我	-3789
▁就算你	-3790
▁干得好	-3791
▁还是说	-3792
变成巨人	-3793
替身使者	-3794
立体机动	-3795
▁使	-3796
▁关	-3797
中学	-3798
买了	-3799
兔子	-3800
别再	-3801
前方	-3802
前来	-3803
十年	-3804
发球	-3805
坏事	-3806
大忙	-3807
头疼	-3808
总算	-3809
感动	-3810
拉姆	-3811
洗澡	-3812
海南	-3813
玩吧	-3814
病毒	-3815
看得	-3816
看穿	-3817
见的	-3818
角度	-3819
那份	-3820
集训	-3821
首领	-3822
▁接着	-3823
▁日本	-3824
一起来	-3825
你觉得	-3826
的也是	-3827
认真的	-3828
▁一个人	-3829
▁还真是	-3830
也不知道	-3831
做这种事	-3832
就在这里	-3833
来到这里	-3834
没问题吗	-3835
▁你是不是	-3836
▁写	-3837
▁各	-3838
▁吾	-3839
▁往	-3840
▁慢	-3841
▁教	-3842
▁空	-3843
三垒	-3844
不仅	-3845
世间	-3846
也行	-3847
亚人	-3848
京谷	-3849
保密	-3850
倒了	-3851
公寓	-3852
出击	-3853
化的	-3854
受了	-3855
契约	-3856
害者	-3857
小镇	-3858
就去	-3859
展示	-3860
快攻	-3861
愤怒	-3862
拿出	-3863
歌牌	-3864
海里	-3865
的特	-3866
的罪	-3867
相互	-3868
米的	-3869
行李	-3870
计算	-3871
认可	-3872
说谎	-3873
都想	-3874
隐瞒	-3875
预测	-3876
▁不想	-3877
▁世界	-3878
▁他说	-3879
▁其中	-3880
▁到了	-3881
▁够了	-3882
▁目标	-3883
▁真正	-3884
▁社长	-3885
▁自从	-3886
▁身为	-3887
不会再	-3888
听说了	-3889
因为我	-3890
很清楚	-3891
放弃了	-3892
明白的	-3893
最喜欢	-3894
留下的	-3895
▁你是说	-3896
▁喂你们	-3897
▁而且还	-3898
▁要不要	-3899
▁这才是	-3900
些什么啊	-3901
企鹅先生	-3902
准备好了	-3903
已经没有	-3904
那些家伙	-3905
▁就是这样	-3906
▁所以我才	-3907
▁木	-3908
▁鬼	-3909
上升	-3910
争取	-3911
以上	-3912
伊迪	-3913
傻瓜	-3914
势力	-3915
卑鄙	-3916
友人	-3917
外星	-3918
多余	-3919
大陆	-3920
度的	-3921
得不	-3922
意味	-3923
持有	-3924
无限	-3925
桐人	-3926
给人	-3927
老爷	-3928
表达	-3929
要把	-3930
警部	-3931
道谢	-3932
雅典	-3933
▁不许	-3934
▁否则	-3935
▁她说	-3936
▁我把	-3937
▁这可	-3938
▁需要	-3939
也一样	-3940
原来是	-3941
唯一的	-3942
回来啦	-3943
杀了我	-3944
的攻击	-3945
的未来	-3946
能做到	-3947
附近的	-3948
▁好像是	-3949
▁就是啊	-3950
▁总之先	-3951
▁真是太	-3952
▁请不要	-3953
也没办法	-3954
冷静下来	-3955
怎么办啊	-3956
这种地方	-3957
▁你怎么了	-3958
▁东	-3959
▁北	-3960
▁尤	-3961
▁欸	-3962
▁生	-3963
一周	-3964
不爽	-3965
之内	-3966
也请	-3967
仁太	-3968
住的	-3969
修行	-3970
健康	-3971
后就	-3972
场上	-3973
子吗	-3974
完蛋	-3975
尔夫	-3976
幻想	-3977
忍者	-3978
想像	-3979
抓紧	-3980
提前	-3981
整天	-3982
新人	-3983
星星	-3984
机械	-3985
火大	-3986
玛丽	-3987
网络	-3988
舰队	-3989
进步	-3990
迟钝	-3991
附身	-3992
黑色	-3993
▁但他	-3994
▁你没	-3995
▁总是	-3996
▁恭喜	-3997
▁成为	-3998
▁该死	-3999
▁赤木	-4000
你说的	-4001
得漂亮	-4002
意大利	-4003
的战斗	-4004
看见了	-4005
要好好	-4006
这个吧	-4007
选择了	-4008
▁不是的	-4009
▁你们俩	-4010
▁看样子	-4011
▁说到底	-4012
我们已经	-4013
炼金术师	-4014
▁怎么说呢	-4015
▁非常抱歉	-4016
▁半	-4017
▁坐	-4018
▁斯	-4019
▁既	-4020
▁装	-4021
▁达	-4022
不合	-4023
中间	-4024
交流	-4025
你吗	-4026
你没	-4027
减少	-4028
制服	-4029
啊啊	-4030
固定	-4031
实的	-4032
家店	-4033
将其	-4034
就很	-4035
放手	-4036
暴力	-4037
最初	-4038
来做	-4039
猎物	-4040
用这	-4041
神秘	-4042
神经	-4043
虫子	-4044
表白	-4045
许可	-4046
足以	-4047
过于	-4048
过吗	-4049
返回	-4050
迪奥	-4051
都说	-4052
酒店	-4053
▁别说	-4054
▁她是	-4055
▁感谢	-4056
▁是是	-4057
▁究竟	-4058
▁距离	-4059
不对劲	-4060
不舒服	-4061
之前的	-4062
也不想	-4063
保护好	-4064
另一个	-4065
只是在	-4066
我们吧	-4067
来了啊	-4068
进来的	-4069
▁可是我	-4070
▁我喜欢	-4071
▁比如说	-4072
▁第一次	-4073
什么都不	-4074
作战计划	-4075
弗拉明戈	-4076
现在开始	-4077
▁为什么会	-4078
在这种地方	-4079
到底是怎么回事	-4080
▁住	-4081
▁停	-4082
▁吓	-4083
▁疼	-4084
▁转	-4085
▁远	-4086
三陆	-4087
乐园	-4088
什幺	-4089
吃惊	-4090
回应	-4091
培养	-4092
多的	-4093
嫉妒	-4094
宫殿	-4095
尼斯	-4096
帕拉	-4097
应对	-4098
建议	-4099
引擎	-4100
我先	-4101
手下	-4102
打的	-4103
投降	-4104
拉皮	-4105
有效	-4106
热情	-4107
玩的	-4108
珍惜	-4109
着急	-4110
胡说	-4111
自动	-4112
艾伦	-4113
让它	-4114
话题	-4115
通灵	-4116
野寺	-4117
魅力	-4118
▁好疼	-4119
▁看着	-4120
不起来	-4121
之巨人	-4122
也只有	-4123
也算是	-4124
感觉到	-4125
改变了	-4126
死我了	-4127
被发现	-4128
该怎么	-4129
▁原来是	-4130
▁如果能	-4131
▁我们会	-4132
▁我们在	-4133
▁我相信	-4134
▁辛苦了	-4135
传说中的	-4136
公主殿下	-4137
总有一天	-4138
所有人都	-4139
没有什么	-4140
这么回事	-4141
▁一直以来	-4142
▁事到如今	-4143
▁什么时候	-4144
▁总有一天	-4145
▁这种时候	-4146
▁虽然不知道	-4147
▁双	-4148
▁反	-4149
▁呀	-4150
▁左	-4151
▁常	-4152
▁成	-4153
▁泷	-4154
丢了	-4155
主角	-4156
也该	-4157
仍然	-4158
光是	-4159
具体	-4160
又要	-4161
地步	-4162
奉行	-4163
好呢	-4164
如同	-4165
小事	-4166
尝试	-4167
就此	-4168
当中	-4169
很大	-4170
快就	-4171
总统	-4172
成立	-4173
戒指	-4174
手臂	-4175
抵达	-4176
日向	-4177
有事	-4178
留着	-4179
的书	-4180
的脸	-4181
碎片	-4182
称作	-4183
类似	-4184
终结	-4185
这副	-4186
进展	-4187
采访	-4188
重的	-4189
▁同时	-4190
▁和我	-4191
▁好嘞	-4192
▁我先	-4193
▁我又	-4194
▁问题	-4195
一点点	-4196
不行啊	-4197
不记得	-4198
出来吧	-4199
变得更	-4200
在哪儿	-4201
大小姐	-4202
完全没	-4203
意味着	-4204
战斗的	-4205
所说的	-4206
挺好的	-4207
来到了	-4208
注意力	-4209
的事吗	-4210
真让人	-4211
肯定是	-4212
雅典娜	-4213
▁什什么	-4214
▁别担心	-4215
▁我之前	-4216
▁明白了	-4217
差不多该	-4218
▁什么意思	-4219
▁我明白了	-4220
▁是这样吗	-4221
梦幻银水晶	-4222
▁格	-4223
三井	-4224
丫头	-4225
传统	-4226
信赖	-4227
关注	-4228
内角	-4229
冲击	-4230
叛徒	-4231
可而	-4232
困扰	-4233
地震	-4234
场景	-4235
好痛	-4236
对她	-4237
对待	-4238
年了	-4239
感激	-4240
找我	-4241
技能	-4242
损失	-4243
摄影	-4244
撒谎	-4245
操作	-4246
替我	-4247
模特	-4248
残酷	-4249
班长	-4250
目击	-4251
章鱼	-4252
级的	-4253
经营	-4254
给了	-4255
致命	-4256
说这	-4257
醒醒	-4258
首次	-4259
魔女	-4260
▁下回	-4261
▁偶尔	-4262
▁啊我	-4263
▁小希	-4264
▁有个	-4265
▁深海	-4266
不了的	-4267
不是在	-4268
其实是	-4269
可而止	-4270
很在意	-4271
怎么想	-4272
意思是	-4273
我们了	-4274
我的错	-4275
搞不懂	-4276
玛利亚	-4277
的关系	-4278
的妈妈	-4279
目的地	-4280
睡着了	-4281
给大家	-4282
还好吗	-4283
这么大	-4284
▁就因为	-4285
▁开玩笑	-4286
▁这里的	-4287
▁那个我	-4288
你一个人	-4289
莫名其妙	-4290
▁这里就是	-4291
▁朝	-4292
▁藤	-4293
▁龙	-4294
一击	-4295
不妙	-4296
不通	-4297
与你	-4298
之上	-4299
二人	-4300
人都	-4301
价格	-4302
你个	-4303
保险	-4304
像个	-4305
占卜	-4306
参与	-4307
可别	-4308
场了	-4309
夺取	-4310
家出	-4311
开门	-4312
得以	-4313
快逃	-4314
打得	-4315
找你	-4316
拉的	-4317
推荐	-4318
文件	-4319
族的	-4320
本书	-4321
江户	-4322
激烈	-4323
狐狸	-4324
电脑	-4325
看的	-4326
短信	-4327
罗马	-4328
自作	-4329
诸位	-4330
陪我	-4331
领先	-4332
领域	-4333
骄傲	-4334
▁别管	-4335
▁曾经	-4336
▁相信	-4337
▁结衣	-4338
▁那位	-4339
你应该	-4340
对我说	-4341
是那个	-4342
杀老师	-4343
现在是	-4344
留下了	-4345
的准备	-4346
目的是	-4347
解决了	-4348
进行了	-4349
▁只要能	-4350
▁很遗憾	-4351
▁这样的	-4352
适可而止	-4353
▁既然如此	-4354
▁这是怎么回事	-4355
▁身	-4356
严格	-4357
中国	-4358
也得	-4359
也算	-4360
人偶	-4361
伪装	-4362
军的	-4363
动摇	-4364
号码	-4365
处的	-4366
夜晚	-4367
孕育	-4368
对决	-4369
就别	-4370
就来	-4371
山的	-4372
干活	-4373
度过	-4374
思想	-4375
打中	-4376
打破	-4377
托付	-4378
报道	-4379
攻略	-4380
点啊	-4381
玻璃	-4382
神明	-4383
视频	-4384
警戒	-4385
象征	-4386
路的	-4387
过得	-4388
追上	-4389
透了	-4390
遗迹	-4391
钱包	-4392
问了	-4393
▁但这	-4394
▁再来	-4395
▁后来	-4396
▁教练	-4397
▁是在	-4398
▁母亲	-4399
▁里维	-4400
不行的	-4401
到这个	-4402
我也想	-4403
拉皮卡	-4404
还不是	-4405
▁不过这	-4406
▁你也是	-4407
▁怎么能	-4408
▁难不成	-4409
不是什么	-4410
你这家伙	-4411
就是那个	-4412
没有任何	-4413
这些家伙	-4414
那家伙的	-4415
酷拉皮卡	-4416
▁为什么不	-4417
▁公	-4418
▁原	-4419
▁噢	-4420
▁按	-4421
一郎	-4422
一面	-4423
三年	-4424
不必	-4425
了嘛	-4426
事先	-4427
优先	-4428
全是	-4429
几次	-4430
刚好	-4431
却是	-4432
又会	-4433
师傅	-4434
废物	-4435
很忙	-4436
想必	-4437
找出	-4438
拉面	-4439
拍卖	-4440
拿下	-4441
推理	-4442
最强	-4443
有种	-4444
本体	-4445
杂志	-4446
气息	-4447
法国	-4448
演员	-4449
熟悉	-4450
狸猫	-4451
王国	-4452
美女	-4453
还想	-4454
迟早	-4455
酒吧	-4456
长官	-4457
阶段	-4458
▁为何	-4459
▁也有	-4460
▁你那	-4461
▁吉克	-4462
▁喜欢	-4463
▁在下	-4464
▁想必	-4465
▁拥有	-4466
▁每天	-4467
▁让他	-4468
一瞬间	-4469
乔鲁诺	-4470
你们俩	-4471
你刚才	-4472
和他们	-4473
圣斗士	-4474
的人是	-4475
的对手	-4476
那我就	-4477
▁如果不	-4478
▁放心吧	-4479
什么样的	-4480
只有一个	-4481
实在是太	-4482
布加拉提	-4483
这种时候	-4484
那种东西	-4485
▁欢迎光临	-4486
▁奇	-4487
▁预	-4488
一时	-4489
上校	-4490
不下	-4491
不死	-4492
也无	-4493
二传	-4494
仓库	-4495
代价	-4496
便宜	-4497
准确	-4498
呵呵	-4499
埃尔	-4500
大会	-4501
小千	-4502
开口	-4503
彗星	-4504
快了	-4505
想吃	-4506
憧憬	-4507
成果	-4508
我所	-4509
打架	-4510
散步	-4511
整理	-4512
斗志	-4513
法律	-4514
燃烧	-4515
男性	-4516
男的	-4517
留情	-4518
白色	-4519
的原	-4520
相反	-4521
睡了	-4522
祭典	-4523
第五	-4524
老婆	-4525
要在	-4526
警官	-4527
评价	-4528
话吗	-4529
谈谈	-4530
钻石	-4531
锁链	-4532
首歌	-4533
高了	-4534
▁你太	-4535
▁使用	-4536
什么样	-4537
会成为	-4538
再怎么	-4539
友人帐	-4540
听好了	-4541
的结果	-4542
臂之力	-4543
起精神	-4544
▁但是你	-4545
▁你可以	-4546
▁像这样	-4547
▁在这个	-4548
▁我说你	-4549
▁然后呢	-4550
为什么不	-4551
做的事情	-4552
始祖巨人	-4553
姐姐大人	-4554
对我来说	-4555
没问题的	-4556
这个样子	-4557
非常抱歉	-4558
▁你还真是	-4559
▁我们已经	-4560
▁你在说什么	-4561
发生什么事了	-4562
▁莲	-4563
▁跑	-4564
不已	-4565
不然	-4566
不许	-4567
专业	-4568
丰富	-4569
之物	-4570
之石	-4571
他吧	-4572
保重	-4573
借我	-4574
兵卫	-4575
内裤	-4576
决斗	-4577
华丽	-4578
参赛	-4579
另外	-4580
大事	-4581
子了	-4582
家了	-4583
富士	-4584
导弹	-4585
成熟	-4586
我把	-4587
扭曲	-4588
承受	-4589
捕手	-4590
教授	-4591
既往	-4592
暂且	-4593
有利	-4594
消除	-4595
现状	-4596
看不	-4597
看啊	-4598
美的	-4599
老鼠	-4600
联合	-4601
自行	-4602
英国	-4603
血液	-4604
要来	-4605
视线	-4606
认同	-4607
还用	-4608
这张	-4609
重点	-4610
阳光	-4611
难受	-4612
食材	-4613
▁你去	-4614
▁啊好	-4615
▁我得	-4616
▁我本	-4617
▁若是	-4618
▁觉得	-4619
▁那那	-4620
不太好	-4621
了这个	-4622
什么吗	-4623
优秀的	-4624
你们是	-4625
孩子的	-4626
完美的	-4627
支配者	-4628
第二次	-4629
结束后	-4630
自己是	-4631
这是我	-4632
▁但是这	-4633
▁你打算	-4634
▁我今天	-4635
▁正因为	-4636
▁你没事吧	-4637
▁就是那个	-4638
▁我回来了	-4639
港口黑手党	-4640
▁你为什么要	-4641
▁唯	-4642
▁国	-4643
▁照	-4644
▁田	-4645
▁门	-4646
一路	-4647
三分	-4648
下定	-4649
会来	-4650
传言	-4651
冥王	-4652
制的	-4653
卡曼	-4654
印度	-4655
吃点	-4656
四处	-4657
土地	-4658
地图	-4659
天野	-4660
天马	-4661
她了	-4662
她吧	-4663
婴儿	-4664
害羞	-4665
对策	-4666
就该	-4667
弱的	-4668
悬崖	-4669
我呢	-4670
抱怨	-4671
教会	-4672
教训	-4673
来过	-4674
模拟	-4675
火焰	-4676
现身	-4677
用力	-4678
白熊	-4679
聊天	-4680
话啊	-4681
追踪	-4682
逃了	-4683
野兽	-4684
金属	-4685
青春	-4686
▁哈哈	-4687
不甘心	-4688
咖啡馆	-4689
就不能	-4690
就无法	-4691
就算是	-4692
日本的	-4693
最讨厌	-4694
有机会	-4695
流川枫	-4696
的我们	-4697
的秘密	-4698
给他们	-4699
解决掉	-4700
这些人	-4701
▁但是他	-4702
▁在那里	-4703
▁我早就	-4704
▁虽说是	-4705
只不过是	-4706
我一定会	-4707
是这样啊	-4708
▁我只是想	-4709
▁谁知道呢	-4710
▁弗	-4711
▁特	-4712
一群	-4713
不止	-4714
也都	-4715
了点	-4716
从未	-4717
你把	-4718
做梦	-4719
可没	-4720
向前	-4721
太太	-4722
好人	-4723
学院	-4724
宗介	-4725
打出	-4726
接着	-4727
操控	-4728
明智	-4729
有空	-4730
毁了	-4731
海边	-4732
满了	-4733
知晓	-4734
笔记	-4735
脑筋	-4736
过你	-4737
这把	-4738
逃离	-4739
遥远	-4740
锻炼	-4741
限制	-4742
鼻子	-4743
▁估计	-4744
▁小兔	-4745
▁快去	-4746
▁情况	-4747
▁我啊	-4748
不行吗	-4749
也没用	-4750
夺走了	-4751
很高兴	-4752
我这个	-4753
漂亮的	-4754
的女孩	-4755
考虑到	-4756
被破坏	-4757
让大家	-4758
该如何	-4759
▁一开始	-4760
▁下一个	-4761
▁对了我	-4762
▁我不要	-4763
▁要是我	-4764
▁还没有	-4765
一段时间	-4766
什么东西	-4767
稍等一下	-4768
▁好了好了	-4769
▁那是当然	-4770
叫什么名字	-4771
希斯特莉亚	-4772
▁清	-4773
▁非	-4774
一番	-4775
下午	-4776
下半	-4777
不满	-4778
企业	-4779
你才	-4780
全体	-4781
分析	-4782
反击	-4783
号的	-4784
在于	-4785
士郎	-4786
大阪	-4787
对话	-4788
小偷	-4789
就先	-4790
平衡	-4791
年龄	-4792
志愿	-4793
总部	-4794
把球	-4795
提升	-4796
收下	-4797
日常	-4798
星球	-4799
景色	-4800
有两	-4801
权利	-4802
比你	-4803
水兵	-4804
流的	-4805
流行	-4806
演唱	-4807
物品	-4808
猴子	-4809
现象	-4810
的画	-4811
离婚	-4812
窗户	-4813
统治	-4814
美好	-4815
美妙	-4816
街上	-4817
要和	-4818
设置	-4819
说服	-4820
都行	-4821
预料	-4822
▁去吧	-4823
▁奇犽	-4824
▁看看	-4825
▁算是	-4826
▁话虽	-4827
一样啊	-4828
不住了	-4829
也只能	-4830
仅仅是	-4831
做到的	-4832
回答我	-4833
多少次	-4834
好朋友	-4835
实在太	-4836
就一直	-4837
崎同学	-4838
帕拉迪	-4839
应该能	-4840
看一下	-4841
▁剩下的	-4842
▁因为他	-4843
▁成功了	-4844
▁我听说	-4845
▁我明白	-4846
▁放开我	-4847
一起生活	-4848
原来如此	-4849
那样的话	-4850
你在说什么	-4851
是什么时候	-4852
▁星	-4853
▁福	-4854
一发	-4855
主义	-4856
举行	-4857
买的	-4858
人在	-4859
做饭	-4860
像我	-4861
勇利	-4862
化了	-4863
听过	-4864
姑且	-4865
实战	-4866
带上	-4867
平民	-4868
引导	-4869
形象	-4870
很少	-4871
手吧	-4872
手啊	-4873
抵抗	-4874
放学	-4875
斯卡	-4876
服从	-4877
正经	-4878
治愈	-4879
消耗	-4880
瀑布	-4881
的死	-4882
的要	-4883
皇帝	-4884
积极	-4885
等下	-4886
篮板	-4887
给您	-4888
网上	-4889
肩膀	-4890
警方	-4891
谨慎	-4892
达成	-4893
违反	-4894
避开	-4895
那座	-4896
那我	-4897
闪耀	-4898
随着	-4899
露西	-4900
鸡蛋	-4901
▁万一	-4902
▁晚上	-4903
▁这场	-4904
一无所	-4905
不存在	-4906
个人的	-4907
也一起	-4908
休息吧	-4909
你的错	-4910
出现的	-4911
如既往	-4912
幸福的	-4913
很大的	-4914
想起来	-4915
所以才	-4916
放心吧	-4917
森林里	-4918
求你了	-4919
离开了	-4920
说的是	-4921
负责人	-4922
▁你们是	-4923
▁你居然	-4924
▁啊对了	-4925
你是不是	-4926
告诉我们	-4927
待在这里	-4928
确认一下	-4929
说这种话	-4930
还有很多	-4931
那个男人	-4932
马上就要	-4933
▁你们几个	-4934
▁就是因为	-4935
▁这么说来	-4936
▁这是我的	-4937
▁塞	-4938
▁怪	-4939
▁科	-4940
▁臭	-4941
▁进	-4942
一块	-4943
一对	-4944
不利	-4945
不让	-4946
二垒	-4947
伤心	-4948
但我	-4949
再也	-4950
则是	-4951
十字	-4952
升机	-4953
吸收	-4954
吸血	-4955
回归	-4956
大约	-4957
好歹	-4958
宝宝	-4959
就越	-4960
屁股	-4961
工厂	-4962
干了	-4963
很棒	-4964
得更	-4965
快跑	-4966
恋人	-4967
想和	-4968
手脚	-4969
招待	-4970
早已	-4971
是由	-4972
智慧	-4973
月日	-4974
有过	-4975
畏惧	-4976
监控	-4977
眼泪	-4978
程序	-4979
管闲	-4980
索罗	-4981
紧紧	-4982
能否	-4983
脚步	-4984
补习	-4985
要我	-4986
记者	-4987
貌似	-4988
辞典	-4989
遇见	-4990
钢琴	-4991
▁站住	-4992
一辈子	-4993
不觉得	-4994
努力的	-4995
就够了	-4996
崎先生	-4997
恢复原	-4998
想知道	-4999
指的是	-5000
有人在	-5001
留下来	-5002
索罗船	-5003
足够了	-5004
长时间	-5005
▁一定会	-5006
▁也没有	-5007
▁你干嘛	-5008
▁你是谁	-5009
▁你自己	-5010
▁我好像	-5011
▁有没有	-5012
▁那个是	-5013
你怎么了	-5014
在这附近	-5015
心理准备	-5016
现在已经	-5017
▁在那之前	-5018
▁你在做什么	-5019
立体机动装置	-5020
▁便	-5021
▁奈	-5022
▁村	-5023
▁点	-5024
▁痛	-5025
▁菲	-5026
▁行	-5027
▁里	-5028
一模	-5029
与我	-5030
为您	-5031
主张	-5032
乱来	-5033
人数	-5034
使出	-5035
信心	-5036
儿童	-5037
充分	-5038
况且	-5039
分别	-5040
午饭	-5041
即便	-5042
变的	-5043
古代	-5044
否定	-5045
哭泣	-5046
回头	-5047
姿态	-5048
就连	-5049
平静	-5050
强行	-5051
往前	-5052
德拉	-5053
忘形	-5054
我这	-5055
戴着	-5056
所说	-5057
手法	-5058
投入	-5059
敌方	-5060
无事	-5061
有何	-5062
来救	-5063
欧洲	-5064
用场	-5065
痛快	-5066
白白	-5067
直觉	-5068
碰巧	-5069
符合	-5070
胜算	-5071
蓝色	-5072
蔷薇	-5073
要用	-5074
谁都	-5075
赶上	-5076
还好	-5077
途中	-5078
醒来	-5079
间谍	-5080
队友	-5081
▁上吧	-5082
▁大叔	-5083
▁所有	-5084
▁老实	-5085
▁还能	-5086
▁这这	-5087
也只是	-5088
你这么	-5089
使用的	-5090
在那边	-5091
地下室	-5092
客气了	-5093
就开始	-5094
建筑物	-5095
当然是	-5096
确实是	-5097
究竟是	-5098
藤先生	-5099
要开始	-5100
▁但是在	-5101
▁多亏了	-5102
▁明明是	-5103
▁那孩子	-5104
一点也不	-5105
没有关系	-5106
还有什么	-5107
这种事情	-5108
▁那些家伙	-5109
▁非常感谢	-5110
▁喝	-5111
▁奥	-5112
▁樱	-5113
▁现	-5114
▁蕾	-5115
▁起	-5116
一无	-5117
一百	-5118
上垒	-5119
不论	-5120
会是	-5121
修复	-5122
写着	-5123
击中	-5124
动画	-5125
十五	-5126
卷入	-5127
参考	-5128
又能	-5129
合格	-5130
名叫	-5131
商人	-5132
四周	-5133
圭太	-5134
外的	-5135
宣传	-5136
屋顶	-5137
广播	-5138
强了	-5139
形态	-5140
往后	-5141
得多	-5142
御幸	-5143
心底	-5144
意图	-5145
技巧	-5146
把握	-5147
提议	-5148
搜索	-5149
摄像	-5150
数字	-5151
本垒	-5152
欣赏	-5153
求你	-5154
狩猎	-5155
登上	-5156
的预	-5157
的领	-5158
统一	-5159
维克	-5160
良良	-5161
身后	-5162
陪你	-5163
风险	-5164
▁不可	-5165
▁不必	-5166
▁你很	-5167
▁这份	-5168
▁这条	-5169
今天是	-5170
从哪里	-5171
你们在	-5172
你打算	-5173
全世界	-5174
加油哦	-5175
只有我	-5176
小姐的	-5177
工作了	-5178
应该在	-5179
我的话	-5180
的任务	-5181
的故事	-5182
的方式	-5183
离家出	-5184
绝不能	-5185
而言之	-5186
能看到	-5187
虫奉行	-5188
趁现在	-5189
跟你们	-5190
迎来了	-5191
▁不用了	-5192
▁其实我	-5193
▁我可没	-5194
▁我必须	-5195
▁打扰了	-5196
▁是吗那	-5197
▁是的我	-5198
▁这是在	-5199
也就是说	-5200
应该已经	-5201
我们一起	-5202
这么想的	-5203
这么认为	-5204
这种感觉	-5205
那是什么	-5206
难以置信	-5207
▁但是我们	-5208
▁怎么会这样	-5209
▁亏	-5210
▁香	-5211
▁黄	-5212
一事	-5213
一根	-5214
一致	-5215
不堪	-5216
与其	-5217
个子	-5218
中途	-5219
义务	-5220
他啊	-5221
出道	-5222
击球	-5223
号机	-5224
吃吗	-5225
听了	-5226
告白	-5227
回复	-5228
回收	-5229
女神	-5230
她会	-5231
婚礼	-5232
子民	-5233
就想	-5234
微笑	-5235
惠顾	-5236
感应	-5237
感染	-5238
扣球	-5239
折磨	-5240
抱有	-5241
拔刀	-5242
接球	-5243
摆出	-5244
旅馆	-5245
无敌	-5246
日记	-5247
杀光	-5248
欲望	-5249
沉默	-5250
派对	-5251
画画	-5252
疯狂	-5253
的前	-5254
礼貌	-5255
而来	-5256
肌肉	-5257
胡子	-5258
舰长	-5259
莉雅	-5260
表面	-5261
警备	-5262
讨伐	-5263
设备	-5264
话的	-5265
谎言	-5266
身高	-5267
迎接	-5268
送你	-5269
那儿	-5270
首发	-5271
骗了	-5272
高手	-5273
黑子	-5274
▁上次	-5275
▁两人	-5276
▁也不	-5277
▁你啊	-5278
▁大哥	-5279
▁小千	-5280
▁帮我	-5281
▁年前	-5282
▁第三	-5283
不了了	-5284
不出口	-5285
你这样	-5286
再见了	-5287
受伤了	-5288
各种各	-5289
外面的	-5290
完蛋了	-5291
工作的	-5292
年轻人	-5293
得那么	-5294
我都会	-5295
把我的	-5296
支队伍	-5297
斯大人	-5298
此之外	-5299
没必要	-5300
的人都	-5301
的伙伴	-5302
的行动	-5303
的衣服	-5304
的话题	-5305
的速度	-5306
美丽的	-5307
说这个	-5308
请不要	-5309
身上的	-5310
▁两个人	-5311
▁你说的	-5312
▁你这样	-5313
▁因为是	-5314
▁大概是	-5315
▁我们就	-5316
▁我本来	-5317
▁真让人	-5318
▁那你就	-5319
不是因为	-5320
也无所谓	-5321
希望你能	-5322
我也不会	-5323
我们走吧	-5324
还不知道	-5325
那个女人	-5326
▁借	-5327
▁右	-5328
▁周	-5329
▁圣	-5330
▁恭	-5331
▁满	-5332
上啊	-5333
下雨	-5334
丢下	-5335
于此	-5336
京都	-5337
会场	-5338
传递	-5339
冠军	-5340
十足	-5341
参观	-5342
向着	-5343
员的	-5344
在内	-5345
外表	-5346
大脑	-5347
天下	-5348
她在	-5349
好处	-5350
孤身	-5351
宝贝	-5352
寿司	-5353
将你	-5354
川上	-5355
带到	-5356
我对	-5357
所欲	-5358
打线	-5359
托洛	-5360
找个	-5361
拉丁	-5362
掩护	-5363
斯摩	-5364
瓦尔	-5365
白费	-5366
的歌	-5367
的这	-5368
着吧	-5369
矛囲	-5370
祖父	-5371
稳定	-5372
给予	-5373
羽毛	-5374
贤者	-5375
赌上	-5376
迟到	-5377
邪恶	-5378
释放	-5379
里了	-5380
长谷	-5381
障碍	-5382
餐厅	-5383
▁仔细	-5384
▁喂别	-5385
▁对对	-5386
▁帆高	-5387
▁怎样	-5388
▁按照	-5389
▁正好	-5390
▁还好	-5391
▁阳菜	-5392
一直都	-5393
不了解	-5394
你可以	-5395
出色的	-5396
和大家	-5397
塞之墙	-5398
失败了	-5399
好好地	-5400
尔斯兰	-5401
就算了	-5402
很容易	-5403
怎么看	-5404
救了我	-5405
时代的	-5406
是真的	-5407
普通人	-5408
杀了他	-5409
没见过	-5410
现在才	-5411
的事吧	-5412
的房间	-5413
的父亲	-5414
真的会	-5415
过头了	-5416
还是个	-5417
这座岛	-5418
鹿矛囲	-5419
▁你小子	-5420
▁你才是	-5421
▁我还有	-5422
▁还以为	-5423
一决胜负	-5424
你为什么	-5425
得意忘形	-5426
托洛斯特	-5427
最后一次	-5428
那个家伙	-5429
▁初次见面	-5430
▁我一定要	-5431
▁我也不知道	-5432
▁汝	-5433
▁深	-5434
▁祝	-5435
▁贵	-5436
▁过	-5437
▁问	-5438
▁靠	-5439
▁麻	-5440
一提	-5441
一说	-5442
一跳	-5443
临时	-5444
交涉	-5445
何况	-5446
你很	-5447
保管	-5448
光明	-5449
分开	-5450
前线	-5451
去吗	-5452
在说	-5453
外婆	-5454
大姐	-5455
大爷	-5456
守住	-5457
宫城	-5458
宿舍	-5459
小雏	-5460
尽头	-5461
帅哥	-5462
希纳	-5463
快啊	-5464
您是	-5465
想看	-5466
意的	-5467
我却	-5468
报复	-5469
摆脱	-5470
月岛	-5471
案子	-5472
死不	-5473
死神	-5474
海寺	-5475
淘汰	-5476
爱情	-5477
的不	-5478
的信	-5479
的家	-5480
的山	-5481
的王	-5482
皮肤	-5483
知的	-5484
神社	-5485
老家	-5486
设定	-5487
说说	-5488
迎来	-5489
逃脱	-5490
难怪	-5491
顾问	-5492
龙马	-5493
▁三井	-5494
▁人家	-5495
▁叫我	-5496
▁在此	-5497
▁学姐	-5498
▁我家	-5499
▁柯尼	-5500
▁皮克	-5501
▁行了	-5502
▁说到	-5503
▁还在	-5504
▁队长	-5505
▁青道	-5506
▁鱼住	-5507
你不要	-5508
你喜欢	-5509
刚才那	-5510
受到了	-5511
可真是	-5512
名字是	-5513
回去的	-5514
图书馆	-5515
大猩猩	-5516
就是你	-5517
干希纳	-5518
方面的	-5519
比赛中	-5520
维克托	-5521
行动了	-5522
跟我来	-5523
这个是	-5524
▁你竟然	-5525
▁再加上	-5526
▁冷静点	-5527
▁只不过	-5528
▁只要你	-5529
▁必须要	-5530
▁我倒是	-5531
▁现在是	-5532
▁艾尔文	-5533
▁这个是	-5534
▁这这是	-5535
▁那么我	-5536
什么地方	-5537
就是这个	-5538
应该不会	-5539
的时候就	-5540
要怎么办	-5541
路上小心	-5542
辛苦你了	-5543
那么简单	-5544
▁不用担心	-5545
▁对对不起	-5546
▁你在干什么	-5547
▁六	-5548
▁喔	-5549
▁松	-5550
▁梅	-5551
▁永	-5552
▁绿	-5553
▁贝	-5554
一生	-5555
中止	-5556
乘坐	-5557
人士	-5558
亿泰	-5559
从小	-5560
入学	-5561
动力	-5562
卡尔	-5563
发表	-5564
叫人	-5565
后来	-5566
在他	-5567
在天	-5568
地说	-5569
复制	-5570
季节	-5571
宅邸	-5572
定会	-5573
小希	-5574
就看	-5575
尽了	-5576
当初	-5577
得救	-5578
心灵	-5579
才刚	-5580
把手	-5581
放着	-5582
方案	-5583
春天	-5584
机密	-5585
束手	-5586
来接	-5587
楼梯	-5588
死啊	-5589
物质	-5590
生了	-5591
的钱	-5592
着想	-5593
称霸	-5594
竞争	-5595
终究	-5596
老夫	-5597
脚下	-5598
西比	-5599
远了	-5600
遇上	-5601
错的	-5602
高度	-5603
▁你先	-5604
▁况且	-5605
▁利用	-5606
▁别再	-5607
▁区区	-5608
▁总算	-5609
▁抓住	-5610
▁有了	-5611
▁有些	-5612
▁蠢货	-5613
▁降谷	-5614
▁随便	-5615
一起玩	-5616
不及了	-5617
不愿意	-5618
个小时	-5619
你今天	-5620
加油吧	-5621
可是很	-5622
基本上	-5623
失礼了	-5624
好可怕	-5625
就只能	-5626
干掉了	-5627
开始的	-5628
形成的	-5629
忘记了	-5630
的事件	-5631
瞧不起	-5632
艾利尔	-5633
起来吧	-5634
还不够	-5635
还是会	-5636
▁不不不	-5637
▁今天是	-5638
▁当然是	-5639
▁我也不	-5640
▁我自己	-5641
▁无论是	-5642
不可能的	-5643
介绍一下	-5644
别的地方	-5645
怪盗基德	-5646
有什么事	-5647
见识一下	-5648
该怎么做	-5649
这种程度	-5650
▁我就知道	-5651
▁所以我们	-5652
▁真不愧是	-5653
▁塔	-5654
▁头	-5655
▁热	-5656
▁萨	-5657
为一	-5658
久了	-5659
之门	-5660
乌野	-5661
乱动	-5662
了那	-5663
他也	-5664
会吧	-5665
利斯	-5666
动的	-5667
听着	-5668
命中	-5669
善良	-5670
地位	-5671
大啊	-5672
夸奖	-5673
将他	-5674
尽力	-5675
工具	-5676
干部	-5677
想在	-5678
慢了	-5679
懂了	-5680
成年	-5681
承担	-5682
拜拜	-5683
拳头	-5684
换了	-5685
操心	-5686
支撑	-5687
斯坦	-5688
明年	-5689
暗号	-5690
正如	-5691
武装	-5692
波纹	-5693
消沉	-5694
烟花	-5695
爱你	-5696
爸妈	-5697
献出	-5698
球路	-5699
电波	-5700
的后	-5701
立即	-5702
笑的	-5703
等到	-5704
翅膀	-5705
老是	-5706
艘船	-5707
请问	-5708
走向	-5709
还算	-5710
进化	-5711
适应	-5712
默默	-5713
▁决定	-5714
▁啊你	-5715
▁我跟	-5716
▁赶快	-5717
▁都说	-5718
不错嘛	-5719
了一些	-5720
了一跳	-5721
今天起	-5722
北三陆	-5723
原来的	-5724
可怕的	-5725
告诉他	-5726
如果是	-5727
岛上的	-5728
我也有	-5729
我们都	-5730
把自己	-5731
明白吗	-5732
母亲的	-5733
的人呢	-5734
竟然会	-5735
说起来	-5736
高中的	-5737
▁不是我	-5738
▁为了让	-5739
▁但现在	-5740
▁你们在	-5741
▁只要有	-5742
▁我真的	-5743
▁是我的	-5744
▁现在的	-5745
▁那当然	-5746
下定决心	-5747
你的名字	-5748
勉强自己	-5749
樱木花道	-5750
请多关照	-5751
▁单	-5752
▁变	-5753
▁奏	-5754
▁时	-5755
▁画	-5756
上班	-5757
人会	-5758
从前	-5759
付出	-5760
你却	-5761
依赖	-5762
候补	-5763
假设	-5764
别说	-5765
功劳	-5766
发型	-5767
发誓	-5768
取消	-5769
同伙	-5770
吹奏	-5771
喝了	-5772
地鸣	-5773
堂堂	-5774
夏季	-5775
外公	-5776
大臣	-5777
宣布	-5778
寻求	-5779
小说	-5780
很高	-5781
忍受	-5782
悠闲	-5783
想问	-5784
我被	-5785
手术	-5786
拜访	-5787
排球	-5788
摩托	-5789
救出	-5790
曲球	-5791
替你	-5792
流星	-5793
海的	-5794
珊瑚	-5795
瓦斯	-5796
矛盾	-5797
等的	-5798
繁荣	-5799
编辑	-5800
而易	-5801
能把	-5802
解放	-5803
警告	-5804
认输	-5805
身影	-5806
过度	-5807
雷姆	-5808
驱逐	-5809
▁兵长	-5810
▁原本	-5811
▁和你	-5812
▁她的	-5813
▁我再	-5814
▁日向	-5815
▁月岛	-5816
▁每次	-5817
▁注意	-5818
▁看吧	-5819
不想再	-5820
也是个	-5821
了下来	-5822
你这种	-5823
出发了	-5824
十分钟	-5825
却没有	-5826
发生的	-5827
和妈妈	-5828
奇怪了	-5829
就是要	-5830
得很好	-5831
怎么行	-5832
恢复了	-5833
投手丘	-5834
日本人	-5835
有名的	-5836
朋友吗	-5837
来得及	-5838
比赛的	-5839
没用的	-5840
特别的	-5841
生命的	-5842
用这种	-5843
的一员	-5844
的事啊	-5845
的同伴	-5846
的瞬间	-5847
目标是	-5848
真面目	-5849
约好了	-5850
能成为	-5851
这个吗	-5852
那些人	-5853
那小子	-5854
野同学	-5855
▁刚才的	-5856
▁我当然	-5857
▁我虽然	-5858
▁我要去	-5859
▁艾利尔	-5860
一如既往	-5861
我一定要	-5862
折木同学	-5863
接下来的	-5864
毫无意义	-5865
艾连叶卡	-5866
该不会是	-5867
说了什么	-5868
这种情况	-5869
▁不管怎么说	-5870
▁九	-5871
▁南	-5872
▁所	-5873
▁猫	-5874
一刻	-5875
一族	-5876
一段	-5877
三叶	-5878
下降	-5879
两天	-5880
乐器	-5881
人造	-5882
会上	-5883
伤了	-5884
你又	-5885
兵器	-5886
兼职	-5887
再多	-5888
出色	-5889
创作	-5890
去过	-5891
发起	-5892
可要	-5893
叶王	-5894
啊小	-5895
啦啦	-5896
天使	-5897
家吗	-5898
封锁	-5899
就得	-5900
崩溃	-5901
差别	-5902
带了	-5903
开车	-5904
弱小	-5905
循环	-5906
心爱	-5907
意料	-5908
我叫	-5909
手枪	-5910
收获	-5911
放开	-5912
教我	-5913
新生	-5914
新鲜	-5915
日的	-5916
晚餐	-5917
更有	-5918
朝着	-5919
核心	-5920
棒啊	-5921
正当	-5922
水口	-5923
汉堡	-5924
活力	-5925
理的	-5926
琪娅	-5927
男孩	-5928
百分	-5929
眼里	-5930
神圣	-5931
科学	-5932
立场	-5933
精英	-5934
老爹	-5935
胸部	-5936
脸色	-5937
莫非	-5938
获取	-5939
落在	-5940
血统	-5941
西斯	-5942
跑到	-5943
跳跃	-5944
过我	-5945
这人	-5946
送给	-5947
邂逅	-5948
门口	-5949
防止	-5950
饮料	-5951
▁但在	-5952
▁千万	-5953
▁孩子	-5954
▁暂时	-5955
▁正在	-5956
▁泽村	-5957
▁直接	-5958
▁等我	-5959
▁老板	-5960
▁贾碧	-5961
▁还真	-5962
▁这不	-5963
▁那又	-5964
不在了	-5965
之后再	-5966
二年级	-5967
你也会	-5968
你是个	-5969
你真的	-5970
单纯的	-5971
吸血鬼	-5972
咖啡厅	-5973
大忙了	-5974
大量的	-5975
女人的	-5976
对我的	-5977
就是了	-5978
尽可能	-5979
帝国的	-5980
我不能	-5981
把那个	-5982
的照片	-5983
破坏了	-5984
练习赛	-5985
良良木	-5986
试试看	-5987
还不如	-5988
还不能	-5989
进去了	-5990
逃走了	-5991
金田一	-5992
难道说	-5993
▁你喜欢	-5994
▁如果他	-5995
▁我讨厌	-5996
▁特别是	-5997
▁真的很	-5998
▁虽然是	-5999
▁这样就	-6000
为了保护	-6001
大型巨人	-6002
就是我的	-6003
我是不会	-6004
的可能性	-6005
▁比起这个	-6006
▁真的假的	-6007
▁草太先生	-6008
▁为什么你会	-6009
▁信	-6010
▁玩	-6011
▁芽	-6012
▁英	-6013
七八	-6014
上半	-6015
不被	-6016
丢脸	-6017
亲戚	-6018
人来	-6019
保留	-6020
光了	-6021
几句	-6022
吃一	-6023
吞噬	-6024
回了	-6025
外出	-6026
外国	-6027
外角	-6028
多数	-6029
奈美	-6030
嫌弃	-6031
岛屿	-6032
幅画	-6033
当地	-6034
待命	-6035
总会	-6036
想来	-6037
抢走	-6038
据点	-6039
教堂	-6040
无情	-6041
显示	-6042
最佳	-6043
杀的	-6044
棘手	-6045
次元	-6046
沉睡	-6047
洞穴	-6048
灵体	-6049
特产	-6050
狠狠	-6051
相似	-6052
破了	-6053
竟敢	-6054
绑架	-6055
网站	-6056
肮脏	-6057
荣幸	-6058
见见	-6059
角落	-6060
近了	-6061
这下	-6062
选举	-6063
那帮	-6064
里亚	-6065
防卫	-6066
项目	-6067
魔王	-6068
▁乌野	-6069
▁你个	-6070
▁啊不	-6071
▁田中	-6072
▁至于	-6073
▁艾伦	-6074
▁要说	-6075
▁过去	-6076
万日元	-6077
侦探社	-6078
危险的	-6079
只剩下	-6080
完全不	-6081
就是在	-6082
当时的	-6083
我们家	-6084
我们能	-6085
换衣服	-6086
无聊的	-6087
明日香	-6088
是没有	-6089
父亲的	-6090
的是我	-6091
的话那	-6092
睡不着	-6093
管闲事	-6094
老头子	-6095
认真地	-6096
赢不了	-6097
还是要	-6098
这是在	-6099
这样说	-6100
那之后	-6101
▁一定是	-6102
▁一想到	-6103
▁但是啊	-6104
▁你不会	-6105
▁你果然	-6106
▁想不到	-6107
▁我们去	-6108
▁我刚才	-6109
▁我看看	-6110
▁看上去	-6111
▁这位是	-6112
▁这是你	-6113
▁那可是	-6114
一直都是	-6115
为什么呢	-6116
些什么呢	-6117
在这里啊	-6118
多多指教	-6119
就是为了	-6120
希干希纳	-6121
开玩笑了	-6122
怎么知道	-6123
搞什么啊	-6124
的一部分	-6125
请多指教	-6126
谢谢你了	-6127
贤者之石	-6128
这个时候	-6129
▁不管怎样	-6130
▁欢迎回来	-6131
▁而且还是	-6132
玛利亚之墙	-6133
重要的东西	-6134
▁挺	-6135
▁羽	-6136
不良	-6137
专心	-6138
世的	-6139
之身	-6140
以子	-6141
以赴	-6142
伊斯	-6143
休想	-6144
会用	-6145
便利	-6146
做吧	-6147
做成	-6148
偷懒	-6149
兰迦	-6150
典礼	-6151
出一	-6152
出于	-6153
分子	-6154
千年	-6155
反复	-6156
取胜	-6157
后再	-6158
吓人	-6159
味的	-6160
哪边	-6161
商品	-6162
嘿嘿	-6163
坏人	-6164
型的	-6165
堆积	-6166
处置	-6167
夢幻	-6168
大吉	-6169
夫克	-6170
夸张	-6171
封信	-6172
尔撒	-6173
局长	-6174
巴巴	-6175
师的	-6176
帽子	-6177
干扰	-6178
幸存	-6179
弥生	-6180
当上	-6181
德尔	-6182
战力	-6183
打不	-6184
报警	-6185
放任	-6186
明星	-6187
板上	-6188
歼灭	-6189
毁掉	-6190
活跃	-6191
熔岩	-6192
犯了	-6193
细菌	-6194
罪孽	-6195
荞麦	-6196
补给	-6197
话呢	-6198
起床	-6199
跳舞	-6200
输掉	-6201
退出	-6202
都怪	-6203
雷欧	-6204
震惊	-6205
鲁兹	-6206
▁了解	-6207
▁亚妮	-6208
▁你把	-6209
▁全员	-6210
▁好球	-6211
▁才能	-6212
▁殿下	-6213
▁记得	-6214
▁随后	-6215
一样呢	-6216
下去的	-6217
产生的	-6218
他人的	-6219
伊迪安	-6220
会知道	-6221
你给我	-6222
冈先生	-6223
出来啊	-6224
到时候	-6225
国家的	-6226
夏婆婆	-6227
太棒了	-6228
对你说	-6229
就是我	-6230
想不到	-6231
振作点	-6232
杀人的	-6233
法尔可	-6234
活下来	-6235
的儿子	-6236
的国家	-6237
的士兵	-6238
的手段	-6239
的颜色	-6240
直升机	-6241
简直是	-6242
纳兰迦	-6243
获得了	-6244
被巨人	-6245
还记得	-6246
都这么	-6247
▁他们的	-6248
▁他已经	-6249
▁听我说	-6250
▁当然了	-6251
▁烦死了	-6252
▁看来你	-6253
▁要是能	-6254
▁那种事	-6255
不知道吗	-6256
平安无事	-6257
很重要的	-6258
是什么呢	-6259
毫无疑问	-6260
的时候我	-6261
还有一个	-6262
▁不知不觉	-6263
▁不行不行	-6264
▁大家都在	-6265
▁对我来说	-6266
▁现在开始	-6267
▁冰	-6268
▁耶	-6269
▁血	-6270
▁顺	-6271
下周	-6272
为人	-6273
主公	-6274
丽莎	-6275
乔乔	-6276
乡下	-6277
二楼	-6278
五十	-6279
击败	-6280
分了	-6281
分手	-6282
剧本	-6283
召集	-6284
同情	-6285
同盟	-6286
吧我	-6287
咎儿	-6288
哪有	-6289
团体	-6290
垒打	-6291
安娜	-6292
实地	-6293
巴鲁	-6294
应付	-6295
式神	-6296
弱了	-6297
强化	-6298
思念	-6299
打听	-6300
扮演	-6301
拿来	-6302
提醒	-6303
放下	-6304
春子	-6305
本部	-6306
款待	-6307
正统	-6308
此事	-6309
死吗	-6310
注入	-6311
电梯	-6312
登场	-6313
白天	-6314
的头	-6315
皮托	-6316
相机	-6317
立马	-6318
经济	-6319
而被	-6320
自已	-6321
营业	-6322
融合	-6323
被她	-6324
被抓	-6325
解散	-6326
议员	-6327
试图	-6328
这只	-6329
远远	-6330
针对	-6331
间的	-6332
集团	-6333
预赛	-6334
▁仅仅	-6335
▁保护	-6336
▁可别	-6337
▁嗯嗯	-6338
▁回去	-6339
▁在你	-6340
▁我倒	-6341
▁我听	-6342
▁我将	-6343
▁昨晚	-6344
▁有时	-6345
▁瞄准	-6346
▁立刻	-6347
▁警察	-6348
▁过来	-6349
不怎么	-6350
不认识	-6351
东京的	-6352
他已经	-6353
但是我	-6354
做不了	-6355
出去的	-6356
出发吧	-6357
加油啊	-6358
喝一杯	-6359
回到了	-6360
外星人	-6361
多少钱	-6362
好不好	-6363
好吃的	-6364
宫同学	-6365
帮我们	-6366
得到的	-6367
我今天	-6368
担心你	-6369
有趣的	-6370
清楚了	-6371
的对象	-6372
第一的	-6373
能理解	-6374
那不是	-6375
阿卡曼	-6376
▁不过是	-6377
▁今天就	-6378
▁你真是	-6379
▁你认识	-6380
▁再见了	-6381
▁再说了	-6382
▁别说了	-6383
▁到头来	-6384
▁到时候	-6385
▁又来了	-6386
▁啊抱歉	-6387
▁如果有	-6388
▁我绝对	-6389
▁我说啊	-6390
▁是那个	-6391
▁看来是	-6392
也不可能	-6393
帕拉迪岛	-6394
打起精神	-6395
是什么人	-6396
最重要的	-6397
比较好吧	-6398
真的好吗	-6399
▁就是这个	-6400
▁话虽如此	-6401
托洛斯特区	-6402
▁你说什么呢	-6403
发生了什么事	-6404
▁冬	-6405
▁呜	-6406
▁嗨	-6407
▁实	-6408
▁气	-6409
」「	-6410
不顾	-6411
举动	-6412
乘客	-6413
以往	-6414
会去	-6415
伟大	-6416
使唤	-6417
出动	-6418
分数	-6419
分的	-6420
到手	-6421
办公	-6422
北方	-6423
去买	-6424
发布	-6425
另一	-6426
吃啊	-6427
同类	-6428
听吗	-6429
告知	-6430
喝茶	-6431
嚣张	-6432
圆桌	-6433
地带	-6434
城里	-6435
外行	-6436
太婆	-6437
始终	-6438
孤儿	-6439
宠物	-6440
少了	-6441
山上	-6442
巫力	-6443
常识	-6444
幼稚	-6445
广阔	-6446
形势	-6447
快来	-6448
慎平	-6449
拍照	-6450
指令	-6451
接到	-6452
控球	-6453
放的	-6454
旅团	-6455
最多	-6456
有时	-6457
有话	-6458
海盗	-6459
熟人	-6460
熟练	-6461
牛奶	-6462
狙击	-6463
玲子	-6464
班级	-6465
由希	-6466
白的	-6467
的香	-6468
监狱	-6469
穿上	-6470
竞技	-6471
第六	-6472
等于	-6473
签名	-6474
而战	-6475
蝴蝶	-6476
行事	-6477
装饰	-6478
西索	-6479
见你	-6480
警惕	-6481
负担	-6482
轨道	-6483
迷路	-6484
通道	-6485
邻居	-6486
隔壁	-6487
鞋子	-6488
顾客	-6489
马尔	-6490
骗子	-6491
龙之	-6492
▁但也	-6493
▁你跟	-6494
▁哪有	-6495
▁小春	-6496
▁我好	-6497
▁我这	-6498
不断地	-6499
不适合	-6500
也不用	-6501
也已经	-6502
习惯了	-6503
亲爱的	-6504
他们是	-6505
以前的	-6506
使用了	-6507
做到了	-6508
厉害的	-6509
在我的	-6510
夫克兰	-6511
小野寺	-6512
岛同学	-6513
执行官	-6514
担心了	-6515
拒绝了	-6516
机器人	-6517
来的吧	-6518
根本没	-6519
没事吗	-6520
的事实	-6521
的内容	-6522
突然就	-6523
米斯达	-6524
糟糕了	-6525
说过吗	-6526
这两个	-6527
进来吧	-6528
都是我	-6529
都给我	-6530
防万一	-6531
麻烦你	-6532
▁不过他	-6533
▁你这么	-6534
▁去死吧	-6535
▁在哪里	-6536
▁就这么	-6537
▁我应该	-6538
▁我还没	-6539
▁求你了	-6540
▁现在我	-6541
一无所知	-6542
以前一样	-6543
会在这里	-6544
去哪里了	-6545
好厉害啊	-6546
完全不同	-6547
小兔老师	-6548
明白了吗	-6549
的女孩子	-6550
▁哎呀哎呀	-6551
▁如果没有	-6552
▁搞什么啊	-6553
▁等等一下	-6554
就交给你了	-6555
有什么关系	-6556
▁唔	-6557
▁尼	-6558
▁纯	-6559
▁胡	-6560
▁车	-6561
三次	-6562
专家	-6563
世人	-6564
之都	-6565
他就	-6566
优势	-6567
俱乐	-6568
假装	-6569
全员	-6570
公平	-6571
具有	-6572
出身	-6573
别管	-6574
勇敢	-6575
又有	-6576
发的	-6577
口袋	-6578
古老	-6579
各个	-6580
喜悦	-6581
在大	-6582
坚信	-6583
处可	-6584
夏日	-6585
奴家	-6586
安部	-6587
尚未	-6588
就由	-6589
局的	-6590
左手	-6591
左边	-6592
巴士	-6593
年后	-6594
座的	-6595
形成	-6596
心了	-6597
懂的	-6598
我又	-6599
所能	-6600
搞得	-6601
改造	-6602
教你	-6603
教官	-6604
无效	-6605
无能	-6606
某些	-6607
标准	-6608
水道	-6609
汇合	-6610
独立	-6611
瑞泽	-6612
生病	-6613
用于	-6614
画的	-6615
盯上	-6616
站着	-6617
竹马	-6618
美术	-6619
耀眼	-6620
联手	-6621
莉休	-6622
藏着	-6623
被打	-6624
西达	-6625
让开	-6626
说不	-6627
说起	-6628
购物	-6629
赚钱	-6630
跑去	-6631
躲开	-6632
还得	-6633
透明	-6634
通往	-6635
长相	-6636
问吗	-6637
高级	-6638
鬼儿	-6639
鲜血	-6640
▁以为	-6641
▁仿佛	-6642
▁别想	-6643
▁别看	-6644
▁动作	-6645
▁医生	-6646
▁十分	-6647
▁咱们	-6648
▁地球	-6649
▁声音	-6650
▁学校	-6651
▁实在	-6652
▁对你	-6653
▁我被	-6654
▁游戏	-6655
▁说来	-6656
▁这话	-6657
▁露西	-6658
内心的	-6659
准备好	-6660
参加了	-6661
发现的	-6662
可不能	-6663
吃掉了	-6664
对自己	-6665
我就会	-6666
桐人君	-6667
毕竟是	-6668
生活在	-6669
的关键	-6670
的母亲	-6671
纪委员	-6672
给别人	-6673
过程中	-6674
通灵者	-6675
驾驶员	-6676
鲁西达	-6677
▁不要再	-6678
▁不需要	-6679
▁但我们	-6680
▁但还是	-6681
▁你没有	-6682
▁请大家	-6683
▁那之后	-6684
你说什么	-6685
做什么呢	-6686
我不知道	-6687
非常感谢	-6688
▁你知道吗	-6689
▁我们可是	-6690
▁要是没有	-6691
▁这可不是	-6692
会变成这样	-6693
有什么事吗	-6694
▁我怎么可能	-6695
▁利	-6696
▁妈	-6697
▁市	-6698
▁战	-6699
▁沙	-6700
▁糟	-6701
▁绫	-6702
▁這	-6703
▁零	-6704
一团	-6705
一行	-6706
上下	-6707
上司	-6708
主要	-6709
之事	-6710
仍在	-6711
会合	-6712
佐木	-6713
假面	-6714
免费	-6715
其它	-6716
冲突	-6717
初次	-6718
别想	-6719
协力	-6720
友情	-6721
发了	-6722
名单	-6723
后颈	-6724
团队	-6725
孤单	-6726
将我	-6727
小樱	-6728
巴斯	-6729
广告	-6730
录像	-6731
待会	-6732
必杀	-6733
忘掉	-6734
怨恨	-6735
我看	-6736
才有	-6737
打进	-6738
报酬	-6739
捕获	-6740
搞定	-6741
收容	-6742
放出	-6743
教师	-6744
文明	-6745
月之	-6746
未曾	-6747
本性	-6748
极了	-6749
构造	-6750
氛围	-6751
渴望	-6752
漆黑	-6753
狡啮	-6754
玩了	-6755
球场	-6756
理论	-6757
的爱	-6758
破绽	-6759
磨蹭	-6760
笑着	-6761
笑话	-6762
罪恶	-6763
老人	-6764
联赛	-6765
胞胎	-6766
能和	-6767
莉娜	-6768
被害	-6769
视为	-6770
走到	-6771
跟上	-6772
轮岛	-6773
轻音	-6774
迟了	-6775
选了	-6776
重视	-6777
阴影	-6778
阴阳	-6779
降临	-6780
雷夫	-6781
骨头	-6782
▁仗助	-6783
▁再不	-6784
▁别别	-6785
▁名字	-6786
▁御坂	-6787
▁您好	-6788
▁我正	-6789
▁真想	-6790
▁莎夏	-6791
▁还说	-6792
不用再	-6793
了一场	-6794
什么了	-6795
伤脑筋	-6796
到底想	-6797
力量的	-6798
变化球	-6799
回家吧	-6800
在这边	-6801
奇怪啊	-6802
好像很	-6803
学生会	-6804
就不用	-6805
已经有	-6806
忍不住	-6807
我们吗	-6808
我的吧	-6809
我真的	-6810
我还没	-6811
抓住了	-6812
收下了	-6813
收到了	-6814
斯先生	-6815
明明是	-6816
是一种	-6817
来说是	-6818
此而已	-6819
死人了	-6820
的小鬼	-6821
的想法	-6822
的第一	-6823
的计划	-6824
相当于	-6825
自己想	-6826
要去哪	-6827
见不到	-6828
训练兵	-6829
误会了	-6830
还可以	-6831
这东西	-6832
进一步	-6833
那个叫	-6834
骗人的	-6835
▁久等了	-6836
▁你是在	-6837
▁你是想	-6838
▁别这样	-6839
▁喂喂喂	-6840
▁好久没	-6841
▁我无法	-6842
▁我曾经	-6843
▁我没事	-6844
▁我要是	-6845
▁我马上	-6846
▁是什么	-6847
▁是真的	-6848
▁肯定是	-6849
一年级的	-6850
初次见面	-6851
吓了一跳	-6852
和你一起	-6853
我知道了	-6854
注意到了	-6855
绝对不能	-6856
肚子饿了	-6857
调查一下	-6858
重要的事	-6859
铠之巨人	-6860
▁为什么啊	-6861
▁我们现在	-6862
▁我可不想	-6863
▁说的也是	-6864
开什么玩笑	-6865
有什么东西	-6866
鲁西达尼亚	-6867
▁你在说什么啊	-6868
▁剑	-6869
▁失	-6870
▁库	-6871
▁店	-6872
▁梦	-6873
▁睡	-6874
▁舞	-6875
▁越	-6876
一座	-6877
一心	-6878
一战	-6879
一的	-6880
一眼	-6881
上野	-6882
两种	-6883
丧失	-6884
之名	-6885
也说	-6886
争夺	-6887
事啊	-6888
他不	-6889
以此	-6890
佐藤	-6891
你太	-6892
例外	-6893
信念	-6894
做些	-6895
公布	-6896
军事	-6897
别了	-6898
卫星	-6899
发言	-6900
变为	-6901
吃到	-6902
员工	-6903
周边	-6904
命的	-6905
回报	-6906
头绪	-6907
好奇	-6908
媒体	-6909
密码	-6910
小瞧	-6911
少见	-6912
局势	-6913
布理	-6914
并且	-6915
幻书	-6916
往常	-6917
很远	-6918
得知	-6919
悲剧	-6920
投出	-6921
挚友	-6922
挺好	-6923
摧毁	-6924
旅途	-6925
旋转	-6926
无力	-6927
春绯	-6928
是人	-6929
是说	-6930
来当	-6931
极其	-6932
正正	-6933
汇报	-6934
河流	-6935
洞窟	-6936
流传	-6937
湖泊	-6938
火灾	-6939
炼成	-6940
热血	-6941
特训	-6942
现代	-6943
的说	-6944
空的	-6945
策略	-6946
红酒	-6947
至此	-6948
色彩	-6949
花了	-6950
融入	-6951
认定	-6952
说到	-6953
说吗	-6954
豪华	-6955
赋予	-6956
赢过	-6957
起的	-6958
跑步	-6959
运输	-6960
还说	-6961
追寻	-6962
退了	-6963
那群	-6964
阵容	-6965
露伴	-6966
马车	-6967
鲁那	-6968
齐了	-6969
▁亚修	-6970
▁光是	-6971
▁包括	-6972
▁去年	-6973
▁哦哦	-6974
▁她在	-6975
▁恒星	-6976
▁慢着	-6977
▁放弃	-6978
▁正义	-6979
▁永远	-6980
▁要想	-6981
不允许	-6982
不好了	-6983
也知道	-6984
了我吧	-6985
产生了	-6986
伟大的	-6987
你一个	-6988
你们能	-6989
你没有	-6990
再说吧	-6991
千万别	-6992
去哪了	-6993
哪去了	-6994
回家了	-6995
因如此	-6996
圣诞节	-6997
在外面	-6998
大部分	-6999
太大了	-7000
子阿姨	-7001
就像是	-7002
已经很	-7003
拿出来	-7004
放心了	-7005
更好的	-7006
杀人狂	-7007
橘海寺	-7008
漂亮啊	-7009
的人了	-7010
的命令	-7011
的哥哥	-7012
的话是	-7013
真好啊	-7014
神大人	-7015
老老实	-7016
能看见	-7017
被别人	-7018
说话了	-7019
造成的	-7020
▁不好了	-7021
▁什么都	-7022
▁你今天	-7023
▁你们要	-7024
▁如果说	-7025
▁对了你	-7026
▁就让我	-7027
▁总感觉	-7028
▁我也会	-7029
▁我终于	-7030
▁投得好	-7031
▁那一天	-7032
不是为了	-7033
全力以赴	-7034
堂堂正正	-7035
很久以前	-7036
怎么办呢	-7037
我还以为	-7038
是这么说	-7039
是这样吗	-7040
的话就会	-7041
笹子小姐	-7042
认真的吗	-7043
这么觉得	-7044
那两个人	-7045
鲁那雷夫	-7046
▁你不觉得	-7047
▁公主殿下	-7048
▁我才不会	-7049
▁说什么呢	-7050
怎么回事啊	-7051
▁悠	-7052
▁托	-7053
▁提	-7054
▁管	-7055
▁近	-7056
▁面	-7057
一垒	-7058
一阵	-7059
不容	-7060
严厉	-7061
主厨	-7062
久的	-7063
之剑	-7064
休假	-7065
众多	-7066
佳代	-7067
做完	-7068
傍晚	-7069
凯特	-7070
动弹	-7071
勇者	-7072
厨房	-7073
右边	-7074
吩咐	-7075
和号	-7076
喰种	-7077
噩梦	-7078
四分	-7079
土耳	-7080
在做	-7081
坦白	-7082
城的	-7083
夏步	-7084
大楼	-7085
她啊	-7086
学期	-7087
对着	-7088
就更	-7089
工资	-7090
巨神	-7091
干涉	-7092
座位	-7093
弘美	-7094
得要	-7095
得逞	-7096
快走	-7097
情侣	-7098
我好	-7099
拉德	-7100
捕捉	-7101
故障	-7102
旅程	-7103
早晨	-7104
明确	-7105
星灵	-7106
暂停	-7107
未知	-7108
某人	-7109
校长	-7110
横滨	-7111
比试	-7112
水流	-7113
注视	-7114
洛德	-7115
派上	-7116
派遣	-7117
浑身	-7118
焦躁	-7119
球了	-7120
盖饭	-7121
相识	-7122
种子	-7123
穿过	-7124
精力	-7125
结合	-7126
结构	-7127
老公	-7128
自称	-7129
花子	-7130
荒唐	-7131
表扬	-7132
覆盖	-7133
调酒	-7134
赞成	-7135
赢的	-7136
退下	-7137
通信	-7138
逞强	-7139
那把	-7140
金钱	-7141
错觉	-7142
难度	-7143
雇佣	-7144
顾虑	-7145
▁事实	-7146
▁休息	-7147
▁你对	-7148
▁变成	-7149
▁天野	-7150
▁影山	-7151
▁慢慢	-7152
▁晚安	-7153
▁汉吉	-7154
▁立花	-7155
▁等到	-7156
▁经过	-7157
▁让开	-7158
▁说明	-7159
不在乎	-7160
不应该	-7161
不擅长	-7162
不是你	-7163
为我们	-7164
为目标	-7165
也来了	-7166
井同学	-7167
交出来	-7168
你们也	-7169
修瓦尔	-7170
充满了	-7171
其中的	-7172
准备了	-7173
出胜负	-7174
同学们	-7175
同学和	-7176
埃尔文	-7177
奉太郎	-7178
好好的	-7179
开心的	-7180
很好的	-7181
抓到了	-7182
明天见	-7183
暴露了	-7184
的一天	-7185
的人吧	-7186
的各位	-7187
的同时	-7188
的回忆	-7189
的灵魂	-7190
的生物	-7191
的道路	-7192
知道吗	-7193
研究所	-7194
组织的	-7195
而来的	-7196
见到了	-7197
让自己	-7198
这一步	-7199
这样吧	-7200
▁不只是	-7201
▁也是啊	-7202
▁听说你	-7203
▁啊这个	-7204
▁我以前	-7205
▁我打算	-7206
▁无所谓	-7207
▁法尔可	-7208
▁话说你	-7209
亚尔斯兰	-7210
和我一起	-7211
圆桌会议	-7212
就好了吗	-7213
还有其他	-7214
这个问题	-7215
这么大的	-7216
这座城市	-7217
重要的人	-7218
▁就是现在	-7219
▁欢迎来到	-7220
▁真没想到	-7221
▁这就是我的	-7222
▁内	-7223
▁嘉	-7224
▁德	-7225
▁混	-7226
▁电	-7227
▁约	-7228
▁赤	-7229
一夏	-7230
一想	-7231
上车	-7232
上门	-7233
下达	-7234
不大	-7235
之星	-7236
之际	-7237
乐意	-7238
二的	-7239
什麼	-7240
代理	-7241
会让	-7242
低音	-7243
何方	-7244
作家	-7245
你哦	-7246
你我	-7247
便会	-7248
保存	-7249
关东	-7250
兵力	-7251
写了	-7252
出版	-7253
动静	-7254
协会	-7255
各地	-7256
后辈	-7257
品尝	-7258
哪怕	-7259
四个	-7260
在吗	-7261
场所	-7262
埃及	-7263
多拉	-7264
夢想	-7265
太早	-7266
头上	-7267
奉陪	-7268
子呢	-7269
安慰	-7270
实施	-7271
审查	-7272
宴会	-7273
居住	-7274
屈服	-7275
帮他	-7276
建设	-7277
当了	-7278
当真	-7279
得住	-7280
得出	-7281
心跳	-7282
快斗	-7283
情愿	-7284
我将	-7285
手套	-7286
投票	-7287
报纸	-7288
拉克	-7289
政治	-7290
数学	-7291
新一	-7292
方针	-7293
无比	-7294
无礼	-7295
村庄	-7296
柴田	-7297
格斗	-7298
残忍	-7299
水的	-7300
池袋	-7301
沉重	-7302
洛斯	-7303
派出	-7304
满满	-7305
火了	-7306
烦啊	-7307
王都	-7308
的最	-7309
的梦	-7310
目光	-7311
确保	-7312
神殿	-7313
结了	-7314
考上	-7315
肯尼	-7316
脸上	-7317
萝卜	-7318
补充	-7319
装甲	-7320
觉醒	-7321
记载	-7322
说她	-7323
资源	-7324
赎罪	-7325
赛尔	-7326
走路	-7327
还给	-7328
重建	-7329
鉴定	-7330
长了	-7331
领导	-7332
食品	-7333
麻奈	-7334
鼓励	-7335
▁东京	-7336
▁从今	-7337
▁快跑	-7338
▁白熊	-7339
▁真好	-7340
▁跟我	-7341
不在场	-7342
乱七八	-7343
仁兵卫	-7344
今天就	-7345
你真是	-7346
冒险者	-7347
出门了	-7348
制造出	-7349
去哪儿	-7350
哈迪斯	-7351
多亏了	-7352
天同学	-7353
天真了	-7354
好可爱	-7355
妖精的	-7356
学校里	-7357
巨人化	-7358
已经在	-7359
开心啊	-7360
很可爱	-7361
想象的	-7362
我不想	-7363
我也不	-7364
才不是	-7365
把你的	-7366
有关系	-7367
杀死了	-7368
殿下的	-7369
每个人	-7370
的行为	-7371
真的有	-7372
老样子	-7373
能让我	-7374
艾尔莎	-7375
葡萄酒	-7376
说出口	-7377
还不错	-7378
这一天	-7379
这句话	-7380
那个是	-7381
▁不应该	-7382
▁不行啊	-7383
▁不要紧	-7384
▁你之前	-7385
▁你明明	-7386
▁你终于	-7387
▁可以吗	-7388
▁告诉我	-7389
▁我以为	-7390
▁我有点	-7391
▁我真是	-7392
▁这都是	-7393
不就行了	-7394
不知不觉	-7395
会怎么样	-7396
冷静一下	-7397
告诉你的	-7398
就在那里	-7399
很快就会	-7400
振作一点	-7401
这个名字	-7402
这是我的	-7403
阿良良木	-7404
▁你有什么	-7405
▁你这混蛋	-7406
▁姐姐大人	-7407
▁所以我想	-7408
▁这样就能	-7409
武士弗拉明戈	-7410
▁嘴	-7411
▁害	-7412
▁戴	-7413
▁秋	-7414
▁稻	-7415
▁路	-7416
▁遵	-7417
▁集	-7418
上天	-7419
下令	-7420
下落	-7421
两年	-7422
主题	-7423
乱了	-7424
事态	-7425
从我	-7426
会更	-7427
住院	-7428
侍女	-7429
修理	-7430
停车	-7431
僵硬	-7432
先走	-7433
关头	-7434
具备	-7435
出席	-7436
利克	-7437
前行	-7438
办了	-7439
压倒	-7440
厌恶	-7441
去啊	-7442
合宿	-7443
命啊	-7444
和服	-7445
商店	-7446
嘲笑	-7447
坐在	-7448
基因	-7449
增援	-7450
处刑	-7451
大王	-7452
大胆	-7453
太宰	-7454
失控	-7455
对此	-7456
尊敬	-7457
就说	-7458
市场	-7459
帅啊	-7460
帮上	-7461
当场	-7462
形的	-7463
情人	-7464
情形	-7465
情感	-7466
惨了	-7467
成宫	-7468
我再	-7469
我更	-7470
打过	-7471
执念	-7472
拉开	-7473
拼上	-7474
拼了	-7475
探测	-7476
描绘	-7477
搞的	-7478
摸摸	-7479
月亮	-7480
月的	-7481
某处	-7482
格雷	-7483
梅尔	-7484
椅子	-7485
槙岛	-7486
次郎	-7487
此刻	-7488
治好	-7489
浴室	-7490
潜伏	-7491
的强	-7492
的船	-7493
的遗	-7494
的错	-7495
看吗	-7496
真想	-7497
眼中	-7498
着他	-7499
福田	-7500
科的	-7501
罪犯	-7502
美雪	-7503
脱离	-7504
草摩	-7505
蜘蛛	-7506
装作	-7507
触碰	-7508
谁会	-7509
费了	-7510
走廊	-7511
身手	-7512
还很	-7513
这帮	-7514
迷茫	-7515
逆转	-7516
那张	-7517
钟声	-7518
银仙	-7519
镇压	-7520
骗人	-7521
骚动	-7522
高速	-7523
齐心	-7524
▁一二	-7525
▁上啊	-7526
▁上面	-7527
▁不妙	-7528
▁两个	-7529
▁你呢	-7530
▁吴羽	-7531
▁呵呵	-7532
▁回到	-7533
▁大人	-7534
▁好吃	-7535
▁如何	-7536
▁男人	-7537
▁确认	-7538
▁让她	-7539
▁这只	-7540
也会被	-7541
了所以	-7542
俄罗斯	-7543
停下来	-7544
先生你	-7545
加油的	-7546
去世了	-7547
只是想	-7548
同伴的	-7549
妨碍我	-7550
小心点	-7551
想成为	-7552
我就能	-7553
才没有	-7554
拼命地	-7555
接受了	-7556
接电话	-7557
是个好	-7558
梅竹马	-7559
消失的	-7560
现在还	-7561
的主人	-7562
的人偶	-7563
的实力	-7564
能力的	-7565
自行车	-7566
藏起来	-7567
西比拉	-7568
那么做	-7569
▁人类的	-7570
▁会不会	-7571
▁你倒是	-7572
▁你可是	-7573
▁其他人	-7574
▁别在意	-7575
▁喂等等	-7576
▁所以就	-7577
▁才没有	-7578
▁是我们	-7579
▁这一点	-7580
▁这次的	-7581
▁那么请	-7582
▁首先是	-7583
你们这些	-7584
到底是谁	-7585
周围的人	-7586
我的名字	-7587
没办法啊	-7588
没问题吧	-7589
的是什么	-7590
真实身份	-7591
稍微有点	-7592
罗塞之墙	-7593
这样一来	-7594
▁不没什么	-7595
▁为为什么	-7596
▁为什么我	-7597
▁总而言之	-7598
▁没关系的	-7599
▁这么一来	-7600
▁这种事情	-7601
你在干什么	-7602
各种各样的	-7603
夢幻银水晶	-7604
还是第一次	-7605
▁为什么为什么	-7606
▁维	-7607
▁脚	-7608
▁诚	-7609
▁送	-7610
▁逃	-7611
为敌	-7612
之路	-7613
乌鸦	-7614
也对	-7615
事想	-7616
事要	-7617
交通	-7618
亲近	-7619
仇恨	-7620
从你	-7621
他呢	-7622
他说	-7623
会把	-7624
伸明	-7625
作风	-7626
佩服	-7627
八道	-7628
公务	-7629
公爵	-7630
分散	-7631
到他	-7632
包含	-7633
升学	-7634
吐槽	-7635
地板	-7636
坠落	-7637
复兴	-7638
复原	-7639
奈川	-7640
契机	-7641
女子	-7642
子你	-7643
孙子	-7644
寄生	-7645
寻常	-7646
少的	-7647
尤里	-7648
尽早	-7649
山里	-7650
已被	-7651
带领	-7652
引人	-7653
强迫	-7654
录音	-7655
影像	-7656
快到	-7657
性能	-7658
恶劣	-7659
战中	-7660
所见	-7661
扔掉	-7662
扩散	-7663
指定	-7664
指望	-7665
换个	-7666
提起	-7667
无趣	-7668
早饭	-7669
是大	-7670
是好	-7671
更高	-7672
服装	-7673
柔软	-7674
氏族	-7675
气了	-7676
沿着	-7677
点吧	-7678
爱德	-7679
物的	-7680
王族	-7681
生长	-7682
的石	-7683
相对	-7684
祖先	-7685
神父	-7686
稀奇	-7687
红茶	-7688
线的	-7689
羁绊	-7690
蜥蜴	-7691
血脉	-7692
计画	-7693
说来	-7694
谜题	-7695
辅助	-7696
这家	-7697
部门	-7698
鄙人	-7699
铃芽	-7700
雷娜	-7701
非要	-7702
面临	-7703
饭团	-7704
▁三叶	-7705
▁主人	-7706
▁你从	-7707
▁别太	-7708
▁只会	-7709
▁啊那	-7710
▁嗯哒	-7711
▁好快	-7712
▁完了	-7713
▁就凭	-7714
▁有种	-7715
▁朋友	-7716
▁简单	-7717
▁超级	-7718
▁陵南	-7719
不如说	-7720
不得已	-7721
不是的	-7722
不能让	-7723
以外的	-7724
你居然	-7725
全垒打	-7726
出场了	-7727
出局了	-7728
别这样	-7729
到底在	-7730
办公室	-7731
可惜了	-7732
告诉她	-7733
就知道	-7734
应该也	-7735
快住手	-7736
我一跳	-7737
我也能	-7738
我想象	-7739
我是个	-7740
掌握了	-7741
是人类	-7742
有问题	-7743
没礼貌	-7744
消失吧	-7745
游戏的	-7746
生气了	-7747
的替身	-7748
的王牌	-7749
而成的	-7750
而易举	-7751
荞麦面	-7752
认识的	-7753
试试吧	-7754
说了吗	-7755
说这些	-7756
这一带	-7757
这里有	-7758
错误的	-7759
问一下	-7760
▁不要啊	-7761
▁也不能	-7762
▁从刚才	-7763
▁你说得	-7764
▁你难道	-7765
▁刚才那	-7766
▁别过来	-7767
▁夏婆婆	-7768
▁就可以	-7769
▁我们家	-7770
▁我们来	-7771
▁所谓的	-7772
▁更何况	-7773
▁现在就	-7774
▁那就好	-7775
▁首先要	-7776
不一样啊	-7777
今天开始	-7778
你的能力	-7779
冷静一点	-7780
可以的话	-7781
太危险了	-7782
孤身一人	-7783
就是因为	-7784
我们现在	-7785
某个地方	-7786
没办法了	-7787
的话我会	-7788
真是抱歉	-7789
胡说八道	-7790
轻而易举	-7791
▁我们走吧	-7792
▁这是我们	-7793
在这种时候	-7794
才是真正的	-7795
超大型巨人	-7796
▁但是为什么	-7797
▁击	-7798
▁家	-7799
▁岁	-7800
▁恕	-7801
▁毛	-7802
▁流	-7803
▁狗	-7804
▁谷	-7805
一支	-7806
一顿	-7807
万事	-7808
不做	-7809
不怕	-7810
世代	-7811
个性	-7812
之心	-7813
也罢	-7814
了断	-7815
会计	-7816
伤疤	-7817
其事	-7818
利益	-7819
别无	-7820
千早	-7821
卫队	-7822
原稿	-7823
又没	-7824
口味	-7825
叫他	-7826
可悲	-7827
合唱	-7828
同胞	-7829
后退	-7830
员警	-7831
回不	-7832
地了	-7833
地址	-7834
场面	-7835
墙内	-7836
多姆	-7837
大小	-7838
奖赛	-7839
奶油	-7840
好疼	-7841
妄想	-7842
字塔	-7843
小晶	-7844
巴黎	-7845
常常	-7846
干杯	-7847
幻影	-7848
应当	-7849
惊喜	-7850
慌张	-7851
慢啊	-7852
所未	-7853
折木	-7854
拿去	-7855
挂在	-7856
搞笑	-7857
旁观	-7858
无一	-7859
无路	-7860
有限	-7861
本次	-7862
机的	-7863
校服	-7864
桌子	-7865
歌曲	-7866
比如	-7867
气啊	-7868
泳衣	-7869
灭绝	-7870
特斯	-7871
玫瑰	-7872
疼痛	-7873
的伤	-7874
的光	-7875
眼光	-7876
短打	-7877
策划	-7878
系数	-7879
经纪	-7880
脖子	-7881
花钱	-7882
营养	-7883
葬礼	-7884
蔬菜	-7885
行踪	-7886
西点	-7887
说完	-7888
贯彻	-7889
资金	-7890
跨越	-7891
路嘉	-7892
身材	-7893
过吧	-7894
运转	-7895
追击	-7896
隧道	-7897
霍洛	-7898
预言	-7899
▁从而	-7900
▁关键	-7901
▁听到	-7902
▁团长	-7903
▁少爷	-7904
▁很久	-7905
▁成功	-7906
▁我等	-7907
▁老爸	-7908
▁自然	-7909
▁防守	-7910
一方面	-7911
乔斯特	-7912
也不过	-7913
也是啊	-7914
五分钟	-7915
他们俩	-7916
信号弹	-7917
别说了	-7918
原谅我	-7919
去参加	-7920
回去吗	-7921
在里面	-7922
就那么	-7923
带走了	-7924
干嘛啊	-7925
应该有	-7926
强烈的	-7927
得不错	-7928
意义了	-7929
我喜欢	-7930
战场上	-7931
所在的	-7932
把这些	-7933
是你啊	-7934
没那么	-7935
演唱会	-7936
的愿望	-7937
的是你	-7938
的梦想	-7939
简单的	-7940
给了我	-7941
见到你	-7942
这个了	-7943
这个啊	-7944
这么久	-7945
这么好	-7946
这样想	-7947
都不是	-7948
问题的	-7949
骑士团	-7950
▁从这里	-7951
▁他就是	-7952
▁你不用	-7953
▁你刚刚	-7954
▁在这种	-7955
▁大家好	-7956
▁好可怕	-7957
▁我们将	-7958
▁有时候	-7959
▁没用的	-7960
▁流川枫	-7961
▁真正的	-7962
▁该不会	-7963
▁这下子	-7964
▁难道你	-7965
一模一样	-7966
不过是个	-7967
告诉你们	-7968
在我身上	-7969
已经开始	-7970
手下留情	-7971
本来就是	-7972
机动战士	-7973
没关系吗	-7974
没关系吧	-7975
的话我们	-7976
这么做的	-7977
青梅竹马	-7978
风纪委员	-7979
▁也不知道	-7980
▁我一直在	-7981
▁我不会再	-7982
▁我并不是	-7983
▁明白了吗	-7984
▁至今为止	-7985
什么都没做	-7986
什么都没有	-7987
到哪里去了	-7988
理所当然的	-7989
▁你为什么会	-7990
▁丽	-7991
▁呼	-7992
▁武	-7993
▁灰	-7994
▁班	-7995
▁铁	-7996
不留	-7997
两周	-7998
中有	-7999
为他	-8000
乌龟	-8001
乐趣	-8002
乐队	-8003
了她	-8004
优点	-8005
何等	-8006
作剧	-8007
你真	-8008
你被	-8009
供奉	-8010
侵入	-8011
修塔	-8012
光的	-8013
克服	-8014
出息	-8015
出租	-8016
别动	-8017
南部	-8018
卫生	-8019
去救	-8020
参拜	-8021
双方	-8022
双眼	-8023
可谓	-8024
同行	-8025
名誉	-8026
听你	-8027
商业	-8028
嗯哒	-8029
回避	-8030
堕落	-8031
外人	-8032
多次	-8033
她说	-8034
就和	-8035
就跟	-8036
山顶	-8037
崇拜	-8038
带去	-8039
底下	-8040
开启	-8041
心啊	-8042
感的	-8043
慈姐	-8044
我从	-8045
我只	-8046
房屋	-8047
所为	-8048
才来	-8049
扯上	-8050
批准	-8051
拉尔	-8052
挽回	-8053
放到	-8054
敬请	-8055
施加	-8056
时就	-8057
是也	-8058
是和	-8059
显得	-8060
更为	-8061
柱子	-8062
模糊	-8063
欺骗	-8064
死者	-8065
汽车	-8066
注射	-8067
活在	-8068
派的	-8069
海岸	-8070
淇淋	-8071
深刻	-8072
清醒	-8073
热的	-8074
珍视	-8075
珍贵	-8076
用吧	-8077
画面	-8078
皇后	-8079
稍等	-8080
突击	-8081
纠结	-8082
纯粹	-8083
线球	-8084
组成	-8085
经理	-8086
缩短	-8087
美食	-8088
翻译	-8089
者们	-8090
聊聊	-8091
肖特	-8092
背景	-8093
能干	-8094
能登	-8095
自尊	-8096
艰难	-8097
虽说	-8098
观赏	-8099
警视	-8100
谁来	-8101
谁能	-8102
转告	-8103
迎击	-8104
还剩	-8105
这颗	-8106
迷宫	-8107
迷惑	-8108
追捕	-8109
重伤	-8110
销售	-8111
镇上	-8112
防备	-8113
阻碍	-8114
附属	-8115
难为	-8116
难过	-8117
雏月	-8118
首都	-8119
▁你都	-8120
▁先生	-8121
▁危险	-8122
▁听着	-8123
▁嗯是	-8124
▁客人	-8125
▁对手	-8126
▁小晶	-8127
▁很快	-8128
▁我所	-8129
▁把你	-8130
▁收到	-8131
▁死了	-8132
▁说了	-8133
▁负责	-8134
▁进入	-8135
▁高中	-8136
▁魔法	-8137
他们了	-8138
他们会	-8139
他们说	-8140
你的手	-8141
你这是	-8142
俱乐部	-8143
决定的	-8144
准备的	-8145
努力了	-8146
只要有	-8147
只要能	-8148
吃饭吧	-8149
因为是	-8150
在家里	-8151
头一次	-8152
女巨人	-8153
尔撒斯	-8154
岂不是	-8155
形成了	-8156
很辛苦	-8157
怀念啊	-8158
恶作剧	-8159
所学校	-8160
找出来	-8161
明天的	-8162
是怎样	-8163
杀人犯	-8164
根本不	-8165
没有被	-8166
爸爸的	-8167
珍贵的	-8168
白色的	-8169
的影响	-8170
的目标	-8171
盯上了	-8172
知道我	-8173
第二天	-8174
老太婆	-8175
脑子里	-8176
被称作	-8177
请你们	-8178
还以为	-8179
这个词	-8180
这么快	-8181
这才是	-8182
都一样	-8183
都会被	-8184
金字塔	-8185
阻止他	-8186
▁他们是	-8187
▁因为有	-8188
▁我是说	-8189
▁搞什么	-8190
▁等等等	-8191
▁这里有	-8192
一直都在	-8193
你在一起	-8194
你是怎么	-8195
你这混蛋	-8196
做什么啊	-8197
回来了啊	-8198
巴夫克兰	-8199
我的身体	-8200
的事情吗	-8201
考虑一下	-8202
跟我一起	-8203
▁如果不是	-8204
▁我是不会	-8205
▁我是为了	-8206
▁我说你啊	-8207
▁正是因为	-8208
▁现在已经	-8209
▁这些家伙	-8210
▁那我们就	-8211
这个世界上	-8212
▁买	-8213
▁传	-8214
▁几	-8215
▁弄	-8216
▁敌	-8217
▁曾	-8218
▁温	-8219
▁猜	-8220
▁瞧	-8221
▁结	-8222
一回	-8223
丢掉	-8224
也将	-8225
二位	-8226
京院	-8227
人能	-8228
他妈	-8229
会死	-8230
你对	-8231
侵略	-8232
侵蚀	-8233
信仰	-8234
傻啊	-8235
全军	-8236
关闭	-8237
分配	-8238
切断	-8239
利德	-8240
动向	-8241
卫宫	-8242
厨师	-8243
反田	-8244
发呆	-8245
口中	-8246
可达	-8247
吃过	-8248
后门	-8249
向他	-8250
听话	-8251
周末	-8252
和的	-8253
在家	-8254
夜的	-8255
夫妇	-8256
头啊	-8257
奇妙	-8258
奥尔	-8259
如潮	-8260
妳们	-8261
小哥	-8262
就当	-8263
尼克	-8264
尽兴	-8265
帮了	-8266
幕后	-8267
年来	-8268
床上	-8269
徒劳	-8270
快速	-8271
悄悄	-8272
战略	-8273
打赢	-8274
找找	-8275
指引	-8276
排除	-8277
接吻	-8278
旅游	-8279
旋律	-8280
早啊	-8281
最坏	-8282
有名	-8283
权力	-8284
棋子	-8285
求婚	-8286
海拔	-8287
潜在	-8288
烟雾	-8289
热身	-8290
牌的	-8291
牛肉	-8292
玩玩	-8293
琥珀	-8294
琪拉	-8295
瓦瑟	-8296
生死	-8297
界的	-8298
的流	-8299
的车	-8300
盗贼	-8301
看出	-8302
眼下	-8303
神奇	-8304
秘书	-8305
穿越	-8306
糊涂	-8307
组的	-8308
终点	-8309
绳子	-8310
羽川	-8311
老妈	-8312
脆弱	-8313
莉莎	-8314
莱雅	-8315
藏身	-8316
螃蟹	-8317
行星	-8318
被选	-8319
谈话	-8320
财产	-8321
贸易	-8322
赫尔	-8323
输的	-8324
过头	-8325
那场	-8326
错过	-8327
陌生	-8328
限度	-8329
院长	-8330
飞了	-8331
▁下周	-8332
▁仙道	-8333
▁位于	-8334
▁全体	-8335
▁再次	-8336
▁变得	-8337
▁可惜	-8338
▁好棒	-8339
▁小姐	-8340
▁快走	-8341
▁您的	-8342
▁战争	-8343
▁明日	-8344
▁混账	-8345
▁痛痛	-8346
▁看我	-8347
▁纳兹	-8348
▁老大	-8349
▁跟你	-8350
▁随着	-8351
一个个	-8352
不到了	-8353
不用了	-8354
个不停	-8355
也说过	-8356
伪装成	-8357
你不用	-8358
你们要	-8359
做得到	-8360
做的吗	-8361
停止了	-8362
全部都	-8363
出去吧	-8364
办不到	-8365
原同学	-8366
双胞胎	-8367
受害者	-8368
可是会	-8369
听不懂	-8370
哈哈哈	-8371
大概是	-8372
季大赛	-8373
引以为	-8374
必要的	-8375
想象中	-8376
我好像	-8377
打招呼	-8378
找到的	-8379
把我当	-8380
担心的	-8381
搞错了	-8382
摩托车	-8383
昨天的	-8384
有这种	-8385
朋友的	-8386
本来就	-8387
村先生	-8388
照顾了	-8389
牺牲了	-8390
玛丽亚	-8391
的一样	-8392
的一种	-8393
的态度	-8394
的技术	-8395
的指示	-8396
的气息	-8397
的类型	-8398
看不起	-8399
看看吗	-8400
看这个	-8401
真厉害	-8402
继承了	-8403
美味的	-8404
美好的	-8405
自以为	-8406
西教练	-8407
要来了	-8408
还给你	-8409
那可是	-8410
都知道	-8411
▁不行了	-8412
▁也可以	-8413
▁你好像	-8414
▁我想想	-8415
▁我是来	-8416
▁所有的	-8417
▁既然是	-8418
▁有很多	-8419
▁毕竟是	-8420
▁没必要	-8421
不敢相信	-8422
乱七八糟	-8423
从来没有	-8424
出了什么	-8425
刚刚开始	-8426
在想什么	-8427
在这里的	-8428
学生会长	-8429
怎么这么	-8430
是什么啊	-8431
根本没有	-8432
的人是我	-8433
目前为止	-8434
结束了吗	-8435
自作主张	-8436
艾尔利克	-8437
这样的事	-8438
饶了我吧	-8439
▁你干什么	-8440
▁你还记得	-8441
▁是这样啊	-8442
▁真是让人	-8443
▁请多关照	-8444
是为了什么	-8445
自己的力量	-8446
自己的身体	-8447
▁那么接下来	-8448
▁发生什么事了	-8449
▁亲	-8450
▁帕	-8451
▁抱	-8452
▁洗	-8453
▁笑	-8454
▁苍	-8455
上方	-8456
不休	-8457
不愿	-8458
买卖	-8459
交谈	-8460
今日	-8461
伊丹	-8462
你再	-8463
侮辱	-8464
俘虏	-8465
先把	-8466
再度	-8467
冬天	-8468
决胜	-8469
出人	-8470
切嗣	-8471
别扭	-8472
剧情	-8473
剪刀	-8474
千鸟	-8475
又在	-8476
古诺	-8477
台的	-8478
叶子	-8479
吉他	-8480
同事	-8481
听从	-8482
吵了	-8483
吾等	-8484
团汤	-8485
在乎	-8486
地在	-8487
大门	-8488
夫妻	-8489
小啊	-8490
小白	-8491
属下	-8492
巧妙	-8493
差了	-8494
幕府	-8495
开个	-8496
归于	-8497
待着	-8498
心思	-8499
忠诚	-8500
怎麽	-8501
怪人	-8502
惊人	-8503
懂吗	-8504
扰乱	-8505
招数	-8506
指甲	-8507
换成	-8508
据说	-8509
探索	-8510
搞错	-8511
放我	-8512
无谓	-8513
明治	-8514
是用	-8515
暗中	-8516
本能	-8517
松懈	-8518
构成	-8519
果实	-8520
樱花	-8521
每年	-8522
沸腾	-8523
泄露	-8524
滋味	-8525
点分	-8526
烦人	-8527
爱花	-8528
玩弄	-8529
玩耍	-8530
田妹	-8531
留言	-8532
的店	-8533
的重	-8534
相亲	-8535
相应	-8536
相连	-8537
真有	-8538
瞒着	-8539
种类	-8540
穿了	-8541
童话	-8542
粉碎	-8543
粮食	-8544
组队	-8545
绝佳	-8546
缺乏	-8547
脑海	-8548
脾气	-8549
花井	-8550
若无	-8551
若是	-8552
街道	-8553
裙子	-8554
要塞	-8555
解了	-8556
货物	-8557
走运	-8558
跑来	-8559
转学	-8560
辆车	-8561
达尔	-8562
运作	-8563
还差	-8564
这类	-8565
这裏	-8566
迦特	-8567
遭受	-8568
那次	-8569
部员	-8570
都快	-8571
除掉	-8572
雷特	-8573
鱼的	-8574
▁也对	-8575
▁也要	-8576
▁交给	-8577
▁人生	-8578
▁但却	-8579
▁作战	-8580
▁像我	-8581
▁到此	-8582
▁努力	-8583
▁好冷	-8584
▁干脆	-8585
▁快逃	-8586
▁我却	-8587
▁是要	-8588
▁让人	-8589
▁这也	-8590
▁陛下	-8591
也不要	-8592
体育馆	-8593
内角球	-8594
再一次	-8595
凡多姆	-8596
凭什么	-8597
别在意	-8598
动物园	-8599
去死吧	-8600
土耳基	-8601
复活了	-8602
如果不	-8603
实现了	-8604
家里蹲	-8605
小姑娘	-8606
居然会	-8607
希望你	-8608
希望能	-8609
年级的	-8610
很适合	-8611
快到了	-8612
拿到了	-8613
故意的	-8614
比起来	-8615
没错吧	-8616
漫画家	-8617
玩游戏	-8618
班主任	-8619
的人的	-8620
的感情	-8621
的生命	-8622
的痕迹	-8623
的目的	-8624
的真相	-8625
的那天	-8626
相信你	-8627
破坏掉	-8628
算了吧	-8629
给我吧	-8630
缇特斯	-8631
而已吧	-8632
胆小鬼	-8633
舞台上	-8634
见死不	-8635
设计的	-8636
说实话	-8637
还有点	-8638
这只是	-8639
逃跑了	-8640
那样做	-8641
里巴巴	-8642
隐藏着	-8643
▁但是她	-8644
▁到底是	-8645
▁我也去	-8646
▁我们走	-8647
▁我感觉	-8648
▁所以他	-8649
▁真好啊	-8650
▁考虑到	-8651
▁虽然很	-8652
▁谢谢您	-8653
▁那是我	-8654
▁那边的	-8655
一个人的	-8656
一定可以	-8657
也有很多	-8658
你在哪里	-8659
侍女小姐	-8660
只是为了	-8661
在一起的	-8662
就行了吧	-8663
已经死了	-8664
彼此彼此	-8665
无法理解	-8666
离家出走	-8667
话说回来	-8668
这个机会	-8669
▁一点都不	-8670
▁企鹅先生	-8671
▁好厉害啊	-8672
▁就算这样	-8673
▁怎么了你	-8674
▁虽然有点	-8675
▁这是为了	-8676
▁除此之外	-8677
妖精的尾巴	-8678
我也不知道	-8679
的世界遗产	-8680
▁我绝对不会	-8681
▁这怎么可能	-8682
什么都不知道	-8683
做好心理准备	-8684
发生什么事了吗	-8685
▁且	-8686
▁凛	-8687
▁抢	-8688
▁收	-8689
▁滚	-8690
▁肉	-8691
▁诺	-8692
▁重	-8693
▁静	-8694
万分	-8695
下车	-8696
不也	-8697
不算	-8698
专用	-8699
两只	-8700
中尉	-8701
之乡	-8702
之神	-8703
也别	-8704
书店	-8705
了啦	-8706
了结	-8707
作出	-8708
保镖	-8709
傀儡	-8710
公分	-8711
公开	-8712
兹玛	-8713
内侧	-8714
内衣	-8715
军人	-8716
出卖	-8717
出院	-8718
副本	-8719
半天	-8720
去向	-8721
及川	-8722
反射	-8723
口的	-8724
可贺	-8725
台阶	-8726
合同	-8727
合我	-8728
后方	-8729
后腿	-8730
哪种	-8731
国外	-8732
在和	-8733
坦率	-8734
塞尔	-8735
多加	-8736
多啊	-8737
多多	-8738
大闹	-8739
小鸟	-8740
少数	-8741
就让	-8742
工程	-8743
带我	-8744
延伸	-8745
式的	-8746
必将	-8747
必然	-8748
懂得	-8749
扇门	-8750
拿你	-8751
撤离	-8752
放进	-8753
整整	-8754
显眼	-8755
更换	-8756
最先	-8757
朱里	-8758
机构	-8759
树木	-8760
格兰	-8761
格农	-8762
梅斯	-8763
每个	-8764
比亚	-8765
沟通	-8766
洞口	-8767
流淌	-8768
爆发	-8769
爱上	-8770
王者	-8771
的开	-8772
的路	-8773
的门	-8774
真凶	-8775
睡吧	-8776
石灰	-8777
祖母	-8778
私人	-8779
穿的	-8780
纠缠	-8781
织田	-8782
结晶	-8783
舌头	-8784
船上	-8785
艺人	-8786
苦恼	-8787
草莓	-8788
荣耀	-8789
说着	-8790
质量	-8791
贩卖	-8792
身子	-8793
运行	-8794
还请	-8795
这不	-8796
这段	-8797
追查	-8798
部位	-8799
金的	-8800
闭上	-8801
阿八	-8802
降低	-8803
雨水	-8804
零食	-8805
预约	-8806
饶恕	-8807
首相	-8808
马匹	-8809
高达	-8810
鲁邦	-8811
▁与此	-8812
▁两位	-8813
▁但愿	-8814
▁厉害	-8815
▁失去	-8816
▁尤其	-8817
▁快把	-8818
▁我吗	-8819
▁打倒	-8820
▁水口	-8821
▁没能	-8822
▁说起	-8823
▁谁会	-8824
▁谢了	-8825
▁还剩	-8826
▁这和	-8827
▁这张	-8828
▁骗人	-8829
一直很	-8830
一起吃	-8831
不错吧	-8832
为自己	-8833
了我会	-8834
亚路嘉	-8835
你也要	-8836
你要是	-8837
公主的	-8838
出来吗	-8839
利用了	-8840
制作的	-8841
受伤吧	-8842
受够了	-8843
和那个	-8844
喜可贺	-8845
在那个	-8846
好好吃	-8847
就觉得	-8848
必须得	-8849
忆如潮	-8850
快走吧	-8851
我的吗	-8852
所在地	-8853
拔刀斋	-8854
是可以	-8855
最棒的	-8856
有一些	-8857
有件事	-8858
有办法	-8859
来了吗	-8860
来找我	-8861
死了吗	-8862
比赛吧	-8863
现在在	-8864
的人物	-8865
的方向	-8866
的预感	-8867
真的能	-8868
算不上	-8869
终于要	-8870
肯定能	-8871
臭小鬼	-8872
说话啊	-8873
调酒师	-8874
豆团汤	-8875
跟他们	-8876
轻易地	-8877
这些事	-8878
这样就	-8879
那一天	-8880
那么好	-8881
马莱的	-8882
麦格农	-8883
▁事实上	-8884
▁什么叫	-8885
▁但是那	-8886
▁别这么	-8887
▁好好吃	-8888
▁小时候	-8889
▁并没有	-8890
▁怎么啦	-8891
▁我给你	-8892
▁或者说	-8893
▁所有人	-8894
▁而且我	-8895
▁那我也	-8896
一点都没	-8897
不如说是	-8898
也是这样	-8899
什么事了	-8900
做些什么	-8901
做点什么	-8902
再说一遍	-8903
好好相处	-8904
对你来说	-8905
我们这边	-8906
我说的话	-8907
把自己的	-8908
是这样的	-8909
有什么好	-8910
根本就不	-8911
爸爸妈妈	-8912
现在正在	-8913
的东西吗	-8914
看到了吗	-8915
见死不救	-8916
齐心协力	-8917
▁你该不会	-8918
▁另一方面	-8919
▁因为我是	-8920
▁我才不要	-8921
▁请等一下	-8922
▁那为什么	-8923
▁那么我们	-8924
加入调查军团	-8925
到底发生了什么	-8926
▁井	-8927
▁元	-8928
▁嘘	-8929
▁夹	-8930
▁站	-8931
▁紫	-8932
▁绝	-8933
▁钱	-8934
一味	-8935
三十	-8936
不吃	-8937
不忍	-8938
丛林	-8939
东北	-8940
丢人	-8941
中最	-8942
为师	-8943
交代	-8944
从头	-8945
以内	-8946
传到	-8947
传染	-8948
体型	-8949
使徒	-8950
做事	-8951
偷袭	-8952
傲慢	-8953
公安	-8954
助手	-8955
半年	-8956
占领	-8957
卡拉	-8958
又不	-8959
反倒	-8960
发抖	-8961
发掘	-8962
只好	-8963
可乐	-8964
同班	-8965
唯独	-8966
喝的	-8967
嘴里	-8968
在前	-8969
地里	-8970
坐着	-8971
太小	-8972
她吗	-8973
对面	-8974
小队	-8975
尔特	-8976
工夫	-8977
布利	-8978
希斯	-8979
并肩	-8980
开战	-8981
异的	-8982
怪的	-8983
悲惨	-8984
成人	-8985
扫描	-8986
护身	-8987
招了	-8988
拥抱	-8989
排名	-8990
救救	-8991
无辜	-8992
日语	-8993
时我	-8994
替代	-8995
月光	-8996
未婚	-8997
果汁	-8998
梓喵	-8999
此处	-9000
此时	-9001
残杀	-9002
毛病	-9003
氧气	-9004
没来	-9005
津子	-9006
流血	-9007
海威	-9008
温瑟	-9009
炫耀	-9010
牙齿	-9011
牢骚	-9012
特征	-9013
特拉	-9014
狮子	-9015
玷污	-9016
生产	-9017
用手	-9018
甩了	-9019
电子	-9020
电池	-9021
电磁	-9022
百合	-9023
百年	-9024
的他	-9025
的脚	-9026
石板	-9027
祖国	-9028
积累	-9029
织斑	-9030
终止	-9031
羊驼	-9032
考验	-9033
能将	-9034
至极	-9035
舞蹈	-9036
蔻蔻	-9037
行种	-9038
见证	-9039
触手	-9040
请客	-9041
贡献	-9042
赐予	-9043
践踏	-9044
退后	-9045
送我	-9046
造型	-9047
遵从	-9048
那副	-9049
非得	-9050
飞鸟	-9051
食堂	-9052
食欲	-9053
高涨	-9054
麻痹	-9055
▁下面	-9056
▁中央	-9057
▁也没	-9058
▁会被	-9059
▁但她	-9060
▁你再	-9061
▁前进	-9062
▁即将	-9063
▁可我	-9064
▁哎哟	-9065
▁回来	-9066
▁外婆	-9067
▁外面	-9068
▁多么	-9069
▁大吉	-9070
▁大姐	-9071
▁好险	-9072
▁宗介	-9073
▁干掉	-9074
▁快来	-9075
▁打算	-9076
▁放学	-9077
▁早就	-9078
▁是从	-9079
▁漂亮	-9080
▁竟敢	-9081
▁赢了	-9082
▁这对	-9083
▁这把	-9084
一点吧	-9085
三个月	-9086
东西了	-9087
东西的	-9088
两人的	-9089
之前就	-9090
也应该	-9091
事件的	-9092
今后的	-9093
他还是	-9094
件好事	-9095
会有人	-9096
你不会	-9097
你好像	-9098
你的事	-9099
便利店	-9100
动不动	-9101
去东京	-9102
发什么	-9103
发出的	-9104
吃饭了	-9105
听不到	-9106
周围的	-9107
哥哥的	-9108
在这座	-9109
坂同学	-9110
够了吧	-9111
好久没	-9112
工作吗	-9113
干得好	-9114
很温柔	-9115
想要的	-9116
我必须	-9117
才行啊	-9118
拥有的	-9119
文化节	-9120
有一点	-9121
有一种	-9122
束手无	-9123
来这边	-9124
没时间	-9125
特莉休	-9126
生活的	-9127
的一个	-9128
的一面	-9129
的人才	-9130
的眼睛	-9131
的觉悟	-9132
的责任	-9133
的那种	-9134
的队伍	-9135
相信我	-9136
篮板球	-9137
红色的	-9138
经历过	-9139
给自己	-9140
菲布理	-9141
藻奈美	-9142
袭击了	-9143
让别人	-9144
轻音部	-9145
过一次	-9146
过来啊	-9147
部先生	-9148
长大的	-9149
非常好	-9150
马莱人	-9151
▁不是说	-9152
▁不过她	-9153
▁也不会	-9154
▁你认为	-9155
▁即使是	-9156
▁只要我	-9157
▁好可爱	-9158
▁就像是	-9159
▁很抱歉	-9160
▁我有个	-9161
▁抱歉啊	-9162
▁晚上好	-9163
▁看到了	-9164
▁科斯摩	-9165
▁而且你	-9166
▁要是你	-9167
▁该死的	-9168
▁这也太	-9169
▁这只是	-9170
▁那你们	-9171
▁马上就	-9172
也是因为	-9173
什么情况	-9174
伊修瓦尔	-9175
做出来的	-9176
再来一次	-9177
和我一样	-9178
回去了吗	-9179
大家都在	-9180
太厉害了	-9181
太过分了	-9182
完成任务	-9183
已经不是	-9184
打个招呼	-9185
是我们的	-9186
最后一刻	-9187
根本不是	-9188
的地方吗	-9189
的话就能	-9190
自我介绍	-9191
这种家伙	-9192
马上就会	-9193
▁在那之后	-9194
▁怎么会有	-9195
▁我并没有	-9196
▁我第一次	-9197
▁抱歉抱歉	-9198
▁有什么事	-9199
▁没事没事	-9200
▁这个世界	-9201
▁那个男人	-9202
外面的世界	-9203
已经结束了	-9204
承太郎先生	-9205
究竟是什么	-9206
▁『	-9207
▁威	-9208
▁弹	-9209
▁悟	-9210
▁改	-9211
▁杀	-9212
▁河	-9213
▁解	-9214
▁轻	-9215
▁迪	-9216
▁选	-9217
一万	-9218
一口	-9219
一日	-9220
三振	-9221
上午	-9222
不时	-9223
不理	-9224
东方	-9225
丝毫	-9226
乐观	-9227
二世	-9228
代代	-9229
以下	-9230
以轻	-9231
会对	-9232
伯特	-9233
何处	-9234
你家	-9235
侦察	-9236
做吗	-9237
偷走	-9238
傻话	-9239
几岁	-9240
分头	-9241
判定	-9242
化学	-9243
发光	-9244
变装	-9245
名是	-9246
后果	-9247
君的	-9248
呼唤	-9249
命了	-9250
和人	-9251
咒语	-9252
团结	-9253
地形	-9254
堵住	-9255
夙愿	-9256
太不	-9257
太卷	-9258
太大	-9259
头盔	-9260
她就	-9261
孙女	-9262
学者	-9263
宝贵	-9264
室的	-9265
尊重	-9266
尔德	-9267
局面	-9268
干燥	-9269
弄得	-9270
心上	-9271
忠告	-9272
念头	-9273
怀着	-9274
急着	-9275
意愿	-9276
我得	-9277
我我	-9278
战车	-9279
戴上	-9280
所言	-9281
才更	-9282
把人	-9283
排队	-9284
搬运	-9285
整备	-9286
无线	-9287
早餐	-9288
景象	-9289
暴风	-9290
曾是	-9291
有在	-9292
本质	-9293
村民	-9294
村落	-9295
来历	-9296
次了	-9297
死在	-9298
殆尽	-9299
比分	-9300
比特	-9301
比这	-9302
水准	-9303
水果	-9304
永恒	-9305
沮丧	-9306
海上	-9307
海底	-9308
海洋	-9309
淑女	-9310
深深	-9311
游客	-9312
爱好	-9313
物体	-9314
牵制	-9315
狗狗	-9316
猫咪	-9317
班了	-9318
田沼	-9319
男女	-9320
留有	-9321
疲劳	-9322
登记	-9323
的两	-9324
的份	-9325
的血	-9326
相良	-9327
看清	-9328
真岛	-9329
着手	-9330
短暂	-9331
碎了	-9332
礼服	-9333
神话	-9334
禁忌	-9335
端的	-9336
等人	-9337
系的	-9338
紧要	-9339
而死	-9340
苏醒	-9341
苹果	-9342
草原	-9343
葬仪	-9344
螺旋	-9345
街头	-9346
被关	-9347
言之	-9348
说些	-9349
谈判	-9350
败北	-9351
赢得	-9352
走啦	-9353
越多	-9354
路吧	-9355
转校	-9356
运河	-9357
远点	-9358
迷失	-9359
送死	-9360
遍了	-9361
都得	-9362
镜头	-9363
领主	-9364
▁乖乖	-9365
▁他会	-9366
▁你被	-9367
▁反而	-9368
▁嗟嗟	-9369
▁坂本	-9370
▁大臣	-9371
▁女人	-9372
▁就当	-9373
▁师父	-9374
▁明年	-9375
▁是他	-9376
▁渐渐	-9377
▁犯人	-9378
▁老公	-9379
▁芽芽	-9380
▁要去	-9381
▁要我	-9382
▁还用	-9383
▁这回	-9384
▁进了	-9385
▁进行	-9386
▁那只	-9387
一句话	-9388
不也是	-9389
不会被	-9390
了一切	-9391
了出来	-9392
什么也	-9393
从刚才	-9394
前辈们	-9395
又来了	-9396
可没有	-9397
听见了	-9398
和别人	-9399
回来吗	-9400
好吃啊	-9401
如何呢	-9402
客人的	-9403
就是说	-9404
居然是	-9405
帮帮我	-9406
开动了	-9407
快给我	-9408
总感觉	-9409
我说的	-9410
战斗了	-9411
打扰了	-9412
把它们	-9413
掉以轻	-9414
改变的	-9415
文化祭	-9416
是绝对	-9417
有点像	-9418
本大爷	-9419
来决定	-9420
来的吗	-9421
极限了	-9422
点东西	-9423
男子汉	-9424
男孩子	-9425
的动作	-9426
的重要	-9427
神奈川	-9428
竟然是	-9429
第二个	-9430
自己了	-9431
诞生的	-9432
说清楚	-9433
说话的	-9434
走了吗	-9435
这里了	-9436
进入了	-9437
选拔赛	-9438
那么大	-9439
那回事	-9440
里的人	-9441
▁一切都	-9442
▁他可是	-9443
▁你不要	-9444
▁可可是	-9445
▁可能是	-9446
▁哎呀呀	-9447
▁对我们	-9448
▁就只有	-9449
▁我从来	-9450
▁我是在	-9451
▁我说的	-9452
▁我这就	-9453
▁所以想	-9454
▁搞不好	-9455
▁算是吧	-9456
▁要是有	-9457
▁让我来	-9458
▁这真是	-9459
做好准备	-9460
古诺修塔	-9461
告诉我吧	-9462
圣杯战争	-9463
就由我来	-9464
怎样才能	-9465
恐怖分子	-9466
我们两个	-9467
扯上关系	-9468
是不行的	-9469
束手无策	-9470
比麦格农	-9471
没什么好	-9472
没关系的	-9473
的孩子们	-9474
的话应该	-9475
真的假的	-9476
称霸全国	-9477
算什么啊	-9478
那个孩子	-9479
那种地方	-9480
▁不要不要	-9481
▁怎么这样	-9482
▁我一个人	-9483
▁我可不会	-9484
▁我是不是	-9485
▁我本以为	-9486
▁绝对不会	-9487
▁绝对不能	-9488
▁那两个人	-9489
▁那么我就	-9490
不在场证明	-9491
凡多姆海威	-9492
拜托你们了	-9493
真是对不起	-9494
这是怎么回事	-9495
▁取	-9496
▁咲	-9497
▁墙	-9498
▁敢	-9499
▁智	-9500
▁柯	-9501
▁歌	-9502
▁泰	-9503
▁脸	-9504
▁跳	-9505
一共	-9506
一带	-9507
一晚	-9508
一颗	-9509
万人	-9510
万岁	-9511
不掉	-9512
不点	-9513
严肃	-9514
为好	-9515
主编	-9516
之道	-9517
亲密	-9518
人心	-9519
伦理	-9520
伸出	-9521
佐和	-9522
体温	-9523
倒闭	-9524
克拉	-9525
克的	-9526
克雷	-9527
养育	-9528
决一	-9529
冷淡	-9530
出赛	-9531
击溃	-9532
分离	-9533
分身	-9534
初春	-9535
到吗	-9536
动机	-9537
十九	-9538
南瓜	-9539
厘米	-9540
原则	-9541
去把	-9542
去死	-9543
发售	-9544
口香	-9545
史上	-9546
名取	-9547
向上	-9548
否认	-9549
听得	-9550
哪位	-9551
嘴巴	-9552
回礼	-9553
围巾	-9554
圣域	-9555
在她	-9556
坐标	-9557
大幅	-9558
大蛇	-9559
头部	-9560
奈何	-9561
奔跑	-9562
好意	-9563
学的	-9564
宝藏	-9565
对吗	-9566
尊严	-9567
小屋	-9568
就叫	-9569
岸边	-9570
布丁	-9571
平凡	-9572
年代	-9573
庆幸	-9574
弟子	-9575
强制	-9576
御子	-9577
恶意	-9578
患者	-9579
想出	-9580
成是	-9581
我方	-9582
投了	-9583
抢先	-9584
招牌	-9585
挂了	-9586
捉迷	-9587
推进	-9588
敏感	-9589
救命	-9590
救药	-9591
救赎	-9592
教徒	-9593
散了	-9594
早的	-9595
晋级	-9596
普拉	-9597
暖和	-9598
最快	-9599
木田	-9600
案的	-9601
比企	-9602
水中	-9603
活了	-9604
温度	-9605
游击	-9606
灾难	-9607
爱着	-9608
物理	-9609
献上	-9610
理事	-9611
琉璃	-9612
琪亚	-9613
疑似	-9614
的美	-9615
的长	-9616
睡眠	-9617
种市	-9618
秩序	-9619
站上	-9620
箱里	-9621
系列	-9622
维尔	-9623
胜任	-9624
胡闹	-9625
能用	-9626
自豪	-9627
花的	-9628
菅原	-9629
落后	-9630
虚无	-9631
表明	-9632
西亚	-9633
西门	-9634
警报	-9635
试探	-9636
贵干	-9637
走吗	-9638
踏上	-9639
这件	-9640
远离	-9641
送回	-9642
逃到	-9643
速球	-9644
那人	-9645
量的	-9646
长期	-9647
门了	-9648
随之	-9649
隔离	-9650
集结	-9651
面上	-9652
韩吉	-9653
预备	-9654
领土	-9655
香织	-9656
驱使	-9657
骚乱	-9658
龙的	-9659
▁一次	-9660
▁不你	-9661
▁不断	-9662
▁也会	-9663
▁会长	-9664
▁后面	-9665
▁城惠	-9666
▁天气	-9667
▁害怕	-9668
▁幸好	-9669
▁我刚	-9670
▁拿着	-9671
▁整个	-9672
▁新的	-9673
▁杀了	-9674
▁毫无	-9675
▁没人	-9676
▁泉水	-9677
▁紧急	-9678
▁花井	-9679
▁这事	-9680
▁连续	-9681
▁难以	-9682
之人的	-9683
也不好	-9684
也是有	-9685
乱来了	-9686
以来的	-9687
会变得	-9688
你一直	-9689
你就会	-9690
儿子的	-9691
加入了	-9692
卡拉拉	-9693
去那边	-9694
可不好	-9695
叶卡派	-9696
各地的	-9697
向我们	-9698
和我的	-9699
和我说	-9700
在我家	-9701
在战斗	-9702
在这裏	-9703
大吃一	-9704
妈妈的	-9705
守护着	-9706
小小的	-9707
就应该	-9708
带我去	-9709
带过来	-9710
开心吗	-9711
异能者	-9712
心中的	-9713
抛弃了	-9714
捉迷藏	-9715
摄像机	-9716
朋友们	-9717
朋友啊	-9718
正因为	-9719
没兴趣	-9720
满足了	-9721
的命运	-9722
的城市	-9723
的性格	-9724
的时代	-9725
的环境	-9726
的身份	-9727
看什么	-9728
看穿了	-9729
程度的	-9730
练习吧	-9731
自己去	-9732
范围内	-9733
虽然是	-9734
要成为	-9735
见过的	-9736
见面的	-9737
转移到	-9738
这样了	-9739
进去的	-9740
迷路了	-9741
那两个	-9742
里没有	-9743
错了吗	-9744
▁不如说	-9745
▁不就是	-9746
▁不是啦	-9747
▁不能再	-9748
▁不觉得	-9749
▁你们就	-9750
▁你们都	-9751
▁你只要	-9752
▁你还真	-9753
▁加油啊	-9754
▁实在是	-9755
▁干什么	-9756
▁快住手	-9757
▁快给我	-9758
▁我们都	-9759
▁我和你	-9760
▁我在想	-9761
▁我并不	-9762
▁我还想	-9763
▁是这样	-9764
▁没错吧	-9765
▁然后就	-9766
▁然后我	-9767
▁那样的	-9768
▁那真是	-9769
不一样了	-9770
了我一跳	-9771
住在这里	-9772
你不觉得	-9773
先告辞了	-9774
到处都是	-9775
又是什么	-9776
发生的事	-9777
可以说是	-9778
在哪里啊	-9779
多管闲事	-9780
就知道了	-9781
帮大忙了	-9782
怎么样啊	-9783
拼尽全力	-9784
是因为我	-9785
灌篮高手	-9786
犯罪系数	-9787
独自一人	-9788
现实世界	-9789
用自己的	-9790
离开这个	-9791
自己喜欢	-9792
都是因为	-9793
▁不过如果	-9794
▁什么什么	-9795
▁你好我是	-9796
▁克里斯塔	-9797
▁到此为止	-9798
▁啊对不起	-9799
▁我最讨厌	-9800
▁我绝不会	-9801
▁我说你们	-9802
▁我都说了	-9803
▁所以我就	-9804
▁没没什么	-9805
▁请多指教	-9806
▁贝尔托特	-9807
▁这个国家	-9808
▁这算什么	-9809
▁为什么我会	-9810
▁发生了什么	-9811
你在说什么啊	-9812
▁书	-9813
▁依	-9814
▁副	-9815
▁包	-9816
▁基	-9817
▁彩	-9818
▁恶	-9819
▁森	-9820
▁泉	-9821
▁竹	-9822
▁船	-9823
▁莉	-9824
▁薰	-9825
一举	-9826
一头	-9827
一方	-9828
一笔	-9829
一等	-9830
三周	-9831
上也	-9832
不变	-9833
不完	-9834
书的	-9835
事吧	-9836
交出	-9837
人就	-9838
他还	-9839
付钱	-9840
令咒	-9841
众人	-9842
优雅	-9843
会再	-9844
传承	-9845
伯父	-9846
作者	-9847
侍奉	-9848
借用	-9849
关了	-9850
冲动	-9851
凛蝶	-9852
击出	-9853
分裂	-9854
利夏	-9855
别墅	-9856
别太	-9857
制定	-9858
剥夺	-9859
功能	-9860
劲啊	-9861
千秋	-9862
厄特	-9863
变形	-9864
口头	-9865
叶山	-9866
司机	-9867
吃得	-9868
后半	-9869
喉咙	-9870
喝吧	-9871
器官	-9872
在人	-9873
声明	-9874
备用	-9875
好大	-9876
它了	-9877
安宁	-9878
室里	-9879
密斯	-9880
寺庙	-9881
小透	-9882
尔摩	-9883
尴尬	-9884
屁孩	-9885
巡逻	-9886
巧合	-9887
布置	-9888
广场	-9889
开着	-9890
弱者	-9891
待遇	-9892
忧郁	-9893
想做	-9894
打飞	-9895
托瓦	-9896
护士	-9897
报应	-9898
掌控	-9899
措施	-9900
援助	-9901
搬家	-9902
搭讪	-9903
携带	-9904
放晴	-9905
救援	-9906
日代	-9907
普夫	-9908
景观	-9909
晴女	-9910
更快	-9911
有用	-9912
有谁	-9913
树的	-9914
检测	-9915
正选	-9916
死于	-9917
死人	-9918
毒品	-9919
永井	-9920
注目	-9921
泳池	-9922
泳装	-9923
活该	-9924
漫长	-9925
炒面	-9926
特罗	-9927
狩生	-9928
猜拳	-9929
玛雅	-9930
现金	-9931
疼疼	-9932
百万	-9933
的战	-9934
瞧瞧	-9935
祈愿	-9936
祭祀	-9937
称之	-9938
移植	-9939
稻实	-9940
笑脸	-9941
绝境	-9942
缺点	-9943
胸口	-9944
脊髓	-9945
自觉	-9946
芽衣	-9947
融化	-9948
血缘	-9949
要不	-9950
要石	-9951
解雇	-9952
警卫	-9953
认错	-9954
证人	-9955
话想	-9956
课长	-9957
谜团	-9958
走出	-9959
跟人	-9960
辅导	-9961
过着	-9962
运用	-9963
退学	-9964
退缩	-9965
通讯	-9966
造的	-9967
那家	-9968
金币	-9969
闪闪	-9970
防护	-9971
降落	-9972
随心	-9973
难民	-9974
非洲	-9975
面麻	-9976
革命	-9977
预计	-9978
领地	-9979
风头	-9980
饭菜	-9981
鲸鱼	-9982
▁「」	-9983
▁不太	-9984
▁不这	-9985
▁倒是	-9986
▁几乎	-9987
▁前面	-9988
▁剩下	-9989
▁力量	-9990
▁司令	-9991
▁啊呀	-9992
▁啊嗯	-9993
▁国王	-9994
▁就要	-9995
▁恋爱	-9996
▁我曾	-9997
▁放马	-9998
▁是想	-9999
▁晴子	-10000
▁海南	-10001
▁白痴	-10002
▁老夫	-10003
▁花道	-10004
▁辛苦	-10005
▁铃鹿	-10006
▁阿姨	-10007
一般人	-10008
一部分	-10009
下去吧	-10010
不停地	-10011
不打算	-10012
与我们	-10013
也不行	-10014
人造人	-10015
他就是	-10016
他是个	-10017
但还是	-10018
冰淇淋	-10019
口香糖	-10020
句话说	-10021
可以吧	-10022
四个人	-10023
在交往	-10024
地上的	-10025
地球的	-10026
地生活	-10027
城市的	-10028
大人您	-10029
大规模	-10030
奇行种	-10031
好像在	-10032
存在于	-10033
完了吗	-10034
家里的	-10035
工作吧	-10036
很不错	-10037
很久了	-10038
很抱歉	-10039
忘了吗	-10040
总决赛	-10041
惊人的	-10042
想到了	-10043
意义的	-10044
我们啊	-10045
我的心	-10046
打棒球	-10047
提出的	-10048
是不能	-10049
有两个	-10050
有这么	-10051
比不上	-10052
没想过	-10053
泽先生	-10054
狠狠地	-10055
瑟拉拉	-10056
的女性	-10057
的游戏	-10058
知道啊	-10059
第一天	-10060
练习了	-10061
经历了	-10062
要我们	-10063
说过了	-10064
请让我	-10065
这些了	-10066
这边来	-10067
那么说	-10068
那样吗	-10069
都不想	-10070
难对付	-10071
顺利吗	-10072
首曲子	-10073
高兴的	-10074
▁不那个	-10075
▁但只要	-10076
▁你以前	-10077
▁你们也	-10078
▁只是我	-10079
▁听说是	-10080
▁因为她	-10081
▁大猩猩	-10082
▁就不能	-10083
▁我也有	-10084
▁我其实	-10085
▁才不会	-10086
▁早知道	-10087
▁有可能	-10088
▁每个人	-10089
▁然后是	-10090
▁真厉害	-10091
▁真遗憾	-10092
▁要好好	-10093
▁要是被	-10094
▁让他们	-10095
▁请让我	-10096
▁还不是	-10097
不在这里	-10098
不太清楚	-10099
了自己的	-10100
什么了吗	-10101
刚才那个	-10102
因为这个	-10103
国家公园	-10104
在那之前	-10105
掉以轻心	-10106
无可救药	-10107
是一样的	-10108
是真的吗	-10109
最后一击	-10110
来的时候	-10111
欢迎回来	-10112
死在这里	-10113
没有必要	-10114
猎人考试	-10115
的话就是	-10116
说些什么	-10117
▁不过现在	-10118
▁与其说是	-10119
▁为什么你	-10120
▁从今天起	-10121
▁你一定要	-10122
▁你们这些	-10123
▁你们这群	-10124
▁别这么说	-10125
▁差不多该	-10126
▁干得漂亮	-10127
▁我不明白	-10128
▁我也觉得	-10129
▁我们不是	-10130
▁我先走了	-10131
▁所以我要	-10132
▁所以才会	-10133
▁现在的我	-10134
▁等等等等	-10135
▁简直就是	-10136
▁给我站住	-10137
▁这可不行	-10138
▁那个家伙	-10139
不可思议的	-10140
不是这样的	-10141
到底是怎么	-10142
希干希纳区	-10143
▁别开玩笑了	-10144
▁好久不见了	-10145
▁有什么关系	-10146
▁这就是你的	-10147
▁保	-10148
▁怕	-10149
▁愿	-10150
▁朕	-10151
▁查	-10152
▁渚	-10153
▁纱	-10154
▁纳	-10155
▁荣	-10156
▁间	-10157
▁魔	-10158
一碗	-10159
一身	-10160
上尉	-10161
不尽	-10162
不相	-10163
不绝	-10164
专注	-10165
两句	-10166
中意	-10167
丰收	-10168
为之	-10169
举手	-10170
久违	-10171
之手	-10172
乱跑	-10173
亮了	-10174
人情	-10175
仓持	-10176
他被	-10177
企划	-10178
传送	-10179
住民	-10180
侦查	-10181
倒在	-10182
偿还	-10183
克罗	-10184
养的	-10185
出入	-10186
分辨	-10187
剧场	-10188
加藤	-10189
助理	-10190
化身	-10191
北海	-10192
却又	-10193
厌倦	-10194
厮杀	-10195
发烧	-10196
受损	-10197
古典	-10198
吓得	-10199
吵闹	-10200
和谁	-10201
咨询	-10202
因素	-10203
在一	-10204
堵上	-10205
大大	-10206
大师	-10207
好快	-10208
妳的	-10209
子和	-10210
孤立	-10211
它是	-10212
守备	-10213
安乐	-10214
实行	-10215
审判	-10216
寄托	-10217
将它	-10218
小猫	-10219
崩坏	-10220
废弃	-10221
康复	-10222
强力	-10223
强硬	-10224
当年	-10225
悔恨	-10226
我做	-10227
我最	-10228
我等	-10229
我而	-10230
所属	-10231
扩大	-10232
抚养	-10233
捕食	-10234
插手	-10235
攻势	-10236
救你	-10237
教导	-10238
散布	-10239
文章	-10240
斗争	-10241
断定	-10242
断的	-10243
断言	-10244
新兵	-10245
新年	-10246
晚点	-10247
暴走	-10248
服了	-10249
本该	-10250
机能	-10251
查明	-10252
次的	-10253
死路	-10254
毅力	-10255
气球	-10256
没准	-10257
波罗	-10258
流浪	-10259
混混	-10260
演艺	-10261
火车	-10262
烦躁	-10263
热烈	-10264
父王	-10265
牵扯	-10266
狭窄	-10267
狼狈	-10268
献给	-10269
现出	-10270
班牙	-10271
甜食	-10272
病房	-10273
白了	-10274
的正	-10275
监督	-10276
真理	-10277
真田	-10278
硬要	-10279
神乐	-10280
粗暴	-10281
精准	-10282
素材	-10283
绿色	-10284
缝隙	-10285
罪行	-10286
老虎	-10287
而出	-10288
胆小	-10289
自在	-10290
补偿	-10291
要上	-10292
许愿	-10293
识别	-10294
请教	-10295
谁呢	-10296
贪婪	-10297
超乎	-10298
越过	-10299
身处	-10300
辜负	-10301
达龙	-10302
这招	-10303
远啊	-10304
远坂	-10305
追平	-10306
透露	-10307
钢铁	-10308
钱了	-10309
阿鲁	-10310
除妖	-10311
陨石	-10312
非法	-10313
预知	-10314
馆的	-10315
驻扎	-10316
骷髅	-10317
黑之	-10318
黑帮	-10319
▁上校	-10320
▁不久	-10321
▁乔乔	-10322
▁令人	-10323
▁但那	-10324
▁假设	-10325
▁全都	-10326
▁凶手	-10327
▁叔叔	-10328
▁可爱	-10329
▁大约	-10330
▁女儿	-10331
▁好多	-10332
▁对哦	-10333
▁小雏	-10334
▁差点	-10335
▁快说	-10336
▁您是	-10337
▁想着	-10338
▁愚蠢	-10339
▁承蒙	-10340
▁把它	-10341
▁报告	-10342
▁晚饭	-10343
▁玛丽	-10344
▁石头	-10345
▁秘密	-10346
▁穿着	-10347
▁等你	-10348
▁经常	-10349
▁越是	-10350
▁还请	-10351
▁这人	-10352
▁这才	-10353
▁遵命	-10354
▁重新	-10355
一样吧	-10356
上同学	-10357
下一球	-10358
下来吧	-10359
不了你	-10360
不是有	-10361
东西吧	-10362
之后的	-10363
他们吧	-10364
你的脸	-10365
你的话	-10366
全军覆	-10367
再加上	-10368
创造的	-10369
即使是	-10370
去那里	-10371
反过来	-10372
只需要	-10373
可怕啊	-10374
合我意	-10375
四周跳	-10376
回想起	-10377
回来吧	-10378
处理掉	-10379
大笨蛋	-10380
如你所	-10381
威尼斯	-10382
存在着	-10383
孤儿院	-10384
完成的	-10385
对人类	-10386
就不要	-10387
就必须	-10388
就算你	-10389
就让我	-10390
布德尔	-10391
帮你们	-10392
待会儿	-10393
很好吗	-10394
很讨厌	-10395
必不可	-10396
我怎么	-10397
才好呢	-10398
才对吧	-10399
打出去	-10400
护身符	-10401
攻击的	-10402
旅行者	-10403
无处可	-10404
是如此	-10405
有兴趣	-10406
有精神	-10407
有那么	-10408
来的啊	-10409
某个人	-10410
死了我	-10411
死掉了	-10412
的大叔	-10413
的尸体	-10414
的气氛	-10415
的消息	-10416
的眼神	-10417
的确是	-10418
的精神	-10419
的线索	-10420
的那样	-10421
的魔法	-10422
真不错	-10423
着你的	-10424
短节目	-10425
笨蛋吗	-10426
结婚了	-10427
给你了	-10428
联系我	-10429
背负着	-10430
臭小子	-10431
解开了	-10432
认为是	-10433
说一句	-10434
赶上了	-10435
身边的	-10436
还好吧	-10437
这一次	-10438
这么晚	-10439
那种人	-10440
都说了	-10441
陷入了	-10442
麻烦的	-10443
黑色的	-10444
▁一直在	-10445
▁不会有	-10446
▁他们在	-10447
▁你一定	-10448
▁你还有	-10449
▁原来你	-10450
▁啊谢谢	-10451
▁喂我说	-10452
▁恭喜你	-10453
▁打得好	-10454
▁既然你	-10455
▁没有人	-10456
▁玛琪娅	-10457
▁站起来	-10458
▁让你们	-10459
▁趁现在	-10460
▁这两个	-10461
▁那个啊	-10462
▁那只是	-10463
▁都怪我	-10464
下去的话	-10465
你的身体	-10466
你还记得	-10467
再来一杯	-10468
单独行动	-10469
变得更强	-10470
大吃一惊	-10471
察觉到了	-10472
就行了吗	-10473
工作人员	-10474
怎么样呢	-10475
想起来了	-10476
我也可以	-10477
最后一个	-10478
有点奇怪	-10479
每天都在	-10480
毫不犹豫	-10481
现在这样	-10482
的事情了	-10483
的地方吧	-10484
的话还是	-10485
若无其事	-10486
这么多人	-10487
这么说的	-10488
这场比赛	-10489
这段时间	-10490
麻烦你了	-10491
▁但我还是	-10492
▁但是他们	-10493
▁到底是谁	-10494
▁哪里哪里	-10495
▁当然可以	-10496
▁我也不是	-10497
▁我们一起	-10498
▁无论何时	-10499
▁现在正在	-10500
▁调查兵团	-10501
不就好了吗	-10502
强大的力量	-10503
▁不是这样的	-10504
▁原来是这样	-10505
▁话是这么说	-10506
到底是什么人	-10507
▁对不起对不起	-10508
▁到底发生了什么	-10509
▁到底是怎么回事	-10510
▁业	-10511
▁令	-10512
▁优	-10513
▁俺	-10514
▁偷	-10515
▁凯	-10516
▁劳	-10517
▁吵	-10518
▁巨	-10519
▁澪	-10520
▁秒	-10521
▁索	-10522
▁蓝	-10523
▁轮	-10524
▁酒	-10525
▁鱼	-10526
一丝	-10527
一股	-10528
三郎	-10529
不便	-10530
为主	-10531
之岛	-10532
之情	-10533
之旅	-10534
之谜	-10535
事物	-10536
于是	-10537
亚伦	-10538
人格	-10539
伤痕	-10540
伦敦	-10541
佐间	-10542
你你	-10543
偏了	-10544
做点	-10545
傻子	-10546
共鸣	-10547
出没	-10548
出演	-10549
出血	-10550
匹尼	-10551
升级	-10552
变啊	-10553
叫来	-10554
台上	-10555
吃完	-10556
吉影	-10557
吉拉	-10558
吉良	-10559
和大	-10560
哪天	-10561
哭啊	-10562
地去	-10563
场合	-10564
坐上	-10565
坐下	-10566
埋伏	-10567
城门	-10568
墨西	-10569
够呛	-10570
天花	-10571
太平	-10572
妹子	-10573
宜野	-10574
实业	-10575
家畜	-10576
容器	-10577
封闭	-10578
尤弥	-10579
就太	-10580
▁	-10581
的	-10582
是	-10583
我	-10584
了	-10585
不	-10586
你	-10587
这	-10588
一	-10589
么	-10590
在	-10591
就	-10592
人	-10593
有	-10594
那	-10595
来	-10596
们	-10597
啊	-10598
个	-10599
好	-10600
要	-10601
说	-10602
吧	-10603
也	-10604
会	-10605
吗	-10606
到	-10607
没	-10608
为	-10609
什	-10610
能	-10611
他	-10612
可	-10613
还	-10614
下	-10615
大	-10616
去	-10617
样	-10618
都	-10619
想	-10620
上	-10621
里	-10622
真	-10623
过	-10624
对	-10625
以	-10626
事	-10627
得	-10628
家	-10629
小	-10630
子	-10631
然	-10632
看	-10633
出	-10634
时	-10635
话	-10636
生	-10637
和	-10638
很	-10639
之	-10640
呢	-10641
怎	-10642
道	-10643
只	-10644
起	-10645
天	-10646
着	-10647
后	-10648
现	-10649
地	-10650
但	-10651
被	-10652
自	-10653
开	-10654
回	-10655
所	-10656
点	-10657
心	-10658
做	-10659
如	-10660
让	-10661
前	-10662
多	-10663
用	-10664
才	-10665
中	-10666
手	-10667
给	-10668
成	-10669
行	-10670
知	-10671
已	-10672
学	-10673
力	-10674
意	-10675
把	-10676
定	-10677
明	-10678
她	-10679
经	-10680
别	-10681
而	-10682
太	-10683
无	-10684
打	-10685
种	-10686
发	-10687
因	-10688
果	-10689
先	-10690
再	-10691
作	-10692
情	-10693
同	-10694
快	-10695
法	-10696
实	-10697
像	-10698
面	-10699
等	-10700
觉	-10701
正	-10702
长	-10703
身	-10704
方	-10705
动	-10706
该	-10707
次	-10708
最	-10709
当	-10710
见	-10711
从	-10712
己	-10713
死	-10714
本	-10715
全	-10716
算	-10717
球	-10718
请	-10719
比	-10720
间	-10721
些	-10722
于	-10723
进	-10724
年	-10725
今	-10726
战	-10727
分	-10728
女	-10729
直	-10730
姐	-10731
候	-10732
老	-10733
应	-10734
听	-10735
感	-10736
走	-10737
哦	-10738
跟	-10739
关	-10740
此	-10741
变	-10742
伙	-10743
问	-10744
吃	-10745
尔	-10746
干	-10747
接	-10748
西	-10749
加	-10750
谢	-10751
高	-10752
相	-10753
刚	-10754
难	-10755
边	-10756
放	-10757
部	-10758
东	-10759
又	-10760
错	-10761
特	-10762
头	-10763
斯	-10764
场	-10765
其	-10766
白	-10767
将	-10768
理	-10769
体	-10770
哪	-10771
原	-10772
您	-10773
始	-10774
杀	-10775
名	-10776
住	-10777
三	-10778
气	-10779
完	-10780
找	-10781
结	-10782
连	-10783
机	-10784
」	-10785
「	-10786
两	-10787
活	-10788
妈	-10789
者	-10790
神	-10791
国	-10792
虽	-10793
喂	-10794
世	-10795
重	-10796
美	-10797
受	-10798
日	-10799
第	-10800
嘛	-10801
拉	-10802
外	-10803
位	-10804
总	-10805
少	-10806
师	-10807
欢	-10808
常	-10809
啦	-10810
叫	-10811
物	-10812
马	-10813
哥	-10814
利	-10815
底	-10816
队	-10817
谁	-10818
办	-10819
公	-10820
它	-10821
入	-10822
水	-10823
海	-10824
王	-10825
主	-10826
认	-10827
怪	-10828
命	-10829
喜	-10830
掉	-10831
孩	-10832
信	-10833
击	-10834
何	-10835
强	-10836
带	-10837
赛	-10838
嗯	-10839
目	-10840
害	-10841
工	-10842
更	-10843
解	-10844
系	-10845
记	-10846
阿	-10847
思	-10848
安	-10849
爱	-10850
帮	-10851
亚	-10852
决	-10853
巨	-10854
由	-10855
界	-10856
使	-10857
失	-10858
类	-10859
儿	-10860
向	-10861
竟	-10862
量	-10863
新	-10864
告	-10865
早	-10866
确	-10867
管	-10868
口	-10869
保	-10870
与	-10871
花	-10872
交	-10873
亲	-10874
件	-10875
任	-10876
合	-10877
路	-10878
必	-10879
内	-10880
处	-10881
艾	-10882
题	-10883
反	-10884
克	-10885
并	-10886
通	-10887
准	-10888
玩	-10889
爸	-10890
绝	-10891
光	-10892
二	-10893
奇	-10894
眼	-10895
近	-10896
蛋	-10897
抱	-10898
便	-10899
够	-10900
士	-10901
友	-10902
非	-10903
恶	-10904
托	-10905
教	-10906
望	-10907
呀	-10908
备	-10909
男	-10910
且	-10911
木	-10912
拿	-10913
门	-10914
投	-10915
性	-10916
离	-10917
平	-10918
希	-10919
山	-10920
斗	-10921
歉	-10922
团	-10923
救	-10924
色	-10925
度	-10926
却	-10927
传	-10928
伤	-10929
护	-10930
员	-10931
制	-10932
表	-10933
查	-10934
选	-10935
久	-10936
止	-10937
许	-10938
练	-10939
魔	-10940
根	-10941
田	-10942
怕	-10943
试	-10944
倒	-10945
声	-10946
代	-10947
指	-10948
终	-10949
清	-10950
十	-10951
城	-10952
晚	-10953
流	-10954
照	-10955
电	-10956
跑	-10957
野	-10958
笑	-10959
报	-10960
服	-10961
兵	-10962
留	-10963
达	-10964
月	-10965
居	-10966
车	-10967
格	-10968
石	-10969
差	-10970
空	-10971
提	-10972
往	-10973
待	-10974
各	-10975
敌	-10976
卡	-10977
烦	-10978
金	-10979
音	-10980
几	-10981
切	-10982
尽	-10983
字	-10984
火	-10985
复	-10986
收	-10987
况	-10988
军	-10989
诉	-10990
习	-10991
数	-10992
星	-10993
朋	-10994
装	-10995
攻	-10996
黑	-10997
父	-10998
逃	-10999
拜	-11000
计	-11001
岛	-11002
考	-11003
至	-11004
期	-11005
级	-11006
续	-11007
夏	-11008
立	-11009
紧	-11010
调	-11011
集	-11012
论	-11013
德	-11014
胜	-11015
远	-11016
号	-11017
精	-11018
化	-11019
消	-11020
麻	-11021
求	-11022
存	-11023
言	-11024
需	-11025
苦	-11026
继	-11027
风	-11028
米	-11029
约	-11030
校	-11031
画	-11032
即	-11033
视	-11034
万	-11035
警	-11036
社	-11037
式	-11038
混	-11039
区	-11040
突	-11041
布	-11042
痛	-11043
游	-11044
影	-11045
四	-11046
容	-11047
识	-11048
随	-11049
造	-11050
负	-11051
持	-11052
担	-11053
轻	-11054
令	-11055
越	-11056
条	-11057
断	-11058
术	-11059
束	-11060
超	-11061
送	-11062
步	-11063
或	-11064
单	-11065
乐	-11066
厉	-11067
坏	-11068
演	-11069
肯	-11070
息	-11071
愿	-11072
运	-11073
破	-11074
片	-11075
张	-11076
千	-11077
灵	-11078
梦	-11079
衣	-11080
满	-11081
罗	-11082
店	-11083
书	-11084
鬼	-11085
线	-11086
守	-11087
棒	-11088
睡	-11089
兴	-11090
义	-11091
周	-11092
须	-11093
飞	-11094
追	-11095
首	-11096
幸	-11097
换	-11098
每	-11099
饭	-11100
赶	-11101
取	-11102
站	-11103
转	-11104
市	-11105
险	-11106
班	-11107
器	-11108
酒	-11109
夫	-11110
巴	-11111
钱	-11112
房	-11113
助	-11114
客	-11115
基	-11116
吉	-11117
务	-11118
据	-11119
穿	-11120
忘	-11121
未	-11122
份	-11123
局	-11124
母	-11125
忙	-11126
易	-11127
鲁	-11128
靠	-11129
犯	-11130
乱	-11131
形	-11132
态	-11133
弃	-11134
静	-11135
搞	-11136
除	-11137
哎	-11138
爷	-11139
假	-11140
深	-11141
注	-11142
讨	-11143
血	-11144
挺	-11145
状	-11146
落	-11147
川	-11148
味	-11149
半	-11150
叶	-11151
君	-11152
品	-11153
毕	-11154
辈	-11155
象	-11156
北	-11157
参	-11158
喝	-11159
停	-11160
写	-11161
村	-11162
业	-11163
露	-11164
似	-11165
抓	-11166
文	-11167
冷	-11168
赢	-11169
雷	-11170
修	-11171
既	-11172
弹	-11173
伊	-11174
司	-11175
妳	-11176
鱼	-11177
脸	-11178
曾	-11179
迪	-11180
妹	-11181
谷	-11182
五	-11183
改	-11184
戏	-11185
乎	-11186
故	-11187
置	-11188
输	-11189
功	-11190
遇	-11191
及	-11192
座	-11193
墙	-11194
察	-11195
刻	-11196
尼	-11197
福	-11198
红	-11199
纳	-11200
责	-11201
懂	-11202
油	-11203
买	-11204
脑	-11205
楚	-11206
武	-11207
热	-11208
笨	-11209
民	-11210
组	-11211
诶	-11212
危	-11213
厌	-11214
波	-11215
莉	-11216
哈	-11217
夜	-11218
答	-11219
包	-11220
密	-11221
究	-11222
春	-11223
弟	-11224
努	-11225
角	-11226
塔	-11227
引	-11228
慢	-11229
松	-11230
猫	-11231
称	-11232
礼	-11233
食	-11234
仅	-11235
速	-11236
龙	-11237
初	-11238
简	-11239
樱	-11240
莱	-11241
迎	-11242
替	-11243
足	-11244
妖	-11245
休	-11246
台	-11247
退	-11248
标	-11249
料	-11250
支	-11251
亮	-11252
般	-11253
节	-11254
建	-11255
防	-11256
证	-11257
顺	-11258
伴	-11259
藏	-11260
预	-11261
承	-11262
趣	-11263
坐	-11264
观	-11265
导	-11266
罪	-11267
势	-11268
联	-11269
费	-11270
室	-11271
独	-11272
具	-11273
细	-11274
统	-11275
领	-11276
牌	-11277
败	-11278
宫	-11279
划	-11280
枪	-11281
产	-11282
跳	-11283
遗	-11284
圣	-11285
京	-11286
型	-11287
招	-11288
恐	-11289
歌	-11290
背	-11291
设	-11292
宝	-11293
温	-11294
香	-11295
青	-11296
念	-11297
古	-11298
整	-11299
偷	-11300
谓	-11301
院	-11302
林	-11303
介	-11304
程	-11305
糟	-11306
船	-11307
秋	-11308
醒	-11309
脚	-11310
婚	-11311
微	-11312
争	-11313
偶	-11314
围	-11315
普	-11316
段	-11317
案	-11318
模	-11319
园	-11320
英	-11321
顾	-11322
南	-11323
议	-11324
井	-11325
展	-11326
肉	-11327
较	-11328
适	-11329
郎	-11330
维	-11331
官	-11332
技	-11333
稍	-11334
弄	-11335
拍	-11336
雪	-11337
婆	-11338
暗	-11339
疑	-11340
冲	-11341
嘴	-11342
志	-11343
夺	-11344
附	-11345
族	-11346
辛	-11347
训	-11348
叔	-11349
咦	-11350
排	-11351
聊	-11352
医	-11353
语	-11354
右	-11355
资	-11356
刀	-11357
灭	-11358
异	-11359
极	-11360
借	-11361
剩	-11362
板	-11363
概	-11364
获	-11365
句	-11366
弱	-11367
丽	-11368
忍	-11369
规	-11370
举	-11371
谈	-11372
钟	-11373
秘	-11374
派	-11375
射	-11376
忆	-11377
贵	-11378
菜	-11379
治	-11380
降	-11381
八	-11382
兰	-11383
卖	-11384
奏	-11385
职	-11386
属	-11387
姆	-11388
树	-11389
纪	-11390
配	-11391
威	-11392
急	-11393
佐	-11394
殿	-11395
篮	-11396
森	-11397
皮	-11398
付	-11399
图	-11400
则	-11401
泽	-11402
压	-11403
草	-11404
卫	-11405
病	-11406
依	-11407
昨	-11408
炸	-11409
熊	-11410
优	-11411
呼	-11412
糕	-11413
左	-11414
挥	-11415
价	-11416
百	-11417
哭	-11418
按	-11419
双	-11420
藤	-11421
银	-11422
敢	-11423
永	-11424
舞	-11425
若	-11426
寻	-11427
芽	-11428
奈	-11429
曲	-11430
劲	-11431
旅	-11432
索	-11433
漂	-11434
洛	-11435
阳	-11436
商	-11437
养	-11438
值	-11439
骗	-11440
择	-11441
玛	-11442
科	-11443
良	-11444
否	-11445
杯	-11446
毫	-11447
控	-11448
碰	-11449
垒	-11450
迷	-11451
恋	-11452
虑	-11453
推	-11454
药	-11455
贝	-11456
怀	-11457
轮	-11458
唱	-11459
拥	-11460
剑	-11461
铁	-11462
散	-11463
亡	-11464
冰	-11465
吓	-11466
阻	-11467
误	-11468
吵	-11469
元	-11470
库	-11471
另	-11472
副	-11473
吸	-11474
暴	-11475
避	-11476
坚	-11477
疼	-11478
群	-11479
巧	-11480
示	-11481
蠢	-11482
网	-11483
诺	-11484
毛	-11485
临	-11486
某	-11487
惊	-11488
质	-11489
土	-11490
验	-11491
杰	-11492
娜	-11493
架	-11494
沙	-11495
历	-11496
激	-11497
织	-11498
致	-11499
课	-11500
距	-11501
捕	-11502
闹	-11503
莫	-11504
馆	-11505
印	-11506
限	-11507
专	-11508
测	-11509
袭	-11510
闭	-11511
严	-11512
众	-11513
铃	-11514
响	-11515
妙	-11516
岁	-11517
景	-11518
移	-11519
讲	-11520
升	-11521
权	-11522
镇	-11523
奥	-11524
河	-11525
监	-11526
迹	-11527
尤	-11528
兹	-11529
沉	-11530
洗	-11531
短	-11532
封	-11533
丝	-11534
共	-11535
扰	-11536
屋	-11537
隐	-11538
羽	-11539
七	-11540
丢	-11541
雨	-11542
操	-11543
傻	-11544
探	-11545
执	-11546
录	-11547
堂	-11548
陪	-11549
烧	-11550
剧	-11551
幻	-11552
乌	-11553
拼	-11554
雅	-11555
咖	-11556
累	-11557
货	-11558
楼	-11559
乔	-11560
抢	-11561
补	-11562
迟	-11563
镜	-11564
效	-11565
读	-11566
崎	-11567
伦	-11568
暂	-11569
潜	-11570
赤	-11571
帅	-11572
甲	-11573
列	-11574
六	-11575
偏	-11576
御	-11577
瓦	-11578
登	-11579
触	-11580
哟	-11581
归	-11582
狗	-11583
顶	-11584
塞	-11585
毒	-11586
渐	-11587
充	-11588
亏	-11589
泉	-11590
漫	-11591
鸟	-11592
低	-11593
史	-11594
毁	-11595
企	-11596
梅	-11597
俩	-11598
脱	-11599
陆	-11600
纯	-11601
恩	-11602
壁	-11603
判	-11604
律	-11605
盗	-11606
猎	-11607
瞬	-11608
岩	-11609
恨	-11610
闻	-11611
凭	-11612
户	-11613
胡	-11614
阵	-11615
魂	-11616
唯	-11617
乖	-11618
冒	-11619
乡	-11620
块	-11621
熟	-11622
勇	-11623
雄	-11624
典	-11625
辞	-11626
境	-11627
智	-11628
显	-11629
层	-11630
惜	-11631
柔	-11632
研	-11633
祖	-11634
陷	-11635
废	-11636
茶	-11637
凶	-11638
坂	-11639
帕	-11640
帝	-11641
愧	-11642
抗	-11643
政	-11644
碍	-11645
黄	-11646
遍	-11647
协	-11648
透	-11649
摩	-11650
困	-11651
尝	-11652
甚	-11653
彻	-11654
挑	-11655
晶	-11656
啥	-11657
源	-11658
爆	-11659
奶	-11660
环	-11661
莎	-11662
卷	-11663
虫	-11664
祭	-11665
哇	-11666
脏	-11667
劳	-11668
硬	-11669
敏	-11670
胆	-11671
刺	-11672
尾	-11673
禁	-11674
创	-11675
增	-11676
餐	-11677
恢	-11678
耶	-11679
兔	-11680
华	-11681
施	-11682
际	-11683
套	-11684
杂	-11685
握	-11686
寺	-11687
胞	-11688
徒	-11689
踪	-11690
狱	-11691
呐	-11692
奉	-11693
擅	-11694
词	-11695
折	-11696
孤	-11697
欧	-11698
炼	-11699
遭	-11700
洞	-11701
采	-11702
闲	-11703
朝	-11704
狂	-11705
摆	-11706
育	-11707
啡	-11708
弗	-11709
掌	-11710
拔	-11711
率	-11712
惠	-11713
材	-11714
锁	-11715
戴	-11716
搭	-11717
舰	-11718
街	-11719
萨	-11720
碎	-11721
罢	-11722
谅	-11723
零	-11724
皇	-11725
悲	-11726
肚	-11727
宇	-11728
炮	-11729
睛	-11730
域	-11731
广	-11732
仙	-11733
娘	-11734
汉	-11735
耳	-11736
骨	-11737
艺	-11738
鹿	-11739
互	-11740
兽	-11741
桥	-11742
营	-11743
咒	-11744
旦	-11745
烈	-11746
府	-11747
残	-11748
奖	-11749
牛	-11750
彩	-11751
猜	-11752
聚	-11753
趁	-11754
午	-11755
仇	-11756
臭	-11757
免	-11758
庭	-11759
策	-11760
舍	-11761
宿	-11762
释	-11763
湘	-11764
骑	-11765
齐	-11766
伍	-11767
惯	-11768
季	-11769
秀	-11770
粉	-11771
诞	-11772
编	-11773
晴	-11774
珍	-11775
袋	-11776
吾	-11777
委	-11778
富	-11779
途	-11780
九	-11781
撒	-11782
兄	-11783
喔	-11784
弥	-11785
浪	-11786
仓	-11787
盯	-11788
检	-11789
援	-11790
尸	-11791
旧	-11792
欲	-11793
笠	-11794
躲	-11795
冈	-11796
妮	-11797
绍	-11798
仍	-11799
乘	-11800
怜	-11801
添	-11802
虚	-11803
拒	-11804
烟	-11805
略	-11806
吹	-11807
灰	-11808
荣	-11809
赌	-11810
叛	-11811
积	-11812
闪	-11813
缺	-11814
悟	-11815
旁	-11816
秒	-11817
央	-11818
拳	-11819
冬	-11820
刑	-11821
厅	-11822
憾	-11823
扔	-11824
勉	-11825
谎	-11826
悠	-11827
纸	-11828
汤	-11829
菲	-11830
饿	-11831
盘	-11832
寄	-11833
私	-11834
余	-11835
妻	-11836
滚	-11837
虎	-11838
尊	-11839
占	-11840
恭	-11841
搜	-11842
佛	-11843
拯	-11844
扫	-11845
摸	-11846
猩	-11847
胸	-11848
酷	-11849
驾	-11850
仿	-11851
扎	-11852
盖	-11853
筑	-11854
键	-11855
撤	-11856
池	-11857
悔	-11858
享	-11859
侵	-11860
笔	-11861
罚	-11862
康	-11863
舒	-11864
逐	-11865
牲	-11866
呆	-11867
喵	-11868
牺	-11869
启	-11870
搬	-11871
摄	-11872
绪	-11873
健	-11874
章	-11875
征	-11876
滑	-11877
磨	-11878
蓝	-11879
振	-11880
供	-11881
净	-11882
席	-11883
惨	-11884
祈	-11885
乃	-11886
伯	-11887
固	-11888
幕	-11889
牙	-11890
甘	-11891
瞧	-11892
佳	-11893
洋	-11894
酱	-11895
染	-11896
姨	-11897
泳	-11898
绿	-11899
诚	-11900
丹	-11901
唤	-11902
甜	-11903
诱	-11904
鸡	-11905
仗	-11906
圈	-11907
姑	-11908
瓜	-11909
臂	-11910
范	-11911
仪	-11912
允	-11913
善	-11914
狼	-11915
怖	-11916
腿	-11917
阴	-11918
爽	-11919
伸	-11920
宙	-11921
颜	-11922
敬	-11923
项	-11924
侧	-11925
播	-11926
逼	-11927
震	-11928
圆	-11929
坦	-11930
戒	-11931
烂	-11932
纵	-11933
缘	-11934
股	-11935
违	-11936
宣	-11937
欺	-11938
蒙	-11939
姿	-11940
贺	-11941
云	-11942
侦	-11943
床	-11944
瑟	-11945
迫	-11946
宪	-11947
撑	-11948
濑	-11949
仔	-11950
慎	-11951
损	-11952
貌	-11953
阁	-11954
鸣	-11955
构	-11956
柯	-11957
遵	-11958
默	-11959
丸	-11960
序	-11961
摇	-11962
灯	-11963
猪	-11964
奋	-11965
宗	-11966
省	-11967
箱	-11968
评	-11969
遥	-11970
末	-11971
祝	-11972
估	-11973
彼	-11974
邀	-11975
嘿	-11976
献	-11977
稳	-11978
豆	-11979
倍	-11980
钢	-11981
夢	-11982
耍	-11983
莲	-11984
插	-11985
素	-11986
耀	-11987
臣	-11988
例	-11989
凛	-11990
端	-11991
撞	-11992
赞	-11993
咯	-11994
拖	-11995
朗	-11996
票	-11997
翻	-11998
蕾	-11999
访	-12000
隔	-12001
挂	-12002
桐	-12003
络	-12004
予	-12005
裏	-12006
凉	-12007
琴	-12008
呃	-12009
港	-12010
瞄	-12011
码	-12012
埋	-12013
航	-12014
铠	-12015
驶	-12016
嫌	-12017
抛	-12018
泡	-12019
泰	-12020
浮	-12021
针	-12022
潮	-12023
翔	-12024
融	-12025
驱	-12026
减	-12027
扮	-12028
荒	-12029
恼	-12030
犽	-12031
竹	-12032
脆	-12033
饶	-12034
麦	-12035
博	-12036
挡	-12037
番	-12038
蒂	-12039
鲜	-12040
岸	-12041
怨	-12042
扣	-12043
抵	-12044
绩	-12045
软	-12046
夹	-12047
牵	-12048
堡	-12049
拦	-12050
款	-12051
糊	-12052
鼓	-12053
仁	-12054
召	-12055
痴	-12056
裂	-12057
夸	-12058
纹	-12059
缠	-12060
踏	-12061
牢	-12062
赖	-12063
趟	-12064
含	-12065
妨	-12066
寂	-12067
暖	-12068
童	-12069
载	-12070
琪	-12071
贴	-12072
亿	-12073
喊	-12074
晓	-12075
洲	-12076
赏	-12077
丧	-12078
惧	-12079
爵	-12080
麽	-12081
咱	-12082
咲	-12083
匙	-12084
吴	-12085
梯	-12086
江	-12087
爬	-12088
钥	-12089
丰	-12090
厨	-12091
哼	-12092
嗟	-12093
埃	-12094
庆	-12095
耐	-12096
豪	-12097
财	-12098
颗	-12099
怒	-12100
盛	-12101
肩	-12102
扯	-12103
捉	-12104
殊	-12105
澡	-12106
忠	-12107
拾	-12108
横	-12109
泪	-12110
延	-12111
丘	-12112
吞	-12113
嘉	-12114
氛	-12115
犹	-12116
窗	-12117
誓	-12118
丁	-12119
堆	-12120
奴	-12121
寿	-12122
擦	-12123
曼	-12124
涂	-12125
鼠	-12126
燃	-12127
瞒	-12128
顿	-12129
桌	-12130
灾	-12131
痕	-12132
绘	-12133
谋	-12134
吐	-12135
湖	-12136
签	-12137
愚	-12138
扭	-12139
汇	-12140
诸	-12141
惩	-12142
捡	-12143
旋	-12144
津	-12145
胁	-12146
寞	-12147
屁	-12148
疗	-12149
缩	-12150
障	-12151
鹅	-12152
惹	-12153
浴	-12154
雏	-12155
凡	-12156
烤	-12157
朵	-12158
糖	-12159
账	-12160
阶	-12161
雾	-12162
匹	-12163
幽	-12164
恒	-12165
返	-12166
鞋	-12167
鼻	-12168
丑	-12169
宅	-12170
戈	-12171
蛇	-12172
陵	-12173
凯	-12174
疯	-12175
裁	-12176
這	-12177
钻	-12178
揍	-12179
狠	-12180
狸	-12181
符	-12182
诅	-12183
柴	-12184
覆	-12185
咬	-12186
挖	-12187
涉	-12188
版	-12189
冥	-12190
厚	-12191
契	-12192
慌	-12193
斩	-12194
赚	-12195
伏	-12196
傲	-12197
植	-12198
玉	-12199
稀	-12200
紫	-12201
陛	-12202
圾	-12203
垃	-12204
竞	-12205
丈	-12206
冠	-12207
吊	-12208
绕	-12209
枝	-12210
淡	-12211
萝	-12212
抽	-12213
暑	-12214
柱	-12215
箭	-12216
谜	-12217
审	-12218
扬	-12219
狡	-12220
邪	-12221
销	-12222
呵	-12223
奔	-12224
液	-12225
葛	-12226
轨	-12227
逮	-12228
伪	-12229
娅	-12230
幅	-12231
党	-12232
峰	-12233
瓶	-12234
绳	-12235
饰	-12236
啰	-12237
愈	-12238
繁	-12239
裤	-12240
跃	-12241
培	-12242
幺	-12243
幼	-12244
慕	-12245
稿	-12246
尚	-12247
枫	-12248
邮	-12249
骚	-12250
厕	-12251
县	-12252
喷	-12253
朱	-12254
泷	-12255
犬	-12256
碧	-12257
坠	-12258
苏	-12259
迦	-12260
鄙	-12261
农	-12262
宽	-12263
眠	-12264
贾	-12265
诗	-12266
凑	-12267
摔	-12268
梨	-12269
漆	-12270
甩	-12271
羞	-12272
醉	-12273
吻	-12274
焦	-12275
纱	-12276
频	-12277
啤	-12278
尉	-12279
授	-12280
缝	-12281
豫	-12282
崩	-12283
帐	-12284
汁	-12285
汝	-12286
卑	-12287
桃	-12288
滨	-12289
灌	-12290
申	-12291
羊	-12292
屈	-12293
渡	-12294
翼	-12295
耗	-12296
葬	-12297
额	-12298
』	-12299
孙	-12300
宜	-12301
漏	-12302
倾	-12303
妄	-12304
悬	-12305
粗	-12306
赫	-12307
姓	-12308
棘	-12309
购	-12310
伟	-12311
卜	-12312
堵	-12313
李	-12314
聪	-12315
辆	-12316
链	-12317
隆	-12318
霸	-12319
佩	-12320
昏	-12321
浅	-12322
猛	-12323
骂	-12324
欠	-12325
详	-12326
饱	-12327
『	-12328
污	-12329
狐	-12330
纠	-12331
绫	-12332
讯	-12333
逆	-12334
郁	-12335
阪	-12336
兼	-12337
妇	-12338
彦	-12339
愉	-12340
档	-12341
筋	-12342
脉	-12343
贼	-12344
阱	-12345
掩	-12346
滴	-12347
漠	-12348
盾	-12349
矛	-12350
稻	-12351
隶	-12352
雇	-12353
勒	-12354
扇	-12355
核	-12356
砂	-12357
祸	-12358
膀	-12359
躁	-12360
帆	-12361
沼	-12362
涯	-12363
牧	-12364
璃	-12365
宰	-12366
晨	-12367
湿	-12368
祷	-12369
饵	-12370
饼	-12371
批	-12372
描	-12373
渣	-12374
盐	-12375
绑	-12376
绯	-12377
嗦	-12378
渴	-12379
猴	-12380
砍	-12381
穴	-12382
劝	-12383
憎	-12384
拟	-12385
狩	-12386
畏	-12387
瞎	-12388
腹	-12389
蛮	-12390
饮	-12391
剪	-12392
墨	-12393
挣	-12394
晃	-12395
租	-12396
羡	-12397
著	-12398
偿	-12399
括	-12400
敲	-12401
胎	-12402
姬	-12403
敦	-12404
澪	-12405
玲	-12406
盟	-12407
腐	-12408
芙	-12409
辉	-12410
巫	-12411
慰	-12412
懒	-12413
益	-12414
睁	-12415
肌	-12416
腰	-12417
订	-12418
锅	-12419
径	-12420
恕	-12421
橘	-12422
誉	-12423
噢	-12424
填	-12425
尖	-12426
州	-12427
棋	-12428
泥	-12429
涌	-12430
珠	-12431
疲	-12432
砸	-12433
腾	-12434
苍	-12435
踩	-12436
逞	-12437
闯	-12438
霍	-12439
喱	-12440
圭	-12441
悉	-12442
碗	-12443
蚁	-12444
踢	-12445
歹	-12446
氏	-12447
洁	-12448
烫	-12449
肥	-12450
艇	-12451
邦	-12452
俗	-12453
捏	-12454
昂	-12455
晕	-12456
薄	-12457
递	-12458
械	-12459
焰	-12460
舌	-12461
萄	-12462
葡	-12463
轰	-12464
辅	-12465
辑	-12466
惑	-12467
畅	-12468
缓	-12469
耻	-12470
萌	-12471
蝶	-12472
衡	-12473
迈	-12474
仰	-12475
刃	-12476
孕	-12477
庄	-12478
梓	-12479
溜	-12480
缚	-12481
侍	-12482
唉	-12483
壮	-12484
栗	-12485
瑞	-12486
艘	-12487
茂	-12488
劣	-12489
扩	-12490
爹	-12491
谨	-12492
售	-12493
寒	-12494
扑	-12495
揭	-12496
症	-12497
础	-12498
肤	-12499
菌	-12500
辱	-12501
宴	-12502
尘	-12503
崖	-12504
愤	-12505
抹	-12506
炉	-12507
宾	-12508
忌	-12509
爲	-12510
芒	-12511
薰	-12512
贤	-12513
龄	-12514
匠	-12515
宁	-12516
巾	-12517
忧	-12518
旗	-12519
柏	-12520
欣	-12521
汽	-12522
矿	-12523
胖	-12524
贯	-12525
魅	-12526
巢	-12527
抬	-12528
泄	-12529
矢	-12530
穷	-12531
铺	-12532
・	-12533
堪	-12534
寸	-12535
帽	-12536
患	-12537
槽	-12538
沿	-12539
窟	-12540
绵	-12541
迅	-12542
述	-12543
丫	-12544
册	-12545
冻	-12546
刷	-12547
厄	-12548
截	-12549
抖	-12550
拓	-12551
析	-12552
溃	-12553
窝	-12554
赴	-12555
锋	-12556
页	-12557
僵	-12558
哒	-12559
沒	-12560
济	-12561
煮	-12562
裙	-12563
谱	-12564
赐	-12565
伐	-12566
储	-12567
嗣	-12568
嘞	-12569
壳	-12570
巡	-12571
忽	-12572
摘	-12573
淋	-12574
湾	-12575
蜜	-12576
逝	-12577
钓	-12578
呜	-12579
唐	-12580
址	-12581
孔	-12582
弘	-12583
恰	-12584
映	-12585
琉	-12586
罩	-12587
鸦	-12588
岂	-12589
循	-12590
挤	-12591
枚	-12592
疏	-12593
胃	-12594
蹭	-12595
沟	-12596
鲸	-12597
麼	-12598
齿	-12599
伞	-12600
厂	-12601
嫁	-12602
币	-12603
税	-12604
荡	-12605
虐	-12606
逊	-12607
飘	-12608
龟	-12609
悄	-12610
杉	-12611
矩	-12612
粒	-12613
缇	-12614
蟹	-12615
俱	-12616
凝	-12617
励	-12618
哉	-12619
椅	-12620
翰	-12621
讶	-12622
赎	-12623
鉴	-12624
們	-12625
哲	-12626
坡	-12627
杜	-12628
炎	-12629
猾	-12630
盒	-12631
說	-12632
钝	-12633
雕	-12634
佣	-12635
個	-12636
刊	-12637
孽	-12638
拘	-12639
斑	-12640
欸	-12641
渔	-12642
熬	-12643
茜	-12644
袖	-12645
辔	-12646
逛	-12647
叉	-12648
壶	-12649
寓	-12650
拆	-12651
桑	-12652
汗	-12653
涨	-12654
督	-12655
磁	-12656
跨	-12657
陶	-12658
凌	-12659
妒	-12660
庙	-12661
役	-12662
措	-12663
煎	-12664
篇	-12665
粮	-12666
薇	-12667
贫	-12668
赋	-12669
遣	-12670
阔	-12671
凤	-12672
娃	-12673
廉	-12674
慧	-12675
涅	-12676
芬	-12677
骄	-12678
《	-12679
》	-12680
削	-12681
叹	-12682
咕	-12683
均	-12684
夷	-12685
慈	-12686
歪	-12687
町	-12688
籍	-12689
艰	-12690
赔	-12691
辣	-12692
锻	-12693
革	-12694
勤	-12695
嫉	-12696
悦	-12697
拐	-12698
擎	-12699
滋	-12700
翅	-12701
邻	-12702
酸	-12703
嗎	-12704
宠	-12705
皆	-12706
窃	-12707
荐	-12708
逢	-12709
闷	-12710
墓	-12711
夕	-12712
媒	-12713
廊	-12714
沾	-12715
炒	-12716
玻	-12717
笼	-12718
绽	-12719
喽	-12720
庞	-12721
披	-12722
斋	-12723
會	-12724
泣	-12725
罐	-12726
蹈	-12727
黎	-12728
來	-12729
勾	-12730
届	-12731
挨	-12732
浓	-12733
瞳	-12734
罕	-12735
蒸	-12736
蜂	-12737
锐	-12738
顽	-12739
割	-12740
劫	-12741
咧	-12742
噬	-12743
垂	-12744
婴	-12745
砾	-12746
乳	-12747
傅	-12748
塌	-12749
抚	-12750
朕	-12751
浑	-12752
矮	-12753
崇	-12754
撕	-12755
淘	-12756
腕	-12757
俄	-12758
卿	-12759
彗	-12760
憧	-12761
憬	-12762
掘	-12763
氧	-12764
瑚	-12765
葱	-12766
蔻	-12767
贪	-12768
遮	-12769
邸	-12770
串	-12771
伽	-12772
娇	-12773
懈	-12774
捷	-12775
搅	-12776
汰	-12777
浆	-12778
瀑	-12779
狭	-12780
茫	-12781
询	-12782
颈	-12783
咪	-12784
沃	-12785
泊	-12786
浦	-12787
绊	-12788
肖	-12789
荷	-12790
薯	-12791
衷	-12792
卢	-12793
咎	-12794
挽	-12795
斥	-12796
痒	-12797
裸	-12798
贸	-12799
陀	-12800
黛	-12801
、	-12802
剥	-12803
弯	-12804
柜	-12805
栋	-12806
橡	-12807
渚	-12808
畜	-12809
虹	-12810
谍	-12811
辜	-12812
逗	-12813
雀	-12814
魄	-12815
俺	-12816
妥	-12817
屏	-12818
粘	-12819
署	-12820
胶	-12821
舱	-12822
诈	-12823
债	-12824
催	-12825
函	-12826
尺	-12827
熔	-12828
珊	-12829
蹲	-12830
躺	-12831
隙	-12832
昆	-12833
笹	-12834
纷	-12835
肆	-12836
蔷	-12837
藻	-12838
螺	-12839
贩	-12840
鳞	-12841
嗨	-12842
弓	-12843
摧	-12844
柳	-12845
碳	-12846
脖	-12847
虾	-12848
卧	-12849
暮	-12850
盔	-12851
窄	-12852
竭	-12853
茨	-12854
萤	-12855
陈	-12856
鹰	-12857
刮	-12858
呈	-12859
唔	-12860
囲	-12861
垮	-12862
狮	-12863
疫	-12864
肺	-12865
脊	-12866
豹	-12867
锦	-12868
霉	-12869
鹤	-12870
亦	-12871
吼	-12872
屿	-12873
晒	-12874
筹	-12875
薪	-12876
酬	-12877
侣	-12878
嘲	-12879
嚣	-12880
囊	-12881
尿	-12882
桂	-12883
殖	-12884
猿	-12885
祥	-12886
芭	-12887
芳	-12888
躯	-12889
馅	-12890
驼	-12891
喰	-12892
噩	-12893
嫩	-12894
扳	-12895
挚	-12896
樣	-12897
珀	-12898
筱	-12899
腻	-12900
辙	-12901
逻	-12902
钩	-12903
霜	-12904
饲	-12905
剂	-12906
呗	-12907
囚	-12908
戚	-12909
抑	-12910
携	-12911
斜	-12912
斤	-12913
槙	-12914
歼	-12915
瑠	-12916
疾	-12917
苗	-12918
蚀	-12919
跪	-12920
驻	-12921
丛	-12922
匿	-12923
嘘	-12924
惕	-12925
晋	-12926
歇	-12927
浸	-12928
稚	-12929
笛	-12930
肮	-12931
逅	-12932
邂	-12933
镖	-12934
仆	-12935
冢	-12936
叨	-12937
喻	-12938
摊	-12939
杏	-12940
爪	-12941
盼	-12942
翠	-12943
膝	-12944
董	-12945
葵	-12946
诊	-12947
赠	-12948
乙	-12949
佑	-12950
哀	-12951
坑	-12952
宵	-12953
履	-12954
庵	-12955
愁	-12956
扁	-12957
押	-12958
捞	-12959
敞	-12960
毅	-12961
眉	-12962
睹	-12963
缔	-12964
翘	-12965
荞	-12966
蛛	-12967
贡	-12968
锤	-12969
骏	-12970
兜	-12971
咐	-12972
啮	-12973
寡	-12974
昧	-12975
昭	-12976
枯	-12977
棵	-12978
溶	-12979
狙	-12980
疤	-12981
肃	-12982
衰	-12983
译	-12984
践	-12985
迁	-12986
還	-12987
颠	-12988
俯	-12989
倦	-12990
傍	-12991
呦	-12992
旺	-12993
沦	-12994
沸	-12995
润	-12996
琳	-12997
肠	-12998
蝴	-12999
裔	-13000
诀	-13001
贞	-13002
辨	-13003
韩	-13004
敷	-13005
枕	-13006
渺	-13007
滩	-13008
瘦	-13009
粹	-13010
羁	-13011
莓	-13012
菇	-13013
览	-13014
谊	-13015
跌	-13016
酪	-13017
黏	-13018
乏	-13019
俘	-13020
堕	-13021
嵌	-13022
捐	-13023
狄	-13024
玄	-13025
眷	-13026
穆	-13027
趴	-13028
铜	-13029
髓	-13030
促	-13031
兮	-13032
垫	-13033
塑	-13034
塾	-13035
奢	-13036
屎	-13037
捣	-13038
泛	-13039
浩	-13040
翁	-13041
芝	-13042
芥	-13043
芦	-13044
蜥	-13045
诡	-13046
酿	-13047
钉	-13048
雫	-13049
驹	-13050
叠	-13051
吩	-13052
喘	-13053
嚷	-13054
扶	-13055
時	-13056
栏	-13057
桩	-13058
潘	-13059
篝	-13060
耿	-13061
舟	-13062
話	-13063
轴	-13064
辩	-13065
俊	-13066
凿	-13067
拨	-13068
掺	-13069
杆	-13070
溢	-13071
舅	-13072
菅	-13073
蜘	-13074
贱	-13075
陌	-13076
隧	-13077
厮	-13078
對	-13079
弦	-13080
拷	-13081
擒	-13082
旭	-13083
桶	-13084
炫	-13085
碟	-13086
窍	-13087
窥	-13088
篷	-13089
脾	-13090
蔽	-13091
辰	-13092
過	-13093
嘻	-13094
妆	-13095
妲	-13096
屠	-13097
巷	-13098
抄	-13099
椿	-13100
浇	-13101
淇	-13102
濒	-13103
膜	-13104
菊	-13105
蓄	-13106
蔬	-13107
蜴	-13108
衫	-13109
衬	-13110
裹	-13111
钵	-13112
侮	-13113
凸	-13114
匆	-13115
卸	-13116
呛	-13117
搏	-13118
滞	-13119
玫	-13120
瑰	-13121
腔	-13122
茸	-13123
虏	-13124
阅	-13125
骸	-13126
券	-13127
咋	-13128
喉	-13129
坎	-13130
坛	-13131
坟	-13132
岳	-13133
掀	-13134
掠	-13135
栖	-13136
榊	-13137
殆	-13138
洒	-13139
淌	-13140
滥	-13141
澄	-13142
煌	-13143
盆	-13144
茄	-13145
谣	-13146
醋	-13147
铭	-13148
隼	-13149
凪	-13150
勃	-13151
咳	-13152
妃	-13153
弊	-13154
拙	-13155
汪	-13156
泼	-13157
燥	-13158
琥	-13159
综	-13160
膛	-13161
莽	-13162
螃	-13163
髅	-13164
乍	-13165
唬	-13166
岚	-13167
懦	-13168
昔	-13169
橙	-13170
浜	-13171
淑	-13172
炖	-13173
烹	-13174
矶	-13175
穗	-13176
绅	-13177
腥	-13178
艳	-13179
茧	-13180
颤	-13181
佬	-13182
傀	-13183
儡	-13184
兆	-13185
咻	-13186
墅	-13187
怯	-13188
拌	-13189
拢	-13190
枭	-13191
柊	-13192
棚	-13193
榜	-13194
榴	-13195
樫	-13196
洸	-13197
犀	-13198
痹	-13199
筒	-13200
纽	-13201
翡	-13202
裕	-13203
裡	-13204
讪	-13205
陋	-13206
伎	-13207
刁	-13208
勿	-13209
厘	-13210
峭	-13211
戮	-13212
攒	-13213
柚	-13214
歧	-13215
渊	-13216
澈	-13217
煤	-13218
玷	-13219
苹	-13220
莳	-13221
蛙	-13222
衍	-13223
袜	-13224
飙	-13225
厢	-13226
叽	-13227
咚	-13228
夙	-13229
徐	-13230
挠	-13231
旨	-13232
框	-13233
椒	-13234
槌	-13235
沮	-13236
涩	-13237
睦	-13238
禅	-13239
陨	-13240
鞭	-13241
韧	-13242
侯	-13243
凄	-13244
劈	-13245
募	-13246
吕	-13247
唇	-13248
啪	-13249
嗅	-13250
孝	-13251
岗	-13252
幡	-13253
杨	-13254
槟	-13255
毙	-13256
秩	-13257
绞	-13258
脂	-13259
苟	-13260
蚓	-13261
讽	-13262
阀	-13263
雌	-13264
鸽	-13265
刹	-13266
叮	-13267
咙	-13268
咨	-13269
咽	-13270
噜	-13271
尬	-13272
尴	-13273
峡	-13274
挫	-13275
捧	-13276
攀	-13277
昴	-13278
枢	-13279
浊	-13280
炭	-13281
燕	-13282
現	-13283
癡	-13284
碑	-13285
祀	-13286
竖	-13287
绰	-13288
缉	-13289
耕	-13290
耸	-13291
肢	-13292
茉	-13293
薙	-13294
豚	-13295
骷	-13296
剔	-13297
卵	-13298
唠	-13299
嚼	-13300
奸	-13301
婪	-13302
帘	-13303
撼	-13304
枣	-13305
涕	-13306
烛	-13307
狈	-13308
纤	-13309
纺	-13310
茬	-13311
谦	-13312
赝	-13313
颚	-13314
驯	-13315
麟	-13316
删	-13317
刨	-13318
呱	-13319
堤	-13320
姻	-13321
宏	-13322
庇	-13323
後	-13324
扒	-13325
拂	-13326
捅	-13327
搁	-13328
昙	-13329
枉	-13330
桀	-13331
棉	-13332
沫	-13333
灼	-13334
痊	-13335
盲	-13336
瞪	-13337
禄	-13338
秃	-13339
窜	-13340
芯	-13341
茱	-13342
蒲	-13343
蜡	-13344
跤	-13345
躏	-13346
醍	-13347
醐	-13348
霞	-13349
颇	-13350
饥	-13351
饪	-13352
馨	-13353
點	-13354
凹	-13355
坝	-13356
崭	-13357
惭	-13358
晰	-13359
柄	-13360
梗	-13361
棍	-13362
椰	-13363
渗	-13364
溅	-13365
眨	-13366
瞰	-13367
砰	-13368
箒	-13369
芜	-13370
茅	-13371
蕴	-13372
蘑	-13373
蚂	-13374
蝇	-13375
衅	-13376
蹂	-13377
迄	-13378
逸	-13379
侈	-13380
倩	-13381
勋	-13382
喋	-13383
垣	-13384
墟	-13385
寝	-13386
岔	-13387
憋	-13388
揪	-13389
朴	-13390
梁	-13391
梭	-13392
涡	-13393
焚	-13394
無	-13395
瞩	-13396
碌	-13397
稽	-13398
绚	-13399
缸	-13400
肿	-13401
豁	-13402
钮	-13403
锡	-13404
颁	-13405
饺	-13406
哔	-13407
壤	-13408
媳	-13409
崽	-13410
廷	-13411
恙	-13412
撇	-13413
旱	-13414
曝	-13415
栽	-13416
榨	-13417
溪	-13418
煽	-13419
礁	-13420
耽	-13421
胀	-13422
舔	-13423
蒜	-13424
蕉	-13425
藩	-13426
袒	-13427
讓	-13428
诲	-13429
驰	-13430
鲨	-13431
乞	-13432
哨	-13433
哮	-13434
唧	-13435
啧	-13436
噗	-13437
娱	-13438
嫂	-13439
寇	-13440
愣	-13441
扉	-13442
挪	-13443
掳	-13444
栓	-13445
殴	-13446
毬	-13447
為	-13448
熄	-13449
琐	-13450
砖	-13451
碾	-13452
祟	-13453
篡	-13454
绎	-13455
绒	-13456
绷	-13457
聘	-13458
腊	-13459
膏	-13460
覺	-13461
贷	-13462
郊	-13463
鞠	-13464
鼎	-13465
仑	-13466
伺	-13467
冕	-13468
吟	-13469
咸	-13470
嗜	-13471
宛	-13472
峻	-13473
庸	-13474
徊	-13475
徘	-13476
悍	-13477
惶	-13478
戳	-13479
溺	-13480
焉	-13481
珂	-13482
珐	-13483
癖	-13484
睫	-13485
窒	-13486
苔	-13487
萎	-13488
蝠	-13489
螂	-13490
谐	-13491
谕	-13492
韵	-13493
颊	-13494
驳	-13495
鲑	-13496
鸭	-13497
い	-13498
お	-13499
き	-13500
哩	-13501
啾	-13502
塚	-13503
尻	-13504
徽	-13505
扛	-13506
拚	-13507
拱	-13508
拽	-13509
掷	-13510
揉	-13511
汀	-13512
熏	-13513
瓷	-13514
種	-13515
腌	-13516
裘	-13517
蹦	-13518
钧	-13519
の	-13520
侑	-13521
兑	-13522
冯	-13523
別	-13524
咆	-13525
哗	-13526
嘟	-13527
嘱	-13528
怠	-13529
惫	-13530
昼	-13531
棺	-13532
椎	-13533
檐	-13534
歡	-13535
溯	-13536
煞	-13537
瓣	-13538
癌	-13539
秽	-13540
笕	-13541
筷	-13542
粟	-13543
绀	-13544
缴	-13545
胳	-13546
膊	-13547
辟	-13548
鑫	-13549
镰	-13550
鞘	-13551
骰	-13552
鲷	-13553
あ	-13554
兢	-13555
匪	-13556
啃	-13557
問	-13558
啼	-13559
喧	-13560
嘎	-13561
巳	-13562
帷	-13563
彭	-13564
彷	-13565
悚	-13566
惘	-13567
掏	-13568
掰	-13569
斧	-13570
曹	-13571
札	-13572
柿	-13573
泻	-13574
淹	-13575
澳	-13576
瘾	-13577
盈	-13578
粪	-13579
給	-13580
绮	-13581
蓬	-13582
蜻	-13583
衹	-13584
赘	-13585
趋	-13586
跷	-13587
铅	-13588
铐	-13589
馒	-13590
な	-13591
侠	-13592
僧	-13593
凰	-13594
剃	-13595
剖	-13596
勺	-13597
卯	-13598
吨	-13599
吶	-13600
唆	-13601
喀	-13602
妓	-13603
妞	-13604
攘	-13605
暇	-13606
朔	-13607
杞	-13608
橇	-13609
橱	-13610
沢	-13611
渠	-13612
熙	-13613
猥	-13614
畑	-13615
瘫	-13616
睽	-13617
經	-13618
菱	-13619
藉	-13620
蟑	-13621
見	-13622
謝	-13623
貼	-13624
贬	-13625
蹬	-13626
醇	-13627
錯	-13628
镶	-13629
長	-13630
開	-13631
鱿	-13632
鳄	-13633
鳗	-13634
鸫	-13635
〇	-13636
さ	-13637
佯	-13638
倔	-13639
冴	-13640
卒	-13641
卓	-13642
呕	-13643
哄	-13644
啸	-13645
嗓	-13646
噔	-13647
噪	-13648
坊	-13649
娶	-13650
媚	-13651
孵	-13652
悸	-13653
慨	-13654
拇	-13655
拭	-13656
揽	-13657
朽	-13658
栩	-13659
棕	-13660
楠	-13661
榀	-13662
機	-13663
殺	-13664
毋	-13665
烬	-13666
當	-13667
皱	-13668
盂	-13669
糠	-13670
绸	-13671
缪	-13672
肘	-13673
芹	-13674
蔑	-13675
蔓	-13676
蚊	-13677
蛭	-13678
蜕	-13679
蝎	-13680
蝙	-13681
蝼	-13682
诛	-13683
豺	-13684
阎	-13685
飕	-13686
骤	-13687
魁	-13688
鲭	-13689
鹈	-13690
鹫	-13691
鼹	-13692
は	-13693
凋	-13694
匕	-13695
吠	-13696
咏	-13697
堀	-13698
婶	-13699
幌	-13700
彥	-13701
怦	-13702
恳	-13703
慊	-13704
應	-13705
抉	-13706
拧	-13707
株	-13708
氓	-13709
洪	-13710
渕	-13711
澜	-13712
烊	-13713
琢	-13714
發	-13715
缀	-13716
缆	-13717
腺	-13718
膨	-13719
舵	-13720
舷	-13721
苇	-13722
苛	-13723
萩	-13724
蔚	-13725
衔	-13726
該	-13727
雁	-13728
靡	-13729
鲛	-13730
。	-13731
か	-13732
し	-13733
冤	-13734
唾	-13735
坪	-13736
峙	-13737
巽	-13738
徨	-13739
揣	-13740
於	-13741
晾	-13742
杖	-13743
梳	-13744
梵	-13745
殉	-13746
汐	-13747
汞	-13748
汹	-13749
泌	-13750
洼	-13751
淫	-13752
滓	-13753
烘	-13754
疚	-13755
痪	-13756
瘴	-13757
眸	-13758
糸	-13759
纂	-13760
绢	-13761
茵	-13762
荆	-13763
菈	-13764
蛀	-13765
記	-13766
讼	-13767
诵	-13768
蹋	-13769
躬	-13770
轿	-13771
辻	-13772
迭	-13773
锯	-13774
闺	-13775
颂	-13776
馁	-13777
驿	-13778
黒	-13779
【	-13780
】	-13781
に	-13782
丞	-13783
倘	-13784
叙	-13785
噌	-13786
垢	-13787
婿	-13788
學	-13789
屑	-13790
巅	-13791
帚	-13792
師	-13793
弩	-13794
恤	-13795
搪	-13796
枷	-13797
柠	-13798
毯	-13799
沌	-13800
湛	-13801
牡	-13802
狒	-13803
獭	-13804
甸	-13805
畔	-13806
皂	-13807
瞻	-13808
碇	-13809
竿	-13810
笋	-13811
簿	-13812
粥	-13813
結	-13814
肋	-13815
肝	-13816
茎	-13817
詹	-13818
辖	-13819
辗	-13820
逍	-13821
锏	-13822
锵	-13823
闸	-13824
靶	-13825
馈	-13826
骼	-13827
鹭	-13828
が	-13829
り	-13830
ん	-13831
亵	-13832
仲	-13833
俳	-13834
刘	-13835
動	-13836
厦	-13837
吱	-13838
咩	-13839
噼	-13840
嚎	-13841
嚯	-13842
囔	-13843
妾	-13844
姜	-13845
屉	-13846
屡	-13847
庶	-13848
忏	-13849
忐	-13850
忑	-13851
怂	-13852
撬	-13853
敛	-13854
栞	-13855
梶	-13856
榄	-13857
橄	-13858
檬	-13859
毗	-13860
浣	-13861
漩	-13862
穹	-13863
簧	-13864
缕	-13865
肴	-13866
肾	-13867
舜	-13868
蕊	-13869
蛤	-13870
觅	-13871
許	-13872
認	-13873
請	-13874
谴	-13875
赦	-13876
跋	-13877
蹊	-13878
辫	-13879
遂	-13880
酵	-13881
铸	-13882
锚	-13883
锥	-13884
間	-13885
陡	-13886
飒	-13887
饯	-13888
麒	-13889
こ	-13890
亨	-13891
僻	-13892
円	-13893
勅	-13894
卦	-13895
叭	-13896
吭	-13897
哑	-13898
喳	-13899
坞	-13900
塘	-13901
壕	-13902
媽	-13903
從	-13904
恍	-13905
惦	-13906
戌	-13907
東	-13908
桨	-13909
榻	-13910
洽	-13911
烙	-13912
琦	-13913
眺	-13914
矗	-13915
碉	-13916
窘	-13917
綜	-13918
纲	-13919
翩	-13920
聽	-13921
胧	-13922
菠	-13923
菩	-13924
萃	-13925
葩	-13926
蚤	-13927
蝉	-13928
袍	-13929
讧	-13930
谬	-13931
趾	-13932
進	-13933
釜	-13934
钞	-13935
钦	-13936
铝	-13937
铲	-13938
頭	-13939
鲍	-13940
た	-13941
亭	-13942
侥	-13943
僚	-13944
兩	-13945
噫	-13946
墩	-13947
婊	-13948
媾	-13949
寐	-13950
岭	-13951
彰	-13952
忒	-13953
悯	-13954
悼	-13955
惺	-13956
懊	-13957
懵	-13958
捆	-13959
敝	-13960
晤	-13961
曳	-13962
梆	-13963
樋	-13964
沛	-13965
泵	-13966
涵	-13967
涸	-13968
滔	-13969
灶	-13970
烩	-13971
焕	-13972
熠	-13973
眈	-13974
瞌	-13975
矫	-13976
硝	-13977
筛	-13978
箔	-13979
總	-13980
缎	-13981
舆	-13982
蕨	-13983
蜓	-13984
褪	-13985
誰	-13986
贿	-13987
赊	-13988
踹	-13989
迢	-13990
連	-13991
邊	-13992
锈	-13993
關	-13994
靴	-13995
颅	-13996
驴	-13997
鸥	-13998
う	-13999
け	-14000
る	-14001
ー	-14002
乾	-14003
侄	-14004
冨	-14005
卻	-14006
厭	-14007
咫	-14008
哆	-14009
員	-14010
嗡	-14011
噶	-14012
壹	-14013
嬉	-14014
宕	-14015
幢	-14016
恬	-14017
惟	-14018
惰	-14019
愛	-14020
慑	-14021
扼	-14022
抠	-14023
撮	-14024
擂	-14025
朦	-14026
桧	-14027
棱	-14028
槻	-14029
殷	-14030
涛	-14031
漱	-14032
潇	-14033
眩	-14034
睿	-14035
磕	-14036
祠	-14037
篠	-14038
羹	-14039
翱	-14040
荧	-14041
荫	-14042
蚯	-14043
討	-14044
訴	-14045
貉	-14046
赂	-14047
辽	-14048
遢	-14049
邋	-14050
酌	-14051
铛	-14052
锷	-14053
锹	-14054
镯	-14055
阐	-14056
颓	-14057
驭	-14058
髦	-14059
鳖	-14060
鸠	-14061
鹦	-14062
つ	-14063
丙	-14064
嗖	-14065
嗝	-14066
嘤	-14067
噎	-14068
垦	-14069
夥	-14070
娴	-14071
實	-14072
將	-14073
弧	-14074
忤	-14075
惋	-14076
憩	-14077
拗	-14078
拴	-14079
旬	-14080
暧	-14081
栅	-14082
梢	-14083
氨	-14084
沐	-14085
淀	-14086
渍	-14087
渎	-14088
漉	-14089
灿	-14090
炯	-14091
炽	-14092
烁	-14093
瑶	-14094
瓮	-14095
眯	-14096
矣	-14097
確	-14098
禀	-14099
禽	-14100
糗	-14101
糙	-14102
紊	-14103
聒	-14104
肪	-14105
腋	-14106
腓	-14107
葫	-14108
蘸	-14109
袱	-14110
覇	-14111
觊	-14112
觎	-14113
觑	-14114
語	-14115
谭	-14116
蹶	-14117
辦	-14118
酥	-14119
铦	-14120
門	-14121
隊	-14122
隘	-14123
雖	-14124
霙	-14125
靖	-14126
韦	-14127
題	-14128
願	-14129
類	-14130
魇	-14131
鶇	-14132
鸿	-14133
く	-14134
ち	-14135
と	-14136
ら	-14137
を	-14138
乓	-14139
亥	-14140
仕	-14141
伶	-14142
俣	-14143
兒	-14144
凳	-14145
刽	-14146
剛	-14147
勘	-14148
匈	-14149
咣	-14150
唷	-14151
啵	-14152
喇	-14153
嗑	-14154
嘀	-14155
嘈	-14156
囉	-14157
垠	-14158
埼	-14159
報	-14160
夭	-14161
婉	-14162
孟	-14163
孰	-14164
寥	-14165
屐	-14166
岐	-14167
嶋	-14168
帜	-14169
幫	-14170
庐	-14171
惮	-14172
戛	-14173
拣	-14174
撰	-14175
昌	-14176
昵	-14177
杠	-14178
楪	-14179
榉	-14180
榛	-14181
殇	-14182
氰	-14183
汲	-14184
涤	-14185
淆	-14186
滤	-14187
濡	-14188
焙	-14189
瑕	-14190
甥	-14191
疙	-14192
痣	-14193
瘁	-14194
瘟	-14195
瘩	-14196
瘪	-14197
瞑	-14198
砌	-14199
硅	-14200
磐	-14201
糜	-14202
绣	-14203
缜	-14204
羚	-14205
聆	-14206
臊	-14207
臙	-14208
芋	-14209
苑	-14210
萦	-14211
蔵	-14212
薫	-14213
蛉	-14214
蜊	-14215
蟒	-14216
裆	-14217
襟	-14218
變	-14219
诫	-14220
谙	-14221
蹿	-14222
達	-14223
鑢	-14224
阂	-14225
靈	-14226
韭	-14227
颖	-14228
骆	-14229
魑	-14230
鶴	-14231
鸢	-14232
鹉	-14233
麾	-14234
え	-14235
ば	-14236
ひ	-14237
め	-14238
や	-14239
イ	-14240
並	-14241
乒	-14242
伫	-14243
佤	-14244
倡	-14245
倭	-14246
偎	-14247
傩	-14248
傷	-14249
儒	-14250
兎	-14251
剁	-14252
勳	-14253
匀	-14254
叡	-14255
吁	-14256
嘭	-14257
嘶	-14258
圄	-14259
坨	-14260
垄	-14261
寅	-14262
寨	-14263
岌	-14264
巩	-14265
帖	-14266
廓	-14267
惡	-14268
戎	-14269
捂	-14270
捎	-14271
換	-14272
搂	-14273
撩	-14274
擔	-14275
晦	-14276
曬	-14277
枡	-14278
栉	-14279
桔	-14280
毘	-14281
毡	-14282
沥	-14283
浏	-14284
湍	-14285
潟	-14286
炙	-14287
焊	-14288
猬	-14289
獠	-14290
獾	-14291
琌	-14292
琵	-14293
琼	-14294
璀	-14295
璨	-14296
甄	-14297
異	-14298
畴	-14299
疮	-14300
疹	-14301
瘤	-14302
皋	-14303
皿	-14304
眶	-14305
瞅	-14306
碱	-14307
碴	-14308
禾	-14309
纮	-14310
耷	-14311
胺	-14312
臆	-14313
臼	-14314
興	-14315
荻	-14316
蜗	-14317
螳	-14318
袤	-14319
褐	-14320
褒	-14321
覽	-14322
護	-14323
讳	-14324
踵	-14325
蹄	-14326
蹩	-14327
迸	-14328
遠	-14329
郑	-14330
醺	-14331
钾	-14332
铆	-14333
锖	-14334
镭	-14335
隅	-14336
難	-14337
靓	-14338
靛	-14339
骋	-14340
魏	-14341
鰤	-14342
鳍	-14343
鳕	-14344
黯	-14345
み	-14346
パ	-14347
ラ	-14348
ン	-14349
俏	-14350
俐	-14351
俑	-14352
傢	-14353
僕	-14354
僭	-14355
儆	-14356
冶	-14357
剐	-14358
厩	-14359
吝	-14360
咀	-14361
咢	-14362
咿	-14363
哐	-14364
哺	-14365
唁	-14366
啬	-14367
喏	-14368
嗷	-14369
嗽	-14370
嘁	-14371
嘣	-14372
嚏	-14373
嚓	-14374
坍	-14375
垩	-14376
堑	-14377
奄	-14378
奎	-14379
娑	-14380
娩	-14381
孑	-14382
孢	-14383
弑	-14384
彤	-14385
恿	-14386
悖	-14387
慷	-14388
拎	-14389
挟	-14390
掂	-14391
搓	-14392
摹	-14393
撸	-14394
攸	-14395
敕	-14396
斟	-14397
柑	-14398
椚	-14399
楞	-14400
榆	-14401
歲	-14402
殃	-14403
氣	-14404
沧	-14405
漸	-14406
煲	-14407
爾	-14408
牠	-14409
犷	-14410
狀	-14411
璐	-14412
痞	-14413
瘆	-14414
盏	-14415
盹	-14416
瞭	-14417
砚	-14418
磋	-14419
祉	-14420
祐	-14421
祓	-14422
祗	-14423
禊	-14424
秤	-14425
稣	-14426
窑	-14427
窖	-14428
筵	-14429
篑	-14430
簇	-14431
糯	-14432
絕	-14433
絮	-14434
缄	-14435
缈	-14436
缥	-14437
羔	-14438
聲	-14439
胭	-14440
腑	-14441
與	-14442
茴	-14443
萧	-14444
蔡	-14445
蕗	-14446
藐	-14447
蚕	-14448
蛊	-14449
蛰	-14450
蛹	-14451
蜒	-14452
蜿	-14453
褓	-14454
親	-14455
試	-14456
诃	-14457
诋	-14458
诽	-14459
谒	-14460
谤	-14461
贽	-14462
赃	-14463
踞	-14464
轩	-14465
辍	-14466
辘	-14467
逾	-14468
酝	-14469
钙	-14470
钴	-14471
铩	-14472
镑	-14473
陸	-14474
雜	-14475
雳	-14476
霆	-14477
霰	-14478
霹	-14479
霾	-14480
骇	-14481
鬧	-14482
魉	-14483
魍	-14484
黾	-14485
鼬	-14486
す	-14487
だ	-14488
ぼ	-14489
亂	-14490
亘	-14491
佼	-14492
係	-14493
倫	-14494
備	-14495
兀	-14496
冀	-14497
冽	-14498
務	-14499
卍	-14500
厥	-14501
叼	-14502
呣	-14503
呸	-14504
咄	-14505
咔	-14506
啕	-14507
嗒	-14508
嗙	-14509
嗞	-14510
嗬	-14511
噛	-14512
噠	-14513
坯	-14514
坷	-14515
場	-14516
夠	-14517
姗	-14518
姚	-14519
娟	-14520
娼	-14521
媛	-14522
孜	-14523
宋	-14524
寮	-14525
屍	-14526
屯	-14527
峨	-14528
嵯	-14529
弈	-14530
彈	-14531
彪	-14532
徙	-14533
徹	-14534
忱	-14535
恵	-14536
悴	-14537
惚	-14538
慵	-14539
憔	-14540
憶	-14541
擊	-14542
攥	-14543
斐	-14544
斓	-14545
旷	-14546
曙	-14547
曜	-14548
杳	-14549
栾	-14550
梼	-14551
棠	-14552
楷	-14553
槃	-14554
樑	-14555
樽	-14556
氢	-14557
決	-14558
沈	-14559
沏	-14560
沽	-14561
涎	-14562
涮	-14563
淤	-14564
淬	-14565
淳	-14566
溉	-14567
漓	-14568
澎	-14569
烯	-14570
煩	-14571
琅	-14572
琶	-14573
瑛	-14574
畸	-14575
疵	-14576
痂	-14577
皎	-14578
皓	-14579
睐	-14580
睬	-14581
硕	-14582
硫	-14583
磊	-14584
磷	-14585
秧	-14586
稼	-14587
穦	-14588
竣	-14589
笞	-14590
簪	-14591
粼	-14592
紅	-14593
絶	-14594
維	-14595
續	-14596
纍	-14597
绉	-14598
缭	-14599
缮	-14600
聂	-14601
聋	-14602
胛	-14603
脐	-14604
脓	-14605
脫	-14606
腦	-14607
膈	-14608
臀	-14609
艮	-14610
芍	-14611
莅	-14612
莴	-14613
莹	-14614
萋	-14615
蔗	-14616
薛	-14617
藓	-14618
蚱	-14619
蜀	-14620
蜃	-14621
蜷	-14622
蝗	-14623
衿	-14624
褥	-14625
襁	-14626
計	-14627
論	-14628
議	-14629
讃	-14630
诩	-14631
谚	-14632
踊	-14633
辐	-14634
迂	-14635
遁	-14636
鄂	-14637
酗	-14638
酣	-14639
鐚	-14640
钯	-14641
铎	-14642
铤	-14643
铨	-14644
镝	-14645
镳	-14646
雉	-14647
離	-14648
霭	-14649
飛	-14650
驮	-14651
鬃	-14652
鬣	-14653
鲣	-14654
鲤	-14655
鲱	-14656
鸳	-14657
鹕	-14658
黥	-14659
龊	-14660
龌	-14661
〈	-14662
〉	-14663
ぎ	-14664
っ	-14665
て	-14666
で	-14667
ど	-14668
ぱ	-14669
び	-14670
ほ	-14671
ま	-14672
む	-14673
も	-14674
ょ	-14675
ろ	-14676
わ	-14677
丟	-14678
亟	-14679
侃	-14680
侏	-14681
倪	-14682
傳	-14683
內	-14684
冉	-14685
剽	-14686
剿	-14687
匍	-14688
匐	-14689
匣	-14690
匮	-14691
吽	-14692
呤	-14693
咤	-14694
哞	-14695
唰	-14696
啄	-14697
啜	-14698
喃	-14699
喙	-14700
嗲	-14701
嚙	-14702
囱	-14703
國	-14704
團	-14705
堇	-14706
壞	-14707
壬	-14708
夾	-14709
奠	-14710
姊	-14711
媞	-14712
媲	-14713
孬	-14714
宸	-14715
寫	-14716
專	-14717
岖	-14718
岬	-14719
峯	-14720
崛	-14721
巖	-14722
帶	-14723
幹	-14724
廻	-14725
惬	-14726
愕	-14727
懷	-14728
戀	-14729
抡	-14730
拈	-14731
挎	-14732
掐	-14733
掖	-14734
摁	-14735
撅	-14736
撵	-14737
撿	-14738
據	-14739
