<pad>	0
<unk>	0
<s>	0
</s>	0
<0x00>	0
<0x01>	0
<0x02>	0
<0x03>	0
<0x04>	0
<0x05>	0
<0x06>	0
<0x07>	0
<0x08>	0
<0x09>	0
<0x0A>	0
<0x0B>	0
<0x0C>	0
<0x0D>	0
<0x0E>	0
<0x0F>	0
<0x10>	0
<0x11>	0
<0x12>	0
<0x13>	0
<0x14>	0
<0x15>	0
<0x16>	0
<0x17>	0
<0x18>	0
<0x19>	0
<0x1A>	0
<0x1B>	0
<0x1C>	0
<0x1D>	0
<0x1E>	0
<0x1F>	0
<0x20>	0
<0x21>	0
<0x22>	0
<0x23>	0
<0x24>	0
<0x25>	0
<0x26>	0
<0x27>	0
<0x28>	0
<0x29>	0
<0x2A>	0
<0x2B>	0
<0x2C>	0
<0x2D>	0
<0x2E>	0
<0x2F>	0
<0x30>	0
<0x31>	0
<0x32>	0
<0x33>	0
<0x34>	0
<0x35>	0
<0x36>	0
<0x37>	0
<0x38>	0
<0x39>	0
<0x3A>	0
<0x3B>	0
<0x3C>	0
<0x3D>	0
<0x3E>	0
<0x3F>	0
<0x40>	0
<0x41>	0
<0x42>	0
<0x43>	0
<0x44>	0
<0x45>	0
<0x46>	0
<0x47>	0
<0x48>	0
<0x49>	0
<0x4A>	0
<0x4B>	0
<0x4C>	0
<0x4D>	0
<0x4E>	0
<0x4F>	0
<0x50>	0
<0x51>	0
<0x52>	0
<0x53>	0
<0x54>	0
<0x55>	0
<0x56>	0
<0x57>	0
<0x58>	0
<0x59>	0
<0x5A>	0
<0x5B>	0
<0x5C>	0
<0x5D>	0
<0x5E>	0
<0x5F>	0
<0x60>	0
<0x61>	0
<0x62>	0
<0x63>	0
<0x64>	0
<0x65>	0
<0x66>	0
<0x67>	0
<0x68>	0
<0x69>	0
<0x6A>	0
<0x6B>	0
<0x6C>	0
<0x6D>	0
<0x6E>	0
<0x6F>	0
<0x70>	0
<0x71>	0
<0x72>	0
<0x73>	0
<0x74>	0
<0x75>	0
<0x76>	0
<0x77>	0
<0x78>	0
<0x79>	0
<0x7A>	0
<0x7B>	0
<0x7C>	0
<0x7D>	0
<0x7E>	0
<0x7F>	0
<0x80>	0
<0x81>	0
<0x82>	0
<0x83>	0
<0x84>	0
<0x85>	0
<0x86>	0
<0x87>	0
<0x88>	0
<0x89>	0
<0x8A>	0
<0x8B>	0
<0x8C>	0
<0x8D>	0
<0x8E>	0
<0x8F>	0
<0x90>	0
<0x91>	0
<0x92>	0
<0x93>	0
<0x94>	0
<0x95>	0
<0x96>	0
<0x97>	0
<0x98>	0
<0x99>	0
<0x9A>	0
<0x9B>	0
<0x9C>	0
<0x9D>	0
<0x9E>	0
<0x9F>	0
<0xA0>	0
<0xA1>	0
<0xA2>	0
<0xA3>	0
<0xA4>	0
<0xA5>	0
<0xA6>	0
<0xA7>	0
<0xA8>	0
<0xA9>	0
<0xAA>	0
<0xAB>	0
<0xAC>	0
<0xAD>	0
<0xAE>	0
<0xAF>	0
<0xB0>	0
<0xB1>	0
<0xB2>	0
<0xB3>	0
<0xB4>	0
<0xB5>	0
<0xB6>	0
<0xB7>	0
<0xB8>	0
<0xB9>	0
<0xBA>	0
<0xBB>	0
<0xBC>	0
<0xBD>	0
<0xBE>	0
<0xBF>	0
<0xC0>	0
<0xC1>	0
<0xC2>	0
<0xC3>	0
<0xC4>	0
<0xC5>	0
<0xC6>	0
<0xC7>	0
<0xC8>	0
<0xC9>	0
<0xCA>	0
<0xCB>	0
<0xCC>	0
<0xCD>	0
<0xCE>	0
<0xCF>	0
<0xD0>	0
<0xD1>	0
<0xD2>	0
<0xD3>	0
<0xD4>	0
<0xD5>	0
<0xD6>	0
<0xD7>	0
<0xD8>	0
<0xD9>	0
<0xDA>	0
<0xDB>	0
<0xDC>	0
<0xDD>	0
<0xDE>	0
<0xDF>	0
<0xE0>	0
<0xE1>	0
<0xE2>	0
<0xE3>	0
<0xE4>	0
<0xE5>	0
<0xE6>	0
<0xE7>	0
<0xE8>	0
<0xE9>	0
<0xEA>	0
<0xEB>	0
<0xEC>	0
<0xED>	0
<0xEE>	0
<0xEF>	0
<0xF0>	0
<0xF1>	0
<0xF2>	0
<0xF3>	0
<0xF4>	0
<0xF5>	0
<0xF6>	0
<0xF7>	0
<0xF8>	0
<0xF9>	0
<0xFA>	0
<0xFB>	0
<0xFC>	0
<0xFD>	0
<0xFE>	0
<0xFF>	0
って	-0
ない	-1
った	-2
して	-3
から	-4
▁そ	-5
です	-6
んだ	-7
した	-8
▁あ	-9
▁こ	-10
こと	-11
じゃ	-12
んな	-13
さん	-14
▁お	-15
ます	-16
いい	-17
ちゃ	-18
なん	-19
でも	-20
どう	-21
する	-22
いる	-23
っと	-24
いた	-25
かった	-26
よう	-27
れた	-28
にな	-29
▁それ	-30
れて	-31
いう	-32
いて	-33
のか	-34
けど	-35
ある	-36
▁何	-37
しい	-38
れる	-39
▁い	-40
には	-41
そう	-42
もう	-43
この	-44
▁ま	-45
ちゃん	-46
のは	-47
ました	-48
だけ	-49
ろう	-50
ねえ	-51
▁私	-52
なら	-53
じゃない	-54
▁この	-55
しょ	-56
たち	-57
いつ	-58
まで	-59
ませ	-60
▁今	-61
▁俺	-62
▁そう	-63
ってる	-64
でき	-65
なく	-66
だった	-67
んで	-68
ですか	-69
たい	-70
▁だ	-71
さい	-72
なんだ	-73
ません	-74
▁これ	-75
れば	-76
ちょ	-77
えて	-78
▁その	-79
しか	-80
それ	-81
お前	-82
と思	-83
▁や	-84
あり	-85
では	-86
その	-87
▁どう	-88
はい	-89
かな	-90
▁お前	-91
もの	-92
▁あの	-93
だよ	-94
しょう	-95
これ	-96
なかった	-97
▁う	-98
▁でも	-99
なんて	-100
▁な	-101
なた	-102
っち	-103
けて	-104
めて	-105
います	-106
んだよ	-107
とか	-108
あの	-109
のに	-110
という	-111
▁いや	-112
ねぇ	-113
える	-114
にも	-115
ちょっと	-116
んです	-117
▁さ	-118
ため	-119
ここ	-120
だろう	-121
もし	-122
自分	-123
のこと	-124
▁もう	-125
とは	-126
きた	-127
れない	-128
▁え	-129
とこ	-130
ール	-131
がある	-132
▁大	-133
どこ	-134
だな	-135
▁いい	-136
くだ	-137
▁よ	-138
分か	-139
だって	-140
しま	-141
ける	-142
▁一	-143
▁そんな	-144
だから	-145
より	-146
っか	-147
わけ	-148
じゃあ	-149
しく	-150
んた	-151
ター	-152
本当	-153
くれ	-154
ント	-155
せて	-156
▁す	-157
▁ああ	-158
言って	-159
▁ア	-160
っぱ	-161
みたい	-162
こう	-163
なの	-164
人の	-165
ください	-166
として	-167
もら	-168
▁ここ	-169
ート	-170
を見	-171
やって	-172
▁なん	-173
まだ	-174
みんな	-175
だろ	-176
そんな	-177
します	-178
ったら	-179
になる	-180
やる	-181
よね	-182
なくて	-183
▁ほ	-184
▁はい	-185
らない	-186
っている	-187
ック	-188
できる	-189
▁だから	-190
スト	-191
言う	-192
丈夫	-193
▁僕	-194
行く	-195
でしょう	-196
ーム	-197
▁た	-198
があ	-199
ところ	-200
らい	-201
ット	-202
とう	-203
してる	-204
なる	-205
とも	-206
好き	-207
たし	-208
▁「	-209
こんな	-210
けた	-211
▁人	-212
かに	-213
世界	-214
▁おい	-215
せる	-216
ことは	-217
まり	-218
▁あれ	-219
▁わ	-220
ですね	-221
てる	-222
来た	-223
くん	-224
先生	-225
生き	-226
っちゃ	-227
えた	-228
のお	-229
リー	-230
時間	-231
▁あなた	-232
▁エ	-233
された	-234
ライ	-235
ほど	-236
レン	-237
める	-238
はず	-239
▁も	-240
▁ど	-241
にして	-242
ような	-243
つも	-244
くる	-245
んじゃ	-246
られた	-247
違う	-248
いない	-249
また	-250
ごめ	-251
の中	-252
しない	-253
ります	-254
▁じゃあ	-255
ラン	-256
同じ	-257
▁君	-258
ために	-259
に入	-260
ってた	-261
ように	-262
のです	-263
あなた	-264
▁つ	-265
言わ	-266
よく	-267
やつ	-268
されて	-269
られる	-270
さんの	-271
▁ちょっと	-272
持ち	-273
んですか	-274
▁マ	-275
人が	-276
▁俺は	-277
ディ	-278
▁しか	-279
ことを	-280
んの	-281
一緒	-282
見て	-283
っき	-284
何か	-285
▁私は	-286
先輩	-287
▁それは	-288
人間	-289
食べ	-290
したら	-291
早く	-292
ング	-293
している	-294
▁と	-295
本当に	-296
▁こんな	-297
ース	-298
になって	-299
くな	-300
ですよ	-301
いや	-302
ード	-303
りゃ	-304
とき	-305
と思う	-306
バカ	-307
日は	-308
まま	-309
▁うん	-310
思い	-311
終わ	-312
なんか	-313
▁そして	-314
ことが	-315
来る	-316
ティ	-317
もん	-318
ダメ	-319
前に	-320
だと	-321
チャ	-322
がとう	-323
▁は	-324
くれた	-325
えば	-326
▁誰	-327
こそ	-328
いく	-329
ンド	-330
逃げ	-331
しろ	-332
仕事	-333
悪い	-334
しゃ	-335
▁彼	-336
さんが	-337
願い	-338
▁あっ	-339
られ	-340
▁まあ	-341
ちら	-342
変わ	-343
少し	-344
のが	-345
でしょ	-346
リア	-347
取り	-348
めた	-349
すぐ	-350
んじゃない	-351
さか	-352
▁オ	-353
っぱり	-354
に行	-355
くれる	-356
けない	-357
いました	-358
いで	-359
かない	-360
かり	-361
▁最	-362
絶対	-363
力を	-364
ござ	-365
にか	-366
えない	-367
バー	-368
相手	-369
待って	-370
さんは	-371
言った	-372
いな	-373
ほう	-374
巨人	-375
聞いて	-376
になった	-377
しよう	-378
ショ	-379
がない	-380
▁あんた	-381
すぎ	-382
かもし	-383
ありません	-384
▁ク	-385
っても	-386
そこ	-387
大丈夫	-388
来て	-389
たちは	-390
まった	-391
ちゃんと	-392
出て	-393
シャ	-394
でした	-395
はない	-396
▁全	-397
んだけど	-398
のよ	-399
▁まだ	-400
つもり	-401
あんた	-402
きゃ	-403
ファ	-404
落ち	-405
▁見	-406
っていう	-407
感じ	-408
ずっと	-409
イン	-410
俺の	-411
▁だが	-412
▁また	-413
られて	-414
▁自分	-415
きな	-416
必要	-417
▁しかし	-418
私の	-419
される	-420
りに	-421
以上	-422
あった	-423
一人	-424
ごめん	-425
ジャ	-426
無理	-427
あげ	-428
あれ	-429
ければ	-430
たら	-431
にいる	-432
▁これは	-433
俺は	-434
だね	-435
の人	-436
くない	-437
カー	-438
頑張	-439
ついて	-440
ので	-441
たちの	-442
っす	-443
っていた	-444
がいい	-445
できない	-446
▁何か	-447
じゃん	-448
だし	-449
▁次	-450
一緒に	-451
場所	-452
など	-453
ではない	-454
▁気	-455
あります	-456
うち	-457
ごい	-458
しました	-459
りました	-460
スタ	-461
ーン	-462
よかった	-463
からな	-464
のだ	-465
ヤツ	-466
ップ	-467
引き	-468
らしい	-469
▁で	-470
され	-471
分から	-472
▁それが	-473
▁あいつ	-474
にお	-475
▁みんな	-476
持って	-477
キャ	-478
▁なんだ	-479
くらい	-480
やが	-481
きっと	-482
きます	-483
シュ	-484
なさい	-485
人は	-486
▁か	-487
らの	-488
あいつ	-489
▁我	-490
くて	-491
名前	-492
いに	-493
上げ	-494
▁そこ	-495
▁大丈夫	-496
日の	-497
きて	-498
だけど	-499
▁ハ	-500
をつ	-501
かい	-502
はどう	-503
信じ	-504
意味	-505
知ら	-506
ンス	-507
▁カ	-508
▁なんで	-509
ージ	-510
とな	-511
ましょう	-512
子供	-513
ってこと	-514
ーク	-515
ジョ	-516
私は	-517
なきゃ	-518
かる	-519
わよ	-520
▁ええ	-521
▁フ	-522
りの	-523
▁ただ	-524
レー	-525
何も	-526
のも	-527
学校	-528
▁さあ	-529
んだから	-530
確かに	-531
んだろう	-532
っかり	-533
くり	-534
楽し	-535
考え	-536
べて	-537
おい	-538
女の	-539
▁コ	-540
何を	-541
こっち	-542
レイ	-543
▁イ	-544
そろ	-545
お願い	-546
気が	-547
の方	-548
心配	-549
いか	-550
がら	-551
▁どこ	-552
いません	-553
手に	-554
私が	-555
なのか	-556
ロー	-557
じゃねえ	-558
しまった	-559
ただ	-560
まる	-561
▁ほら	-562
させ	-563
気持ち	-564
さんに	-565
いろ	-566
たちが	-567
なくな	-568
タイ	-569
関係	-570
出す	-571
言葉	-572
ありがとう	-573
俺が	-574
問題	-575
考えて	-576
▁本	-577
間違	-578
▁バ	-579
▁もし	-580
すれば	-581
▁エレン	-582
▁やっぱり	-583
によ	-584
よな	-585
ても	-586
▁まさか	-587
べき	-588
わね	-589
友達	-590
かって	-591
教えて	-592
上が	-593
▁年	-594
一つ	-595
こいつ	-596
かも	-597
▁いつ	-598
やり	-599
だが	-600
初めて	-601
ナー	-602
二人	-603
貴様	-604
もない	-605
仲間	-606
らは	-607
っしゃ	-608
を殺	-609
▁どうして	-610
それは	-611
▁ス	-612
▁あり	-613
日本	-614
したい	-615
▁それで	-616
そういう	-617
合わ	-618
▁俺の	-619
分かる	-620
▁て	-621
だけで	-622
パン	-623
やった	-624
▁ご	-625
ラス	-626
▁えっ	-627
▁よし	-628
▁ウ	-629
部屋	-630
との	-631
ございます	-632
ここに	-633
▁シ	-634
いよ	-635
▁私の	-636
だぞ	-637
ッド	-638
ってきた	-639
ですが	-640
出して	-641
当た	-642
死ぬ	-643
やら	-644
かし	-645
たく	-646
試合	-647
▁じゃ	-648
別に	-649
▁なぜ	-650
▁実	-651
▁こいつ	-652
とお	-653
待て	-654
▁ミ	-655
手を	-656
分かった	-657
があった	-658
ホント	-659
かよ	-660
を守	-661
ないで	-662
能力	-663
なんで	-664
しちゃ	-665
▁それに	-666
▁だって	-667
かもしれない	-668
させて	-669
である	-670
スター	-671
▁サ	-672
さま	-673
自分の	-674
可能	-675
すが	-676
もっと	-677
受け	-678
したの	-679
なんだよ	-680
間に	-681
チーム	-682
んと	-683
していた	-684
いの	-685
にと	-686
ーの	-687
▁キ	-688
▁では	-689
してた	-690
どんな	-691
んだろ	-692
られない	-693
▁私が	-694
必ず	-695
だったら	-696
▁俺が	-697
なぁ	-698
行って	-699
かしい	-700
なければ	-701
アル	-702
ヴァ	-703
攻撃	-704
つけ	-705
にする	-706
知らない	-707
がいる	-708
お前の	-709
ンの	-710
▁何だ	-711
かわ	-712
なあ	-713
見た	-714
っくり	-715
ッチ	-716
うん	-717
に出	-718
生ま	-719
んど	-720
ろしく	-721
今日	-722
できた	-723
イト	-724
最後	-725
▁こう	-726
ひと	-727
▁お前は	-728
らく	-729
ルの	-730
と同じ	-731
▁し	-732
りたい	-733
▁何で	-734
まえ	-735
野郎	-736
母さん	-737
おう	-738
ュー	-739
ないよ	-740
なのに	-741
▁そういう	-742
ると	-743
▁本当に	-744
普通	-745
と思って	-746
なんです	-747
に戻	-748
情報	-749
いたい	-750
っつ	-751
全部	-752
これは	-753
まって	-754
一度	-755
人を	-756
▁結	-757
イス	-758
▁今日	-759
▁僕は	-760
の話	-761
言い	-762
▁ごめん	-763
▁なんか	-764
のために	-765
聞いた	-766
と思った	-767
▁まず	-768
付き	-769
▁ねえ	-770
存在	-771
一番	-772
っけ	-773
への	-774
明日	-775
帰って	-776
を使	-777
あと	-778
からね	-779
るの	-780
まい	-781
しまう	-782
約束	-783
▁ナ	-784
起こ	-785
めえ	-786
くれて	-787
ゲーム	-788
▁ち	-789
マン	-790
全て	-791
にある	-792
ション	-793
▁今日は	-794
ことも	-795
きました	-796
とい	-797
▁無	-798
しても	-799
みたいな	-800
ここで	-801
じゃないか	-802
▁手	-803
ども	-804
なよ	-805
ジェ	-806
だぜ	-807
われ	-808
通り	-809
生きて	-810
きたい	-811
エレン	-812
▁そうだ	-813
練習	-814
ほしい	-815
知ってる	-816
▁く	-817
▁ちょ	-818
▁せ	-819
▁勝	-820
前の	-821
▁オレ	-822
ってお	-823
さえ	-824
らが	-825
メン	-826
▁こっち	-827
▁これで	-828
分からない	-829
パー	-830
▁よく	-831
▁正	-832
リン	-833
ばかり	-834
時に	-835
いつも	-836
ダー	-837
君の	-838
▁小	-839
オレ	-840
作戦	-841
ぐらい	-842
んない	-843
▁死	-844
高校	-845
あんな	-846
はお	-847
フェ	-848
してお	-849
のかな	-850
▁後	-851
事件	-852
ボール	-853
▁これが	-854
言ってる	-855
強い	-856
お前は	-857
ベル	-858
ラー	-859
切り	-860
▁目	-861
せた	-862
リス	-863
大事	-864
っこ	-865
見つ	-866
駄目	-867
ずに	-868
頼む	-869
▁ありがとう	-870
的に	-871
▁先	-872
元気	-873
ったの	-874
にかく	-875
のことを	-876
▁中	-877
▁地	-878
思う	-879
桜木	-880
もらう	-881
われて	-882
▁確かに	-883
▁あたし	-884
みません	-885
理由	-886
的な	-887
立ち	-888
調査	-889
しかない	-890
過ぎ	-891
わない	-892
父さん	-893
コン	-894
すごい	-895
んのか	-896
▁三	-897
込んで	-898
止め	-899
▁さっき	-900
▁バカ	-901
しに	-902
人に	-903
君は	-904
でもない	-905
合い	-906
方が	-907
者の	-908
▁何を	-909
サー	-910
でいい	-911
なこと	-912
▁ふ	-913
かの	-914
はもう	-915
▁もっと	-916
ほうが	-917
しかして	-918
ステ	-919
▁戦	-920
捨て	-921
出した	-922
は何	-923
ちゃんの	-924
ならない	-925
▁つまり	-926
子が	-927
警察	-928
覚えて	-929
ねー	-930
東京	-931
家族	-932
▁って	-933
るよ	-934
いただ	-935
そうだ	-936
連れて	-937
▁新	-938
ヴィ	-939
なって	-940
▁お前の	-941
▁本当	-942
▁皆	-943
ながら	-944
んだって	-945
しと	-946
わざ	-947
邪魔	-948
▁セ	-949
▁行	-950
るか	-951
▁早く	-952
させる	-953
っぽ	-954
はり	-955
子の	-956
状況	-957
▁いえ	-958
▁分か	-959
落ち着	-960
をか	-961
を持	-962
入れ	-963
全然	-964
兵団	-965
あたし	-966
ったく	-967
▁自	-968
エル	-969
まして	-970
▁チ	-971
▁パ	-972
が出	-973
まず	-974
らん	-975
を見て	-976
ちろ	-977
大き	-978
けば	-979
ごめんな	-980
ちゃんが	-981
ですから	-982
すか	-983
▁うち	-984
やろう	-985
なくても	-986
▁ユ	-987
らに	-988
アイ	-989
▁おお	-990
つく	-991
待ち	-992
▁なに	-993
んだな	-994
▁それを	-995
どうして	-996
んですよ	-997
ところで	-998
にとって	-999
フィ	-1000
を作	-1001
彼女	-1002
ことに	-1003
ルー	-1004
どうする	-1005
スの	-1006
人で	-1007
▁あら	-1008
▁ヒ	-1009
失礼	-1010
▁私も	-1011
▁リ	-1012
いだ	-1013
▁違う	-1014
準備	-1015
子は	-1016
お願いします	-1017
▁二	-1018
▁夏	-1019
投げ	-1020
▁今の	-1021
ってない	-1022
記憶	-1023
▁あんな	-1024
クト	-1025
▁ひ	-1026
らず	-1027
話を	-1028
さんも	-1029
がい	-1030
ごく	-1031
▁あと	-1032
さっき	-1033
▁ここは	-1034
やす	-1035
はこの	-1036
▁出	-1037
気に	-1038
なし	-1039
今の	-1040
連絡	-1041
からの	-1042
さんと	-1043
りを	-1044
言ってた	-1045
助け	-1046
何が	-1047
でもいい	-1048
じゃなくて	-1049
だけだ	-1050
に見	-1051
いてる	-1052
▁どんな	-1053
▁真	-1054
のため	-1055
じゃねぇ	-1056
みて	-1057
めろ	-1058
知り	-1059
しかった	-1060
▁不	-1061
中に	-1062
▁お前が	-1063
▁ド	-1064
▁ブ	-1065
▁他	-1066
くら	-1067
▁なら	-1068
ことだ	-1069
助けて	-1070
代わ	-1071
勝負	-1072
だけは	-1073
▁ト	-1074
りは	-1075
大変	-1076
かげ	-1077
とした	-1078
に行く	-1079
ちゃった	-1080
▁これから	-1081
イル	-1082
写真	-1083
▁ダメ	-1084
せない	-1085
一体	-1086
▁今度	-1087
してくれ	-1088
イント	-1089
▁こちら	-1090
よろしく	-1091
面白	-1092
ですよね	-1093
くの	-1094
ケー	-1095
キー	-1096
今日は	-1097
かもしれ	-1098
はまだ	-1099
▁さすが	-1100
▁ガ	-1101
に会	-1102
何で	-1103
電話	-1104
▁どうした	-1105
フォ	-1106
合う	-1107
お前が	-1108
まあ	-1109
時代	-1110
われた	-1111
われる	-1112
っさ	-1113
ッシュ	-1114
ぶり	-1115
プロ	-1116
確か	-1117
▁海	-1118
なぜ	-1119
んなら	-1120
▁そうか	-1121
めぇ	-1122
マー	-1123
聞こ	-1124
ちゃう	-1125
▁テ	-1126
打ち	-1127
簡単	-1128
らっしゃ	-1129
でしょうか	-1130
んじゃねえ	-1131
さない	-1132
高い	-1133
▁ゴ	-1134
▁敵	-1135
に乗	-1136
▁絶対	-1137
ったり	-1138
るんだ	-1139
下さい	-1140
の大	-1141
危険	-1142
目の	-1143
▁先生	-1144
いは	-1145
の力	-1146
▁けど	-1147
▁きっと	-1148
アン	-1149
これから	-1150
だろうが	-1151
▁メ	-1152
▁とにかく	-1153
があります	-1154
かね	-1155
まく	-1156
以外	-1157
暮ら	-1158
いけない	-1159
どういう	-1160
ぶん	-1161
るな	-1162
勉強	-1163
場合	-1164
申し	-1165
によって	-1166
ニー	-1167
君が	-1168
手伝	-1169
ちろん	-1170
をする	-1171
と思います	-1172
▁残	-1173
幸せ	-1174
すべて	-1175
▁そりゃ	-1176
っちゃった	-1177
の一	-1178
命を	-1179
怖い	-1180
者は	-1181
かが	-1182
ってくる	-1183
▁殺	-1184
ルト	-1185
時は	-1186
▁そんなこと	-1187
しの	-1188
体を	-1189
年の	-1190
ごめんなさい	-1191
最初	-1192
▁少し	-1193
いった	-1194
っきり	-1195
やっぱり	-1196
付け	-1197
生徒	-1198
確認	-1199
近づ	-1200
▁まぁ	-1201
▁日	-1202
オー	-1203
僕は	-1204
そうな	-1205
いが	-1206
動き	-1207
▁貴様	-1208
リカ	-1209
んでした	-1210
▁現	-1211
国の	-1212
完全	-1213
気を	-1214
物の	-1215
言え	-1216
までは	-1217
先に	-1218
それを	-1219
よりも	-1220
太郎	-1221
▁当	-1222
▁待って	-1223
▁レ	-1224
▁女	-1225
まん	-1226
を探	-1227
全員	-1228
帰り	-1229
事を	-1230
それが	-1231
兄ちゃん	-1232
はずだ	-1233
もある	-1234
好きな	-1235
ンジ	-1236
休み	-1237
我々	-1238
んだぞ	-1239
んでる	-1240
ジャン	-1241
▁ここで	-1242
ればいい	-1243
▁天	-1244
ろよ	-1245
家の	-1246
立て	-1247
▁あれは	-1248
目を	-1249
れてる	-1250
くせ	-1251
▁わたし	-1252
ことがある	-1253
えず	-1254
久し	-1255
手に入	-1256
どうか	-1257
まさか	-1258
やれ	-1259
っちゃう	-1260
ませんでした	-1261
者が	-1262
追い	-1263
▁世界	-1264
について	-1265
してきた	-1266
▁へ	-1267
だわ	-1268
イツ	-1269
子さん	-1270
っぱい	-1271
ものを	-1272
▁神	-1273
時の	-1274
▁我々	-1275
向こう	-1276
くれない	-1277
じい	-1278
はその	-1279
みたいに	-1280
▁ダ	-1281
安心	-1282
▁彼女	-1283
▁最後	-1284
ことで	-1285
巨人の	-1286
んですけど	-1287
▁赤	-1288
をお	-1289
ウト	-1290
だからな	-1291
やってる	-1292
▁王	-1293
が見	-1294
シー	-1295
何だ	-1296
ますか	-1297
ああ	-1298
つき	-1299
▁さて	-1300
当たり	-1301
▁すごい	-1302
そんなこと	-1303
のせ	-1304
んか	-1305
スケ	-1306
出し	-1307
忘れ	-1308
きなり	-1309
▁上	-1310
▁前	-1311
入り	-1312
▁今は	-1313
たちに	-1314
テン	-1315
連中	-1316
魔法	-1317
▁グ	-1318
マジ	-1319
呼び	-1320
これで	-1321
だけの	-1322
せよ	-1323
勝ち	-1324
疲れ	-1325
秘密	-1326
いって	-1327
こちら	-1328
を守る	-1329
どうした	-1330
▁心	-1331
ええ	-1332
サン	-1333
帰る	-1334
▁ずっと	-1335
▁ホント	-1336
スタンド	-1337
んや	-1338
▁アル	-1339
すると	-1340
ものは	-1341
▁このまま	-1342
っていうか	-1343
▁昨	-1344
ガー	-1345
▁人間	-1346
ないの	-1347
▁決	-1348
コー	-1349
ワー	-1350
僕の	-1351
様の	-1352
私も	-1353
かしら	-1354
たちを	-1355
りあ	-1356
▁何が	-1357
るほど	-1358
ロック	-1359
▁ね	-1360
に向	-1361
はや	-1362
ほら	-1363
▁俺も	-1364
はどこ	-1365
▁えっと	-1366
▁お前ら	-1367
▁やはり	-1368
ガン	-1369
事は	-1370
込む	-1371
可能性	-1372
りません	-1373
にゃ	-1374
んま	-1375
未来	-1376
の中に	-1377
知って	-1378
▁それでも	-1379
▁タ	-1380
▁外	-1381
は今	-1382
下が	-1383
のない	-1384
▁兄	-1385
▁親	-1386
いを	-1387
結婚	-1388
すぎる	-1389
▁いつも	-1390
もらった	-1391
言われて	-1392
じゃないですか	-1393
そも	-1394
ガキ	-1395
十分	-1396
欲しい	-1397
▁水	-1398
いえば	-1399
だよね	-1400
ティー	-1401
▁自分の	-1402
ーい	-1403
体が	-1404
呼ば	-1405
振り	-1406
気づ	-1407
流川	-1408
もいい	-1409
▁美	-1410
▁あなたは	-1411
自由	-1412
りだ	-1413
ペン	-1414
今度	-1415
大な	-1416
急に	-1417
つけて	-1418
と一緒に	-1419
つの	-1420
俺に	-1421
目に	-1422
▁うる	-1423
▁待て	-1424
わから	-1425
死んだ	-1426
▁ピ	-1427
つか	-1428
家に	-1429
覚悟	-1430
▁くそ	-1431
であ	-1432
命令	-1433
毎日	-1434
行動	-1435
▁ライ	-1436
ますよ	-1437
のような	-1438
▁どういう	-1439
▁第	-1440
方法	-1441
湘北	-1442
込み	-1443
▁クソ	-1444
しくて	-1445
ないと	-1446
クラス	-1447
ちゃんは	-1448
としても	-1449
してください	-1450
目的	-1451
結果	-1452
▁実は	-1453
あげる	-1454
いたら	-1455
行こう	-1456
気で	-1457
答え	-1458
▁あぁ	-1459
はよう	-1460
しましょう	-1461
▁花	-1462
せば	-1463
まう	-1464
▁君は	-1465
を開	-1466
協力	-1467
飛び	-1468
ンター	-1469
▁やっぱ	-1470
こい	-1471
変な	-1472
大切	-1473
料理	-1474
ただの	-1475
んでも	-1476
きれ	-1477
を取	-1478
迷惑	-1479
してみ	-1480
思った	-1481
▁やった	-1482
▁プ	-1483
カサ	-1484
聞か	-1485
負け	-1486
までも	-1487
りあえず	-1488
みに	-1489
仕方	-1490
引っ	-1491
▁別に	-1492
▁悪い	-1493
ねえよ	-1494
を取り	-1495
してやる	-1496
なんだけど	-1497
▁相	-1498
しが	-1499
の上	-1500
バイ	-1501
無事	-1502
わたし	-1503
しないで	-1504
▁もしかして	-1505
ラム	-1506
死に	-1507
ディア	-1508
私に	-1509
んだよね	-1510
▁長	-1511
状態	-1512
計画	-1513
飛ば	-1514
のかよ	-1515
わけない	-1516
▁デ	-1517
▁ロ	-1518
なに	-1519
誰も	-1520
一人で	-1521
信じて	-1522
そんなに	-1523
力が	-1524
どうぞ	-1525
まってる	-1526
わか	-1527
アキ	-1528
ンチ	-1529
自身	-1530
ってみ	-1531
▁しかも	-1532
▁特	-1533
の手	-1534
▁月	-1535
中の	-1536
会社	-1537
結構	-1538
▁なあ	-1539
▁エル	-1540
があって	-1541
▁モ	-1542
だい	-1543
のね	-1544
▁金	-1545
世話	-1546
くなる	-1547
まれて	-1548
チャンス	-1549
んでしょう	-1550
▁明	-1551
ここまで	-1552
そうです	-1553
わけには	-1554
▁だったら	-1555
▁め	-1556
ータ	-1557
立つ	-1558
考える	-1559
食べて	-1560
なくなる	-1561
のように	-1562
▁ラ	-1563
責任	-1564
お前ら	-1565
なんですか	-1566
いと	-1567
じめ	-1568
るぞ	-1569
戦う	-1570
用意	-1571
達は	-1572
いいよ	-1573
るのは	-1574
ーカー	-1575
▁み	-1576
ゅう	-1577
俺も	-1578
嫌い	-1579
▁先輩	-1580
▁逃げ	-1581
さんを	-1582
なくなった	-1583
バッ	-1584
ミン	-1585
我が	-1586
遊び	-1587
選手	-1588
わけじゃない	-1589
どれ	-1590
抜け	-1591
わい	-1592
パイ	-1593
巻き	-1594
部の	-1595
になり	-1596
やめて	-1597
▁いいえ	-1598
やがって	-1599
お姉	-1600
のを	-1601
ェー	-1602
ジュ	-1603
▁お姉	-1604
行くぞ	-1605
▁だけど	-1606
されている	-1607
▁初	-1608
▁多	-1609
▁奴	-1610
▁母	-1611
ハイ	-1612
報告	-1613
誰か	-1614
▁ねぇ	-1615
▁次回	-1616
うちに	-1617
はある	-1618
パンダ	-1619
忘れて	-1620
▁ボ	-1621
▁高	-1622
に対	-1623
オン	-1624
ママ	-1625
中で	-1626
期待	-1627
▁人の	-1628
すぐに	-1629
っかく	-1630
に来た	-1631
新しい	-1632
▁昔	-1633
使い	-1634
▁何も	-1635
しゃべ	-1636
▁来	-1637
ブル	-1638
▁一緒	-1639
▁時間	-1640
とは思	-1641
▁じ	-1642
がな	-1643
クル	-1644
クロ	-1645
調べ	-1646
▁無理	-1647
んだね	-1648
会った	-1649
思い出	-1650
さに	-1651
やろ	-1652
クリ	-1653
子を	-1654
破壊	-1655
▁すぐ	-1656
んまり	-1657
んでいる	-1658
カン	-1659
行き	-1660
あって	-1661
ってのは	-1662
▁ちゃんと	-1663
なんだから	-1664
▁恐	-1665
様が	-1666
足り	-1667
からは	-1668
つけた	-1669
とする	-1670
のことは	-1671
んでしょ	-1672
▁例	-1673
説明	-1674
たちも	-1675
とても	-1676
の中で	-1677
はな	-1678
を受	-1679
クラ	-1680
冗談	-1681
移動	-1682
▁今回	-1683
▁日本	-1684
っさと	-1685
メート	-1686
続けて	-1687
くなった	-1688
▁ビ	-1689
▁痛	-1690
おり	-1691
かけ	-1692
らを	-1693
クソ	-1694
ルド	-1695
度も	-1696
理解	-1697
者を	-1698
近く	-1699
行った	-1700
やがった	-1701
しています	-1702
▁すみません	-1703
ごと	-1704
社長	-1705
考えた	-1706
りが	-1707
プレ	-1708
人類	-1709
無駄	-1710
なのです	-1711
▁よかった	-1712
▁父	-1713
しら	-1714
チョ	-1715
男の	-1716
聞く	-1717
興味	-1718
起き	-1719
▁ホ	-1720
かす	-1721
可愛	-1722
完全に	-1723
続ける	-1724
▁ここに	-1725
▁嫌	-1726
からだ	-1727
が必要	-1728
ろしい	-1729
調査兵団	-1730
▁悪	-1731
いいの	-1732
の巨人	-1733
まれた	-1734
合って	-1735
▁もちろん	-1736
してくれる	-1737
てた	-1738
アの	-1739
サイ	-1740
兵士	-1741
最高	-1742
流れ	-1743
落と	-1744
飲み	-1745
にしても	-1746
じゃねえか	-1747
ほうがいい	-1748
人も	-1749
まない	-1750
久しぶり	-1751
頑張って	-1752
▁分かった	-1753
▁ル	-1754
今は	-1755
▁よう	-1756
までの	-1757
ること	-1758
ーター	-1759
こういう	-1760
▁なるほど	-1761
ということ	-1762
物を	-1763
それで	-1764
つける	-1765
▁どうせ	-1766
▁下	-1767
どい	-1768
学生	-1769
所に	-1770
研究	-1771
聞き	-1772
苦労	-1773
言えば	-1774
▁黒	-1775
せん	-1776
ルス	-1777
私を	-1778
面倒	-1779
チャー	-1780
自分で	-1781
さら	-1782
バレ	-1783
違い	-1784
▁まっ	-1785
ものだ	-1786
と思ってた	-1787
▁夜	-1788
を奪	-1789
武器	-1790
調子	-1791
とおり	-1792
楽しい	-1793
言われた	-1794
▁の	-1795
▁空	-1796
そば	-1797
れど	-1798
ピー	-1799
ーし	-1800
となる	-1801
もなく	-1802
▁なんて	-1803
すげ	-1804
ラの	-1805
殺し	-1806
▁一体	-1807
るから	-1808
いている	-1809
▁生	-1810
いけ	-1811
の王	-1812
隊長	-1813
▁同じ	-1814
とんど	-1815
になります	-1816
しさ	-1817
思議	-1818
▁ジョ	-1819
▁マジ	-1820
▁そいつ	-1821
こんなに	-1822
ことができる	-1823
▁壁	-1824
うど	-1825
での	-1826
めで	-1827
を倒	-1828
意識	-1829
どっち	-1830
アウト	-1831
しっかり	-1832
してない	-1833
って言う	-1834
んですね	-1835
▁早	-1836
がお	-1837
っそ	-1838
の事	-1839
前で	-1840
監督	-1841
程度	-1842
すごく	-1843
勝手に	-1844
大事な	-1845
いかない	-1846
ありました	-1847
まれ	-1848
任せ	-1849
▁相手	-1850
入って	-1851
絶対に	-1852
したのは	-1853
してもら	-1854
そうだな	-1855
だったんだ	-1856
ルコ	-1857
判断	-1858
失敗	-1859
成功	-1860
▁そろ	-1861
▁いやいや	-1862
▁そういえば	-1863
のみ	-1864
掛け	-1865
距離	-1866
▁結局	-1867
が好き	-1868
を見た	-1869
合わせ	-1870
大きな	-1871
楽しみ	-1872
変わった	-1873
してくれた	-1874
なさ	-1875
かけて	-1876
のなら	-1877
ちゃって	-1878
気がする	-1879
ねん	-1880
れの	-1881
を知	-1882
プリ	-1883
マス	-1884
ミル	-1885
多い	-1886
妖怪	-1887
決め	-1888
行け	-1889
▁ファ	-1890
といい	-1891
んだけ	-1892
ゆっくり	-1893
になってる	-1894
▁ヤ	-1895
んが	-1896
気付	-1897
▁子供	-1898
▁体	-1899
▁急	-1900
いま	-1901
ヒー	-1902
夏目	-1903
実に	-1904
の世界	-1905
作った	-1906
そろそろ	-1907
ポイント	-1908
んじゃねぇ	-1909
▁白	-1910
たた	-1911
ねば	-1912
やめ	-1913
地下	-1914
戦争	-1915
殺す	-1916
▁アキ	-1917
▁明日	-1918
くせに	-1919
女の子	-1920
▁お願い	-1921
くなって	-1922
分かって	-1923
来い	-1924
ものが	-1925
危ない	-1926
しくない	-1927
▁そろそろ	-1928
▁貴	-1929
しみ	-1930
僕が	-1931
できて	-1932
込んだ	-1933
ではありません	-1934
▁千	-1935
ブラ	-1936
レス	-1937
始め	-1938
返す	-1939
降り	-1940
申し訳	-1941
なくていい	-1942
でお	-1943
を救	-1944
捕ま	-1945
▁キャ	-1946
▁見て	-1947
置いて	-1948
▁ううん	-1949
変わらず	-1950
んに	-1951
キュ	-1952
想像	-1953
▁ある	-1954
っから	-1955
わかる	-1956
いろいろ	-1957
ちまった	-1958
ってくれ	-1959
ってわけ	-1960
▁まったく	-1961
シン	-1962
乗り	-1963
力で	-1964
方は	-1965
なのは	-1966
んなよ	-1967
▁という	-1968
ませんか	-1969
にい	-1970
団長	-1971
監視	-1972
かれた	-1973
だよな	-1974
にいた	-1975
よい	-1976
アー	-1977
手が	-1978
焼き	-1979
特別	-1980
集中	-1981
付けて	-1982
を出	-1983
利用	-1984
生活	-1985
ネット	-1986
止める	-1987
終わり	-1988
終わった	-1989
▁あなたの	-1990
じゃなかった	-1991
すら	-1992
でに	-1993
俺を	-1994
君に	-1995
目指	-1996
紹介	-1997
組織	-1998
達の	-1999
▁さぁ	-2000
ようです	-2001
って言った	-2002
▁き	-2003
▁嘘	-2004
たり	-2005
なお	-2006
の日	-2007
ぶっ	-2008
ゴン	-2009
出来	-2010
加減	-2011
大会	-2012
妖精	-2013
果た	-2014
相談	-2015
道を	-2016
ケーキ	-2017
難しい	-2018
ではなく	-2019
ございました	-2020
つな	-2021
なのよ	-2022
を持って	-2023
じて	-2024
てて	-2025
ケン	-2026
病院	-2027
▁巨人	-2028
▁我が	-2029
簡単に	-2030
れている	-2031
かと	-2032
ニャ	-2033
メラ	-2034
小さ	-2035
うちの	-2036
ばらく	-2037
メリカ	-2038
思って	-2039
戻って	-2040
▁ジ	-2041
▁強	-2042
▁遅	-2043
体は	-2044
繰り	-2045
▁うわ	-2046
▁最初	-2047
どころ	-2048
に来て	-2049
ックス	-2050
プレー	-2051
ヴァイ	-2052
書いて	-2053
ってやつ	-2054
方がいい	-2055
▁すいません	-2056
▁青	-2057
しな	-2058
何の	-2059
余計	-2060
突然	-2061
食い	-2062
馬鹿	-2063
かなか	-2064
そっち	-2065
ための	-2066
ウンド	-2067
このまま	-2068
だと思う	-2069
▁回	-2070
あっ	-2071
の下	-2072
は一	-2073
スカ	-2074
フラ	-2075
ーツ	-2076
者に	-2077
飛行	-2078
▁普通	-2079
はいい	-2080
▁とりあえず	-2081
予定	-2082
宇宙	-2083
待た	-2084
最近	-2085
様は	-2086
連れ	-2087
味方	-2088
達が	-2089
▁シャ	-2090
かげで	-2091
かなり	-2092
黙って	-2093
▁そっか	-2094
▁ったく	-2095
▁そんなに	-2096
▁む	-2097
▁山	-2098
▁話	-2099
の間	-2100
イド	-2101
ッコ	-2102
バル	-2103
会議	-2104
体の	-2105
使う	-2106
同士	-2107
被害	-2108
訓練	-2109
巨人が	-2110
▁まずは	-2111
をつけて	-2112
▁元	-2113
▁帰	-2114
▁知	-2115
いえ	-2116
ころ	-2117
の戦	-2118
もお	-2119
借り	-2120
様に	-2121
▁全て	-2122
うまく	-2123
だろうな	-2124
▁それでは	-2125
▁夢	-2126
▁朝	-2127
▁男	-2128
ッツ	-2129
子に	-2130
けどね	-2131
の方が	-2132
▁ワ	-2133
ばあ	-2134
ギー	-2135
ネル	-2136
年も	-2137
犯罪	-2138
エース	-2139
間違い	-2140
びっくり	-2141
すみません	-2142
つて	-2143
チェ	-2144
会長	-2145
悪魔	-2146
風呂	-2147
▁そも	-2148
にした	-2149
見える	-2150
というのは	-2151
▁家	-2152
とえ	-2153
の時	-2154
よし	-2155
力は	-2156
反応	-2157
見え	-2158
週間	-2159
呼んで	-2160
死んで	-2161
のかもし	-2162
生まれた	-2163
▁あなたが	-2164
▁番	-2165
に勝	-2166
イヤ	-2167
次の	-2168
生まれ	-2169
っていい	-2170
▁そもそも	-2171
ここにいる	-2172
るで	-2173
希望	-2174
近い	-2175
んだが	-2176
▁うちの	-2177
▁今まで	-2178
するのは	-2179
▁北	-2180
に決	-2181
やく	-2182
リオ	-2183
度と	-2184
手の	-2185
物は	-2186
試験	-2187
▁おっ	-2188
▁ヤツ	-2189
ふう	-2190
ミス	-2191
ルア	-2192
早い	-2193
発見	-2194
部隊	-2195
降谷	-2196
▁僕が	-2197
▁一緒に	-2198
ないから	-2199
▁主	-2200
▁動	-2201
けろ	-2202
を失	-2203
事が	-2204
手で	-2205
続き	-2206
▁僕の	-2207
▁誰か	-2208
らせて	-2209
マーレ	-2210
レート	-2211
何でも	-2212
止めて	-2213
面白い	-2214
ほとんど	-2215
▁国	-2216
▁春	-2217
押し	-2218
気分	-2219
お前に	-2220
のある	-2221
ほどの	-2222
もんだ	-2223
カード	-2224
▁そっち	-2225
っちまった	-2226
▁直	-2227
らせ	-2228
買い	-2229
逃が	-2230
▁彼は	-2231
これが	-2232
取って	-2233
じゃないの	-2234
▁分	-2235
▁時	-2236
うか	-2237
ーん	-2238
大人	-2239
突き	-2240
▁心配	-2241
▁必ず	-2242
もんな	-2243
ステム	-2244
最後の	-2245
▁やっと	-2246
あなたは	-2247
らっしゃい	-2248
かで	-2249
さけ	-2250
でね	-2251
へと	-2252
をも	-2253
ここは	-2254
レベル	-2255
▁いいか	-2256
▁ナイス	-2257
あなたの	-2258
▁安	-2259
▁深	-2260
のさ	-2261
ラピ	-2262
ロン	-2263
事故	-2264
緊張	-2265
部長	-2266
ないし	-2267
▁あとは	-2268
いっぱい	-2269
メートル	-2270
▁お母さん	-2271
▁それじゃ	-2272
とる	-2273
わず	-2274
参加	-2275
技術	-2276
格好	-2277
父親	-2278
がって	-2279
させた	-2280
の人間	-2281
もんね	-2282
やっと	-2283
▁よーし	-2284
おかしい	-2285
れよ	-2286
トリ	-2287
今回	-2288
卒業	-2289
年前	-2290
当然	-2291
後ろ	-2292
意外	-2293
誰が	-2294
▁仕事	-2295
するな	-2296
キング	-2297
見せて	-2298
ばっかり	-2299
になりました	-2300
伝え	-2301
常に	-2302
物が	-2303
目が	-2304
見せ	-2305
そこに	-2306
なった	-2307
を受け	-2308
んねえ	-2309
ちゃんも	-2310
ジェクト	-2311
▁おいおい	-2312
▁こういう	-2313
▁それより	-2314
▁ん	-2315
▁ム	-2316
▁平	-2317
▁素	-2318
ずつ	-2319
んぞ	-2320
バラ	-2321
▁君が	-2322
▁生き	-2323
くれよ	-2324
入れて	-2325
たかった	-2326
▁少	-2327
▁遠	-2328
ゆる	-2329
張り	-2330
犠牲	-2331
さすが	-2332
めない	-2333
を殺す	-2334
ッキー	-2335
ようだな	-2336
どうやって	-2337
分かってる	-2338
▁ギ	-2339
▁食	-2340
あら	-2341
の外	-2342
ルを	-2343
ーズ	-2344
一の	-2345
位置	-2346
信用	-2347
委員	-2348
正義	-2349
迎え	-2350
俺たち	-2351
名前は	-2352
マスター	-2353
ことはない	-2354
▁ポ	-2355
りで	-2356
別の	-2357
場で	-2358
▁あッ	-2359
▁最近	-2360
ったい	-2361
までに	-2362
▁いいや	-2363
▁そこで	-2364
たくさん	-2365
ってやる	-2366
ませんよ	-2367
▁せっかく	-2368
▁同	-2369
しは	-2370
にし	-2371
の名	-2372
まと	-2373
天才	-2374
怪盗	-2375
感謝	-2376
成長	-2377
授業	-2378
沢村	-2379
▁誰が	-2380
すべき	-2381
ときは	-2382
タイプ	-2383
決めた	-2384
▁うるせ	-2385
▁落ち着	-2386
すること	-2387
だったの	-2388
ですけど	-2389
▁ヘ	-2390
▁頭	-2391
がか	-2392
げる	-2393
を変	-2394
ンク	-2395
応援	-2396
自然	-2397
質問	-2398
▁おう	-2399
▁こら	-2400
▁次は	-2401
するの	-2402
んのよ	-2403
アップ	-2404
ヴィン	-2405
嬉しい	-2406
と言って	-2407
▁足	-2408
を得	-2409
スピ	-2410
差し	-2411
瞬間	-2412
覚え	-2413
▁なっ	-2414
ってさ	-2415
って何	-2416
始めた	-2417
田さん	-2418
▁いくら	-2419
▁何だよ	-2420
なんとか	-2421
▁いいから	-2422
って言って	-2423
の女	-2424
ケガ	-2425
真っ	-2426
立た	-2427
▁君の	-2428
いても	-2429
ようだ	-2430
をして	-2431
を引き	-2432
自分が	-2433
▁ライナー	-2434
かなかった	-2435
こら	-2436
ちは	-2437
シロ	-2438
上げて	-2439
不思議	-2440
▁いつか	-2441
▁まるで	-2442
なくちゃ	-2443
▁私たちは	-2444
下の	-2445
自信	-2446
▁東京	-2447
▁残念	-2448
いつか	-2449
ってい	-2450
負けた	-2451
▁俺たちは	-2452
▁愛	-2453
に残	-2454
マイ	-2455
人だ	-2456
作り	-2457
呉羽	-2458
条件	-2459
▁全部	-2460
っすか	-2461
優しい	-2462
▁どうか	-2463
しないと	-2464
だったな	-2465
としたら	-2466
▁これ以上	-2467
▁それとも	-2468
▁ず	-2469
がつ	-2470
グラ	-2471
人と	-2472
任務	-2473
けれど	-2474
そいつ	-2475
りして	-2476
▁今日の	-2477
シュート	-2478
▁ば	-2479
ずれ	-2480
に関	-2481
へん	-2482
人生	-2483
出る	-2484
始祖	-2485
恥ず	-2486
最大	-2487
目は	-2488
▁全然	-2489
▁駄目	-2490
ないか	-2491
んだぜ	-2492
テスト	-2493
人間の	-2494
▁それも	-2495
したこと	-2496
▁万	-2497
▁田	-2498
がる	-2499
のう	-2500
アリ	-2501
上に	-2502
変化	-2503
将軍	-2504
方の	-2505
映画	-2506
立派	-2507
証拠	-2508
▁すげ	-2509
ミング	-2510
食べる	-2511
▁今度は	-2512
▁それから	-2513
▁どうやら	-2514
▁野	-2515
けよ	-2516
はあ	-2517
を解	-2518
君も	-2519
爆弾	-2520
笑顔	-2521
過去	-2522
▁えー	-2523
▁誰も	-2524
そして	-2525
ッカー	-2526
ンディ	-2527
珍しい	-2528
んだよな	-2529
されました	-2530
なかったら	-2531
を狙	-2532
トラ	-2533
トル	-2534
共に	-2535
動か	-2536
島の	-2537
弱い	-2538
込め	-2539
随分	-2540
▁二人	-2541
いくら	-2542
そりゃ	-2543
タイム	-2544
パワー	-2545
ちゃんに	-2546
ったのは	-2547
ランナー	-2548
▁ごめんね	-2549
なんだろう	-2550
カル	-2551
ギン	-2552
ジン	-2553
他の	-2554
体に	-2555
心の	-2556
痛い	-2557
▁いろ	-2558
▁好き	-2559
ですわ	-2560
▁どっち	-2561
▁やめて	-2562
かってる	-2563
そこまで	-2564
ってくれた	-2565
▁ごめんなさい	-2566
▁が	-2567
▁姉	-2568
▁要	-2569
▁鈴	-2570
たの	-2571
事実	-2572
姿を	-2573
学園	-2574
心を	-2575
気の	-2576
経験	-2577
過ご	-2578
▁はっ	-2579
たした	-2580
れしい	-2581
ールド	-2582
っちゃって	-2583
分かんない	-2584
▁教	-2585
かん	-2586
くに	-2587
ニア	-2588
仗助	-2589
役に	-2590
担当	-2591
方を	-2592
都合	-2593
重要	-2594
▁あー	-2595
▁失礼	-2596
えてる	-2597
けどな	-2598
バスケ	-2599
▁どうぞ	-2600
代わりに	-2601
▁おはよう	-2602
じゃねぇか	-2603
▁ノ	-2604
▁古	-2605
ウス	-2606
ーナ	-2607
上の	-2608
化け	-2609
▁約束	-2610
による	-2611
バイト	-2612
可愛い	-2613
▁すべて	-2614
▁ちょっ	-2615
あなたが	-2616
に行こう	-2617
▁お父さん	-2618
▁風	-2619
たな	-2620
つい	-2621
やん	-2622
を生	-2623
ウル	-2624
一生	-2625
会う	-2626
再び	-2627
君を	-2628
地獄	-2629
完璧	-2630
尽く	-2631
感情	-2632
手な	-2633
精神	-2634
趣味	-2635
音楽	-2636
▁仲間	-2637
▁ならば	-2638
したんだ	-2639
に行った	-2640
システム	-2641
▁そんなの	-2642
やってんだ	-2643
▁石	-2644
かく	-2645
ぎり	-2646
半分	-2647
術師	-2648
部活	-2649
▁アン	-2650
▁人類	-2651
ともに	-2652
本当の	-2653
▁俺たち	-2654
▁初めて	-2655
っとして	-2656
どうしたの	-2657
▁世	-2658
たる	-2659
もな	-2660
ドラ	-2661
レビ	-2662
仲良	-2663
様子	-2664
許可	-2665
あれは	-2666
が悪い	-2667
と呼ば	-2668
どおり	-2669
ならば	-2670
今まで	-2671
▁てめえ	-2672
わかった	-2673
ェーガー	-2674
合わせて	-2675
しちゃった	-2676
▁放	-2677
うる	-2678
きの	-2679
兄貴	-2680
地球	-2681
完成	-2682
待つ	-2683
歴史	-2684
漫画	-2685
社会	-2686
送り	-2687
が来る	-2688
ひとつ	-2689
れたら	-2690
シャー	-2691
ランス	-2692
のですか	-2693
られている	-2694
ブジェクト	-2695
▁開	-2696
だめ	-2697
を与	-2698
ザー	-2699
不明	-2700
困る	-2701
所で	-2702
爆発	-2703
限り	-2704
▁警察	-2705
たんだ	-2706
えている	-2707
かわいい	-2708
めでとう	-2709
▁ところで	-2710
はありません	-2711
▁ベ	-2712
▁入	-2713
▁東	-2714
サギ	-2715
ドキ	-2716
打た	-2717
支配	-2718
現実	-2719
若い	-2720
見る	-2721
▁おら	-2722
▁お母	-2723
▁他の	-2724
どうも	-2725
ばっか	-2726
どうしよう	-2727
が始	-2728
きに	-2729
だら	-2730
んば	-2731
暗殺	-2732
殺人	-2733
細胞	-2734
そうに	-2735
だと思	-2736
っすよ	-2737
のかい	-2738
まるで	-2739
ここから	-2740
のですが	-2741
関係ない	-2742
できなかった	-2743
▁御	-2744
ウソ	-2745
スペ	-2746
勝て	-2747
取る	-2748
安全	-2749
戦闘	-2750
携帯	-2751
納得	-2752
▁学校	-2753
コース	-2754
決して	-2755
になれる	-2756
良かった	-2757
なくなって	-2758
わからない	-2759
かえ	-2760
が入	-2761
ぐれ	-2762
たま	-2763
ーか	-2764
少年	-2765
有名	-2766
花道	-2767
返し	-2768
遺産	-2769
▁やつ	-2770
▁昨日	-2771
そうか	-2772
てめえ	-2773
にでも	-2774
▁お前も	-2775
気になる	-2776
すいません	-2777
になりたい	-2778
ちょっと待って	-2779
が一	-2780
さあ	-2781
らし	-2782
価値	-2783
息子	-2784
捜査	-2785
掃除	-2786
続く	-2787
記録	-2788
▁思い	-2789
▁頼む	-2790
かれて	-2791
たって	-2792
をした	-2793
忘れた	-2794
言うな	-2795
聞きたい	-2796
んじゃないか	-2797
▁佐	-2798
アニ	-2799
探偵	-2800
書き	-2801
甘い	-2802
誕生	-2803
都市	-2804
▁一人	-2805
からさ	-2806
の仕事	-2807
ォール	-2808
ホーム	-2809
来てる	-2810
生きる	-2811
負ける	-2812
かどうか	-2813
だからね	-2814
だけじゃ	-2815
ってもら	-2816
んですが	-2817
当たり前	-2818
▁あいつは	-2819
楽しかった	-2820
ドル	-2821
不安	-2822
母親	-2823
注意	-2824
読み	-2825
騒ぎ	-2826
▁はあ	-2827
▁正直	-2828
からも	-2829
ねえぞ	-2830
ふうに	-2831
わせて	-2832
んどん	-2833
▁やめろ	-2834
おいしい	-2835
ところに	-2836
と言った	-2837
ものです	-2838
ご飯	-2839
を選	-2840
ウン	-2841
テー	-2842
ビー	-2843
偶然	-2844
司令	-2845
年生	-2846
恒星	-2847
話し	-2848
踏み	-2849
金を	-2850
▁いた	-2851
▁当然	-2852
っぽい	-2853
ねえな	-2854
のせい	-2855
ましい	-2856
もう一	-2857
を持つ	-2858
であろう	-2859
言ったら	-2860
だったのか	-2861
っています	-2862
としている	-2863
エルディア	-2864
知っている	-2865
▁十	-2866
▁周	-2867
▁泣	-2868
▁魔	-2869
えな	-2870
の本	-2871
は大	-2872
カイ	-2873
タル	-2874
ワン	-2875
兄弟	-2876
勝つ	-2877
原因	-2878
帝国	-2879
故郷	-2880
目覚	-2881
突っ	-2882
者だ	-2883
血を	-2884
運命	-2885
▁ほう	-2886
ったな	-2887
のいい	-2888
らせる	-2889
デート	-2890
▁ああの	-2891
▁これを	-2892
があれば	-2893
れました	-2894
メンバー	-2895
▁はいはい	-2896
になったら	-2897
▁どうしたの	-2898
ありがとうございます	-2899
▁対	-2900
せい	-2901
テル	-2902
ナル	-2903
ナン	-2904
優勝	-2905
声が	-2906
師匠	-2907
持つ	-2908
陵南	-2909
▁シロ	-2910
▁マー	-2911
▁一度	-2912
お前を	-2913
じゃないよ	-2914
▁ソ	-2915
ギリ	-2916
ボロ	-2917
分け	-2918
水晶	-2919
親父	-2920
長い	-2921
▁見た	-2922
くまで	-2923
リード	-2924
取った	-2925
居場所	-2926
本気で	-2927
皆さん	-2928
誰にも	-2929
ことになる	-2930
かもしれません	-2931
おる	-2932
イレ	-2933
ッグ	-2934
ナイ	-2935
ヤー	-2936
場に	-2937
売り	-2938
妙な	-2939
少女	-2940
後に	-2941
戦士	-2942
話は	-2943
身の	-2944
▁なぁ	-2945
がこの	-2946
しろよ	-2947
ときに	-2948
やめろ	-2949
任せて	-2950
消えて	-2951
▁たとえ	-2952
▁ですが	-2953
▁ダメだ	-2954
▁ミカサ	-2955
あいつは	-2956
すればいい	-2957
りと	-2958
ボー	-2959
予想	-2960
契約	-2961
幻の	-2962
次は	-2963
ひどい	-2964
やがる	-2965
やすい	-2966
データ	-2967
来ない	-2968
▁てめぇ	-2969
って感じ	-2970
つもりだ	-2971
▁なんだよ	-2972
いち	-2973
ばい	-2974
わる	-2975
フト	-2976
切れ	-2977
平和	-2978
指示	-2979
教え	-2980
殿下	-2981
▁おや	-2982
▁オー	-2983
▁レイ	-2984
▁僕も	-2985
いれば	-2986
これを	-2987
だけが	-2988
に来る	-2989
んすか	-2990
大切な	-2991
決めて	-2992
▁なのに	-2993
▁なんと	-2994
もう一度	-2995
ペンギン	-2996
▁そうそう	-2997
にならない	-2998
▁ちょっと待って	-2999
▁名	-3000
▁寝	-3001
すっ	-3002
を追	-3003
キラ	-3004
デス	-3005
ハッ	-3006
替え	-3007
苦し	-3008
部に	-3009
閉じ	-3010
▁わざ	-3011
▁私に	-3012
▁頑張	-3013
ますね	-3014
ファン	-3015
メール	-3016
忙しい	-3017
調べて	-3018
待ってる	-3019
殺された	-3020
言えない	-3021
▁こいつは	-3022
わけにはいかない	-3023
▁会	-3024
▁姫	-3025
かう	-3026
タン	-3027
パス	-3028
ユイ	-3029
ーっ	-3030
了解	-3031
▁どれ	-3032
▁ママ	-3033
▁友達	-3034
▁大体	-3035
さんだ	-3036
と一緒	-3037
やるよ	-3038
を目指	-3039
巨大な	-3040
相手に	-3041
▁例えば	-3042
あんたの	-3043
されてる	-3044
だけでも	-3045
のかしら	-3046
いただきます	-3047
▁光	-3048
いき	-3049
おく	-3050
じぇ	-3051
でな	-3052
んは	-3053
ウィ	-3054
伝説	-3055
反対	-3056
実は	-3057
永遠	-3058
組み	-3059
おいて	-3060
ついた	-3061
ッター	-3062
入れる	-3063
▁ほんと	-3064
▁ジャン	-3065
▁恐らく	-3066
▁皆さん	-3067
だろうか	-3068
に入って	-3069
ストリア	-3070
ホントに	-3071
見えない	-3072
▁いきなり	-3073
ってことは	-3074
なきゃいけない	-3075
▁四	-3076
ミー	-3077
上手	-3078
事に	-3079
以来	-3080
当て	-3081
文句	-3082
文字	-3083
目で	-3084
装置	-3085
どうす	-3086
はいえ	-3087
カメラ	-3088
ダメだ	-3089
小さな	-3090
私たち	-3091
能力を	-3092
▁ただの	-3093
▁どうも	-3094
したのか	-3095
だなんて	-3096
ってるの	-3097
んですよね	-3098
▁ゆ	-3099
▁火	-3100
々と	-3101
クマ	-3102
仙道	-3103
口を	-3104
呼ぶ	-3105
赤木	-3106
▁へえ	-3107
▁全員	-3108
いうか	-3109
の時間	-3110
不可能	-3111
大きい	-3112
苦しい	-3113
たしたち	-3114
だけです	-3115
しょうがない	-3116
▁逆	-3117
みろ	-3118
ハル	-3119
ハン	-3120
出た	-3121
勝利	-3122
最も	-3123
錬金	-3124
離れ	-3125
魚住	-3126
▁お父	-3127
▁スト	-3128
あまり	-3129
ジャー	-3130
ディー	-3131
ニング	-3132
ベルト	-3133
先生の	-3134
助ける	-3135
起きて	-3136
▁あの時	-3137
▁ここの	-3138
おります	-3139
というか	-3140
があったら	-3141
ってくれる	-3142
▁笑	-3143
げて	-3144
クイ	-3145
マネ	-3146
兵長	-3147
場を	-3148
始末	-3149
復活	-3150
男が	-3151
警戒	-3152
選択	-3153
ありが	-3154
そこで	-3155
を感じ	-3156
リアル	-3157
リスト	-3158
起きた	-3159
さっさと	-3160
のほうが	-3161
ッチャー	-3162
俺たちの	-3163
▁そしたら	-3164
▁何言って	-3165
ニュ	-3166
両親	-3167
兵器	-3168
強く	-3169
後の	-3170
消え	-3171
行か	-3172
▁次の	-3173
せいで	-3174
切った	-3175
言える	-3176
▁こりゃ	-3177
▁絶対に	-3178
▁どうする	-3179
ってもいい	-3180
▁ぼ	-3181
人形	-3182
刑事	-3183
我慢	-3184
文化	-3185
望み	-3186
避難	-3187
お前も	-3188
が来た	-3189
ねぇよ	-3190
まれる	-3191
クリス	-3192
セント	-3193
ポート	-3194
付き合	-3195
何とか	-3196
▁今から	-3197
きなさい	-3198
わざわざ	-3199
仕方ない	-3200
▁もういい	-3201
▁アルミン	-3202
ではないか	-3203
間違いない	-3204
▁変	-3205
えよ	-3206
すな	-3207
の真	-3208
はね	-3209
めに	-3210
を超	-3211
キロ	-3212
モン	-3213
事な	-3214
事情	-3215
女性	-3216
結局	-3217
続け	-3218
話す	-3219
▁やる	-3220
いける	-3221
おまえ	-3222
が終わ	-3223
こない	-3224
と言う	-3225
二度と	-3226
以上に	-3227
待たせ	-3228
いきなり	-3229
しなさい	-3230
しばらく	-3231
みんなで	-3232
られたら	-3233
ハンター	-3234
知り合い	-3235
言いたい	-3236
▁ここまで	-3237
なんですよ	-3238
▁それじゃあ	-3239
なり	-3240
侵入	-3241
全国	-3242
内に	-3243
影響	-3244
方に	-3245
死な	-3246
騎士	-3247
▁桜木	-3248
がった	-3249
それに	-3250
っては	-3251
であり	-3252
現れた	-3253
▁私たち	-3254
フェンス	-3255
出てきた	-3256
いたします	-3257
ジョーカー	-3258
んじゃないの	-3259
▁犯	-3260
しね	-3261
ちに	-3262
なか	-3263
ウェ	-3264
ルフ	-3265
一日	-3266
事務	-3267
合宿	-3268
奇跡	-3269
後で	-3270
昨日	-3271
決勝	-3272
身を	-3273
▁俺に	-3274
▁夏目	-3275
▁多分	-3276
いいか	-3277
が違う	-3278
なので	-3279
ールの	-3280
名前を	-3281
美しい	-3282
見えて	-3283
しちゃう	-3284
▁わかった	-3285
恥ずかしい	-3286
っていうのは	-3287
▁立	-3288
▁通	-3289
お客	-3290
くそ	-3291
じる	-3292
ぶち	-3293
を求	-3294
バス	-3295
バン	-3296
ブリ	-3297
依頼	-3298
動く	-3299
守る	-3300
平気	-3301
残念	-3302
直接	-3303
駆け	-3304
すんな	-3305
どちら	-3306
キッド	-3307
上げる	-3308
逃げて	-3309
▁それと	-3310
▁ユミル	-3311
としての	-3312
としては	-3313
ねえだろ	-3314
を見せて	-3315
んでいた	-3316
生きてる	-3317
▁相変わらず	-3318
でございます	-3319
んじゃないかな	-3320
▁恋	-3321
▁血	-3322
めー	-3323
らす	-3324
わり	-3325
を行	-3326
力の	-3327
吹き	-3328
地に	-3329
子と	-3330
撃て	-3331
旅行	-3332
▁邪魔	-3333
うまい	-3334
なのだ	-3335
ゲット	-3336
メージ	-3337
今日の	-3338
子ども	-3339
▁あれが	-3340
これ以上	-3341
ごめんね	-3342
▁もう少し	-3343
もしかして	-3344
パーティー	-3345
ありがとうございました	-3346
▁顔	-3347
ぞれ	-3348
ねて	-3349
んよ	-3350
ーす	-3351
太陽	-3352
活動	-3353
遅い	-3354
▁確か	-3355
っとる	-3356
の力を	-3357
わいい	-3358
掛けて	-3359
▁あっち	-3360
▁どうだ	-3361
でもある	-3362
まったく	-3363
思ってた	-3364
タイミング	-3365
▁ネ	-3366
さを	-3367
まぁ	-3368
わし	-3369
キリ	-3370
年は	-3371
得意	-3372
最強	-3373
浮か	-3374
野球	-3375
▁信じ	-3376
▁冗談	-3377
のやつ	-3378
話して	-3379
▁ただし	-3380
▁聞いて	-3381
あんまり	-3382
たくない	-3383
っちまう	-3384
であった	-3385
はいない	-3386
▁こうして	-3387
って言ってた	-3388
▁宮	-3389
▁木	-3390
▁西	-3391
▁超	-3392
おら	-3393
っぺ	-3394
の姿	-3395
ワイ	-3396
会い	-3397
全く	-3398
既に	-3399
連続	-3400
選ば	-3401
いてた	-3402
ことか	-3403
すでに	-3404
ってな	-3405
ようか	-3406
ケンカ	-3407
ランド	-3408
小さい	-3409
生き残	-3410
買って	-3411
▁たった	-3412
▁新しい	-3413
っちゅう	-3414
とは違う	-3415
に行って	-3416
アメリカ	-3417
▁しっかり	-3418
いなかった	-3419
だったから	-3420
▁草	-3421
▁追	-3422
つま	-3423
ギャ	-3424
シェ	-3425
スモ	-3426
ロッ	-3427
互い	-3428
信頼	-3429
効果	-3430
基本	-3431
大学	-3432
旦那	-3433
機動	-3434
軍の	-3435
▁大変	-3436
▁死ぬ	-3437
▁特に	-3438
▁行く	-3439
かなる	-3440
しかし	-3441
しまい	-3442
そらく	-3443
なんと	-3444
になら	-3445
により	-3446
正しい	-3447
決める	-3448
言葉を	-3449
▁いいよ	-3450
▁自分が	-3451
それだけ	-3452
晴らしい	-3453
▁よろしく	-3454
できません	-3455
イェーガー	-3456
けに	-3457
すご	-3458
の頃	-3459
は無	-3460
まっ	-3461
ユー	-3462
リフ	-3463
出せ	-3464
合格	-3465
実験	-3466
指揮	-3467
▁ほれ	-3468
▁ジャ	-3469
▁何の	-3470
▁問題	-3471
▁湘北	-3472
いぶん	-3473
たった	-3474
のほう	-3475
上がる	-3476
伝えて	-3477
▁ここが	-3478
▁ついに	-3479
▁我々は	-3480
を殺した	-3481
ブロック	-3482
言われる	-3483
▁そうだな	-3484
▁それって	-3485
▁それにしても	-3486
▁右	-3487
の家	-3488
るい	-3489
シア	-3490
スは	-3491
スイ	-3492
一本	-3493
下に	-3494
弁当	-3495
彼は	-3496
案内	-3497
綺麗	-3498
警備	-3499
限界	-3500
▁クリ	-3501
▁ハル	-3502
▁来た	-3503
▁現在	-3504
ないな	-3505
の前に	-3506
キャラ	-3507
代わり	-3508
受けて	-3509
▁そこに	-3510
ったんだ	-3511
やりたい	-3512
悪かった	-3513
最初から	-3514
▁ここから	-3515
▁こんなに	-3516
▁そういや	-3517
▁そうだよ	-3518
▁もしもし	-3519
▁ありがとうございます	-3520
▁内	-3521
が開	-3522
だか	-3523
を仕	-3524
キア	-3525
チュ	-3526
ヴェ	-3527
余裕	-3528
場の	-3529
性格	-3530
挨拶	-3531
施設	-3532
気か	-3533
盛り	-3534
解決	-3535
足を	-3536
身に	-3537
▁お客	-3538
▁イン	-3539
あれば	-3540
くんは	-3541
すぎて	-3542
ってば	-3543
ともと	-3544
を起こ	-3545
チャラ	-3546
使える	-3547
確実に	-3548
読んで	-3549
返して	-3550
▁おまえ	-3551
▁くそっ	-3552
▁向こう	-3553
ないけど	-3554
生まれて	-3555
ってください	-3556
▁理	-3557
▁総	-3558
に帰	-3559
デル	-3560
保護	-3561
別れ	-3562
小僧	-3563
怪我	-3564
油断	-3565
深い	-3566
空間	-3567
舞台	-3568
▁親父	-3569
何度も	-3570
勘違い	-3571
消えた	-3572
▁あの人	-3573
▁そうね	-3574
▁オレは	-3575
いますよ	-3576
お母さん	-3577
を手に入	-3578
持ってる	-3579
のかもしれない	-3580
▁ケ	-3581
▁数	-3582
みの	-3583
やな	-3584
をと	-3585
イラ	-3586
ッと	-3587
ハハ	-3588
パパ	-3589
フル	-3590
ララ	-3591
守り	-3592
年間	-3593
方向	-3594
王様	-3595
管理	-3596
逮捕	-3597
▁流川	-3598
▁試合	-3599
へ行く	-3600
ようと	-3601
ミカサ	-3602
気に入	-3603
▁とても	-3604
▁本当は	-3605
しません	-3606
しまって	-3607
するんだ	-3608
っちゃん	-3609
められた	-3610
もちろん	-3611
ティング	-3612
助かった	-3613
▁さっきの	-3614
▁ニ	-3615
▁戻	-3616
▁頼	-3617
くは	-3618
しよ	-3619
やか	-3620
ハー	-3621
女子	-3622
寝て	-3623
導士	-3624
才能	-3625
機会	-3626
終了	-3627
▁来る	-3628
するよ	-3629
ちまう	-3630
まずい	-3631
大好き	-3632
銀水晶	-3633
離れて	-3634
▁あの子	-3635
▁行って	-3636
ができる	-3637
そんなの	-3638
思ってる	-3639
▁それだけ	-3640
▁ぜ	-3641
▁ツ	-3642
▁口	-3643
▁常	-3644
▁許	-3645
みる	-3646
を通	-3647
彼氏	-3648
後悔	-3649
心が	-3650
心臓	-3651
点で	-3652
諦め	-3653
開始	-3654
▁ふざ	-3655
お疲れ	-3656
したり	-3657
らしく	-3658
始める	-3659
相手は	-3660
▁お前に	-3661
いたんだ	-3662
かなって	-3663
ためには	-3664
を使って	-3665
分からん	-3666
行きます	-3667
▁あんたが	-3668
▁もう一度	-3669
だったのに	-3670
わなかった	-3671
言わないで	-3672
知らなかった	-3673
ぇな	-3674
えに	-3675
よそ	-3676
友人	-3677
君と	-3678
完了	-3679
影山	-3680
次第	-3681
済む	-3682
物だ	-3683
王の	-3684
道具	-3685
▁ふん	-3686
▁食べ	-3687
あっち	-3688
くださ	-3689
もらえ	-3690
をつけ	-3691
ロール	-3692
最大の	-3693
▁お疲れ	-3694
▁ゲーム	-3695
いいのか	-3696
だったよ	-3697
できれば	-3698
どんどん	-3699
なくとも	-3700
んにちは	-3701
出てくる	-3702
お兄ちゃん	-3703
ってことか	-3704
幻の銀水晶	-3705
ようになった	-3706
▁公	-3707
▁発	-3708
々の	-3709
うな	-3710
かせ	-3711
にあ	-3712
やし	-3713
アレ	-3714
ダイ	-3715
作業	-3716
政府	-3717
民の	-3718
部分	-3719
▁結構	-3720
この人	-3721
しては	-3722
ショー	-3723
ックリ	-3724
ルール	-3725
承太郎	-3726
▁むしろ	-3727
いただけ	-3728
いつでも	-3729
されない	-3730
してます	-3731
となしく	-3732
なくては	-3733
足りない	-3734
こんなこと	-3735
▁ヨ	-3736
▁点	-3737
▁雪	-3738
がね	-3739
っぷ	-3740
まし	-3741
ゲー	-3742
マル	-3743
ロス	-3744
事態	-3745
僕も	-3746
姫様	-3747
意志	-3748
戦い	-3749
戦の	-3750
本気	-3751
直に	-3752
誰だ	-3753
隠し	-3754
▁たま	-3755
▁な何	-3756
▁了解	-3757
▁私を	-3758
いたの	-3759
かけた	-3760
どうだ	-3761
を使う	-3762
上げた	-3763
前から	-3764
合った	-3765
向いて	-3766
言っと	-3767
▁いいぞ	-3768
▁勝手に	-3769
からない	-3770
したって	-3771
そのまま	-3772
ちょうど	-3773
をかけて	-3774
スピード	-3775
上がって	-3776
人がいる	-3777
▁さっさと	-3778
▁ホントに	-3779
オブジェクト	-3780
▁ペ	-3781
▁希	-3782
▁電	-3783
かは	-3784
が残	-3785
さぎ	-3786
トス	-3787
トー	-3788
心に	-3789
手紙	-3790
撃ち	-3791
日に	-3792
決定	-3793
海の	-3794
目標	-3795
禁止	-3796
▁キミ	-3797
かせて	-3798
のはず	-3799
の言う	-3800
を見る	-3801
セット	-3802
チョコ	-3803
言われ	-3804
▁あまり	-3805
▁おっと	-3806
えられる	-3807
この世界	-3808
さんって	-3809
はずっと	-3810
セイント	-3811
▁それなら	-3812
しかしたら	-3813
▁お兄ちゃん	-3814
▁っていうか	-3815
▁エルヴィン	-3816
▁予	-3817
かれ	-3818
たど	-3819
に従	-3820
クシ	-3821
ボス	-3822
ーラ	-3823
優秀	-3824
回り	-3825
子も	-3826
彼の	-3827
機械	-3828
用の	-3829
私と	-3830
素敵	-3831
あげて	-3832
くから	-3833
も同じ	-3834
わけだ	-3835
んだら	-3836
ケット	-3837
チュー	-3838
ティア	-3839
捨てて	-3840
自分を	-3841
高校生	-3842
▁すぐに	-3843
▁パンダ	-3844
▁行くぞ	-3845
あんたが	-3846
さんのお	-3847
もう少し	-3848
アルミン	-3849
イメージ	-3850
ステージ	-3851
リーダー	-3852
来ました	-3853
▁知ってる	-3854
にとっては	-3855
をしている	-3856
んだろうな	-3857
よろしくお願いします	-3858
▁力	-3859
▁半	-3860
▁娘	-3861
しも	-3862
せー	-3863
つつ	-3864
どの	-3865
を渡	-3866
ノリ	-3867
事も	-3868
伸び	-3869
奴が	-3870
意見	-3871
戻す	-3872
敵の	-3873
脱出	-3874
良い	-3875
間の	-3876
飲む	-3877
えっと	-3878
かっこ	-3879
かれる	-3880
くさい	-3881
するか	-3882
とでも	-3883
ぶりに	-3884
キャン	-3885
ゼント	-3886
バカな	-3887
ベスト	-3888
ループ	-3889
厳しい	-3890
▁たぶん	-3891
▁言った	-3892
いるのか	-3893
するから	-3894
つもりか	-3895
ネルギー	-3896
があるんだ	-3897
してるんだ	-3898
でしょうね	-3899
▁どうやって	-3900
▁晴	-3901
▁毎	-3902
▁異	-3903
▁葉	-3904
▁速	-3905
々に	-3906
ンマ	-3907
切な	-3908
名を	-3909
捕ら	-3910
物語	-3911
英語	-3912
音が	-3913
▁ゴン	-3914
▁一応	-3915
▁家族	-3916
▁無駄	-3917
どうな	-3918
どっか	-3919
グラム	-3920
今度は	-3921
今日も	-3922
会って	-3923
集めて	-3924
静かに	-3925
さんには	-3926
ところが	-3927
られてる	-3928
しなかった	-3929
▁命	-3930
お嬢	-3931
を送	-3932
プラ	-3933
厄介	-3934
喧嘩	-3935
土産	-3936
手は	-3937
撮影	-3938
相当	-3939
行為	-3940
認め	-3941
道の	-3942
階段	-3943
▁やめ	-3944
▁ユイ	-3945
▁一つ	-3946
▁一番	-3947
▁何よ	-3948
▁元気	-3949
▁安心	-3950
つまり	-3951
にしろ	-3952
に入る	-3953
ライト	-3954
▁これも	-3955
▁そうよ	-3956
▁彼女は	-3957
だったか	-3958
できます	-3959
ないって	-3960
のことが	-3961
聞こえる	-3962
▁あんたの	-3963
かりました	-3964
▁伊	-3965
お母	-3966
つぶ	-3967
の敵	-3968
んす	-3969
ゴー	-3970
ルノ	-3971
使え	-3972
切る	-3973
奴は	-3974
復讐	-3975
接触	-3976
機嫌	-3977
食う	-3978
▁うっ	-3979
▁アニ	-3980
▁ウソ	-3981
▁フェ	-3982
▁実際	-3983
▁毎日	-3984
▁深海	-3985
かもな	-3986
ちょう	-3987
ったよ	-3988
やっぱ	-3989
ギルド	-3990
ピッチ	-3991
使って	-3992
俺には	-3993
助かる	-3994
始めて	-3995
忘れる	-3996
話した	-3997
逃げる	-3998
おはよう	-3999
ことある	-4000
してるの	-4001
のせいで	-4002
もらって	-4003
▁おかしい	-4004
くださいよ	-4005
付き合って	-4006
変わらない	-4007
▁分かってる	-4008
どういうこと	-4009
▁止	-4010
お金	-4011
げた	-4012
らか	-4013
会の	-4014
似て	-4015
懸命	-4016
置き	-4017
いこう	-4018
きれい	-4019
ままで	-4020
イバー	-4021
ジーク	-4022
ベント	-4023
マフィ	-4024
喜んで	-4025
引っ張	-4026
歩いて	-4027
続けた	-4028
▁せめて	-4029
▁まずい	-4030
▁覚えて	-4031
殺される	-4032
聞かせて	-4033
かもしれん	-4034
ってるんだ	-4035
なんだって	-4036
ましょうか	-4037
ょっとして	-4038
落ち着いて	-4039
▁八	-4040
くぞ	-4041
を抜	-4042
セル	-4043
ヤバ	-4044
ーッ	-4045
何て	-4046
動物	-4047
名は	-4048
地の	-4049
子園	-4050
特に	-4051
神の	-4052
英雄	-4053
▁ディ	-4054
そこの	-4055
ですし	-4056
ものに	-4057
やつは	-4058
を作る	-4059
パート	-4060
切って	-4061
時間が	-4062
甲子園	-4063
負けて	-4064
貸して	-4065
▁かつて	-4066
▁ボール	-4067
いいんだ	-4068
があるの	-4069
さんから	-4070
してくる	-4071
とにかく	-4072
ないんだ	-4073
よろしい	-4074
▁この世界	-4075
▁俺たちの	-4076
それでいい	-4077
ベルトルト	-4078
だけじゃない	-4079
られなかった	-4080
▁どういうこと	-4081
じゃありません	-4082
▁怒	-4083
▁森	-4084
▁近	-4085
さは	-4086
のス	-4087
の命	-4088
みた	-4089
わせ	-4090
作品	-4091
俺と	-4092
意思	-4093
背負	-4094
顔を	-4095
てめぇ	-4096
と共に	-4097
ほっと	-4098
ほんと	-4099
めちゃ	-4100
ものか	-4101
やけど	-4102
クター	-4103
フリー	-4104
似てる	-4105
同時に	-4106
変わり	-4107
▁ジーク	-4108
▁分かる	-4109
いてくれ	-4110
いますか	-4111
こいつは	-4112
だろうと	-4113
となった	-4114
とはいえ	-4115
もらおう	-4116
やったら	-4117
懐かしい	-4118
気持ちを	-4119
見つけた	-4120
▁冷	-4121
▁思	-4122
▁色	-4123
▁走	-4124
おお	-4125
おじ	-4126
が生	-4127
くと	-4128
の男	-4129
へ向	-4130
カツ	-4131
セン	-4132
ッピ	-4133
一回	-4134
告白	-4135
康一	-4136
真実	-4137
襲撃	-4138
運動	-4139
▁人は	-4140
▁呉羽	-4141
いるの	-4142
こそが	-4143
さんな	-4144
ねぇな	-4145
のまま	-4146
の攻撃	-4147
よいよ	-4148
キルア	-4149
クリア	-4150
テレビ	-4151
▁どちら	-4152
▁助けて	-4153
▁気持ち	-4154
▁生きて	-4155
▁自分で	-4156
いたのか	-4157
お父さん	-4158
なんでも	-4159
子ちゃん	-4160
▁ちょうど	-4161
はいけない	-4162
帰ってくる	-4163
▁け	-4164
▁怖	-4165
▁街	-4166
▁雨	-4167
が発	-4168
みが	-4169
みを	-4170
よー	-4171
をな	-4172
エン	-4173
パラ	-4174
ミュ	-4175
モノ	-4176
何者	-4177
夜は	-4178
宝石	-4179
必死	-4180
活躍	-4181
重い	-4182
▁勝負	-4183
▁社長	-4184
あの人	-4185
こりゃ	-4186
ったか	-4187
とはな	-4188
に戻る	-4189
の記憶	-4190
変わる	-4191
急いで	-4192
見てる	-4193
▁今日も	-4194
いいから	-4195
うれしい	-4196
からって	-4197
してんの	-4198
ってんだ	-4199
を受けて	-4200
を教えて	-4201
▁うるさい	-4202
▁リヴァイ	-4203
▁知らない	-4204
▁両	-4205
▁泉	-4206
▁着	-4207
▁聖	-4208
らぬ	-4209
イチ	-4210
オル	-4211
ズミ	-4212
プル	-4213
国に	-4214
憲兵	-4215
時期	-4216
最悪	-4217
祭り	-4218
組の	-4219
▁えッ	-4220
▁人が	-4221
▁作戦	-4222
▁私と	-4223
だけに	-4224
ろうと	-4225
兄さん	-4226
先生が	-4227
怪しい	-4228
消える	-4229
立派な	-4230
追いつ	-4231
みたいで	-4232
最後まで	-4233
死んじゃ	-4234
行かない	-4235
まっている	-4236
▁どうしよう	-4237
▁五	-4238
の正	-4239
は私	-4240
ダル	-4241
似た	-4242
最低	-4243
気だ	-4244
気配	-4245
礼を	-4246
適当	-4247
▁やれ	-4248
▁われ	-4249
があり	-4250
がねえ	-4251
っちり	-4252
もそう	-4253
ものの	-4254
やはり	-4255
キュア	-4256
シップ	-4257
マリア	-4258
年前の	-4259
裏切り	-4260
のことも	-4261
イベント	-4262
▁わざわざ	-4263
見つかった	-4264
なんですけど	-4265
ことはできない	-4266
申し訳ありません	-4267
▁腹	-4268
▁返	-4269
々木	-4270
おけ	-4271
げん	-4272
を放	-4273
トン	-4274
一瞬	-4275
先は	-4276
列車	-4277
地を	-4278
家は	-4279
将来	-4280
後は	-4281
烏野	-4282
理想	-4283
苦手	-4284
運転	-4285
重な	-4286
▁アー	-4287
▁地球	-4288
▁年前	-4289
ここの	-4290
のとき	-4291
の中の	-4292
ませて	-4293
らねえ	-4294
わしい	-4295
を救う	-4296
を見せ	-4297
ウサギ	-4298
コンビ	-4299
ライブ	-4300
一人の	-4301
付ける	-4302
寂しい	-4303
情報を	-4304
改めて	-4305
殺した	-4306
落ちる	-4307
▁私には	-4308
いろんな	-4309
のところ	-4310
大丈夫か	-4311
▁よっしゃ	-4312
があるから	-4313
んでもない	-4314
チャラティ	-4315
がありました	-4316
しまいました	-4317
ぐる	-4318
さが	-4319
だの	-4320
エリ	-4321
テナ	-4322
俺達	-4323
個人	-4324
単純	-4325
屋敷	-4326
数の	-4327
確保	-4328
翔陽	-4329
計算	-4330
資料	-4331
▁ちな	-4332
▁ひと	-4333
▁んな	-4334
▁彼の	-4335
すぎた	-4336
ってよ	-4337
ならん	-4338
キュー	-4339
クラン	-4340
リング	-4341
続いて	-4342
誰かが	-4343
▁チーム	-4344
▁母さん	-4345
▁言って	-4346
に対する	-4347
に見える	-4348
ニュース	-4349
リヴァイ	-4350
▁あんたは	-4351
▁そこまで	-4352
くれないか	-4353
されていた	-4354
なかったの	-4355
プレゼント	-4356
どうでもいい	-4357
▁声	-4358
▁奇	-4359
▁市	-4360
▁車	-4361
の出	-4362
の実	-4363
ょう	-4364
り着	-4365
ッタ	-4366
交換	-4367
力な	-4368
多分	-4369
山の	-4370
態度	-4371
美味	-4372
詰め	-4373
面に	-4374
▁何て	-4375
▁変な	-4376
かなぁ	-4377
さまで	-4378
してて	-4379
つなが	-4380
に何か	-4381
カッコ	-4382
ビュー	-4383
ライド	-4384
人間が	-4385
先輩の	-4386
大きく	-4387
時間を	-4388
知らせ	-4389
詳しい	-4390
飲んで	-4391
魔導士	-4392
いったい	-4393
しなきゃ	-4394
そうだね	-4395
どころか	-4396
▁みんなで	-4397
しなければ	-4398
と思っていた	-4399
になっている	-4400
▁奥	-4401
▁羽	-4402
にや	-4403
に変	-4404
ばん	-4405
らも	-4406
れん	-4407
わん	-4408
キミ	-4409
マグ	-4410
レベ	-4411
一杯	-4412
中学	-4413
候補	-4414
演奏	-4415
証明	-4416
道は	-4417
遠い	-4418
▁ない	-4419
の間に	-4420
ナイス	-4421
ファイ	-4422
マジで	-4423
化した	-4424
落ちて	-4425
▁何でも	-4426
▁俺には	-4427
▁最後の	-4428
んじゃん	-4429
ーション	-4430
▁あんまり	-4431
▁ただいま	-4432
▁なんだか	-4433
▁まあいい	-4434
▁もうすぐ	-4435
いたかった	-4436
エネルギー	-4437
▁勇	-4438
▁星	-4439
▁村	-4440
▁藤	-4441
▁陽	-4442
▁驚	-4443
えっ	-4444
おか	-4445
おっ	-4446
お父	-4447
くい	-4448
さぁ	-4449
らう	-4450
を抱	-4451
メイ	-4452
ープ	-4453
代の	-4454
折木	-4455
機関	-4456
気は	-4457
温泉	-4458
突破	-4459
第一	-4460
▁馬鹿	-4461
くちゃ	-4462
この辺	-4463
やれる	-4464
らかに	-4465
わせる	-4466
サイン	-4467
二人で	-4468
終わる	-4469
遊んで	-4470
▁できる	-4471
▁彼らは	-4472
いたから	-4473
させない	-4474
のことだ	-4475
はずです	-4476
を連れて	-4477
言わない	-4478
▁おそらく	-4479
言われても	-4480
▁このままじゃ	-4481
▁指	-4482
くわ	-4483
なじ	-4484
の件	-4485
を下	-4486
アク	-4487
キス	-4488
サス	-4489
ソン	-4490
タク	-4491
テロ	-4492
合流	-4493
夢を	-4494
投手	-4495
更に	-4496
最終	-4497
望む	-4498
着て	-4499
観光	-4500
量の	-4501
▁兄貴	-4502
かした	-4503
そうで	-4504
たちと	-4505
ついに	-4506
トップ	-4507
メント	-4508
二人は	-4509
先生は	-4510
分かり	-4511
最後に	-4512
違って	-4513
部屋に	-4514
▁あそこ	-4515
▁さらに	-4516
▁まさに	-4517
▁マーレ	-4518
あんなに	-4519
すっかり	-4520
どうなる	-4521
ヒーロー	-4522
▁いろいろ	-4523
▁まだまだ	-4524
られました	-4525
れなかった	-4526
ってしまった	-4527
▁修	-4528
▁由	-4529
あん	-4530
を回	-4531
ズの	-4532
ツー	-4533
ビュ	-4534
京谷	-4535
何と	-4536
使用	-4537
危機	-4538
否定	-4539
室に	-4540
教師	-4541
死ね	-4542
残り	-4543
比べ	-4544
混乱	-4545
満足	-4546
無視	-4547
眼鏡	-4548
護衛	-4549
部下	-4550
頼み	-4551
黒い	-4552
あそこ	-4553
あの時	-4554
するぞ	-4555
っくに	-4556
ってて	-4557
ですの	-4558
どこに	-4559
もいる	-4560
トイレ	-4561
ファー	-4562
一気に	-4563
今から	-4564
優しく	-4565
場所に	-4566
巻き込	-4567
疲れた	-4568
言うと	-4569
こうして	-4570
ことない	-4571
どれだけ	-4572
世界遺産	-4573
悪くない	-4574
▁ていうか	-4575
▁調査兵団	-4576
大丈夫です	-4577
してしまった	-4578
▁以	-4579
▁加	-4580
▁左	-4581
▁町	-4582
▁集	-4583
▁馬	-4584
しき	-4585
せず	-4586
の主	-4587
の海	-4588
はは	-4589
を食	-4590
イタ	-4591
ゴリ	-4592
モテ	-4593
上で	-4594
封印	-4595
抜き	-4596
王子	-4597
現在	-4598
男は	-4599
白い	-4600
積み	-4601
資格	-4602
▁はぁ	-4603
▁全く	-4604
▁待ち	-4605
▁怖い	-4606
▁最高	-4607
▁赤木	-4608
あの子	-4609
いいな	-4610
えます	-4611
お世話	-4612
って話	-4613
に出る	-4614
ねえし	-4615
めんま	-4616
やかな	-4617
ラーン	-4618
ートの	-4619
決まり	-4620
途中で	-4621
▁その時	-4622
ちゃんを	-4623
っていく	-4624
まらない	-4625
スタート	-4626
チェック	-4627
ースター	-4628
俺たちは	-4629
合ってる	-4630
▁こっちは	-4631
▁ちなみに	-4632
ちょうだい	-4633
ってんだよ	-4634
と思ったら	-4635
失礼します	-4636
▁各	-4637
▁歌	-4638
▁絶	-4639
▁進	-4640
うわ	-4641
たび	-4642
アド	-4643
ラル	-4644
反省	-4645
坂本	-4646
外に	-4647
寒い	-4648
幽霊	-4649
感覚	-4650
操作	-4651
本物	-4652
滅ぼ	-4653
番号	-4654
買う	-4655
が高い	-4656
くんの	-4657
っすね	-4658
を倒す	-4659
セリフ	-4660
プテン	-4661
以上の	-4662
始まり	-4663
悲しい	-4664
捨てる	-4665
誰かに	-4666
▁あのさ	-4667
▁いやあ	-4668
▁今のは	-4669
しに来た	-4670
ですって	-4671
ターゲット	-4672
▁そうですか	-4673
っているのか	-4674
▁七	-4675
▁打	-4676
▁違	-4677
が今	-4678
きり	-4679
と申	-4680
の地	-4681
ふざ	-4682
トロ	-4683
リバ	-4684
レッ	-4685
ーフ	-4686
万円	-4687
事だ	-4688
内容	-4689
実際	-4690
日が	-4691
緊急	-4692
解放	-4693
話が	-4694
▁すっ	-4695
▁やあ	-4696
▁俺と	-4697
▁名前	-4698
▁知ら	-4699
▁突然	-4700
おいで	-4701
この世	-4702
そうね	-4703
だらけ	-4704
ならぬ	-4705
に近づ	-4706
の準備	-4707
セージ	-4708
ターン	-4709
ビール	-4710
ワード	-4711
会える	-4712
思いを	-4713
▁あのね	-4714
▁つーか	-4715
いつもの	-4716
ったって	-4717
なのかな	-4718
にしよう	-4719
ましたよ	-4720
もうすぐ	-4721
れません	-4722
ライナー	-4723
▁いよいよ	-4724
▁アメリカ	-4725
こともある	-4726
のおかげで	-4727
らなかった	-4728
来てくれた	-4729
▁お姉ちゃん	-4730
▁ゲ	-4731
▁南	-4732
▁川	-4733
▁晶	-4734
▁有	-4735
さず	-4736
に頼	-4737
の子	-4738
ひど	-4739
んじ	-4740
シナ	-4741
ジー	-4742
テム	-4743
ドロ	-4744
ノー	-4745
ビス	-4746
代表	-4747
伝わ	-4748
優先	-4749
到着	-4750
喜ぶ	-4751
引く	-4752
手段	-4753
攻め	-4754
敵に	-4755
荷物	-4756
賭け	-4757
ここが	-4758
たない	-4759
だっけ	-4760
となり	-4761
なもの	-4762
を食べ	-4763
ニュー	-4764
ルート	-4765
ンドラ	-4766
人には	-4767
助けた	-4768
本当は	-4769
落ちた	-4770
かなきゃ	-4771
つもりで	-4772
なことを	-4773
もらえる	-4774
忘れない	-4775
▁かわいい	-4776
▁なかなか	-4777
▁なんとか	-4778
▁大丈夫か	-4779
しかいない	-4780
してくれて	-4781
と呼ばれる	-4782
▁傷	-4783
▁身	-4784
ずら	-4785
に着	-4786
の発	-4787
らと	-4788
ろい	-4789
を越	-4790
デン	-4791
ンコ	-4792
受験	-4793
向き	-4794
展開	-4795
店の	-4796
族の	-4797
生の	-4798
立場	-4799
説得	-4800
部員	-4801
▁あん	-4802
▁お主	-4803
▁フラ	-4804
▁引き	-4805
きてる	-4806
すげぇ	-4807
りする	-4808
わけで	-4809
を破壊	-4810
クール	-4811
ローゼ	-4812
今すぐ	-4813
監視官	-4814
知った	-4815
▁いずれ	-4816
からです	-4817
されたら	-4818
られます	-4819
アイドル	-4820
ーちゃん	-4821
言っても	-4822
錬金術師	-4823
おめでとう	-4824
していない	-4825
どうしても	-4826
はずなのに	-4827
▁太	-4828
▁黙	-4829
いぶ	-4830
うま	-4831
れは	-4832
コラ	-4833
コロ	-4834
ゼロ	-4835
デオ	-4836
リエ	-4837
一応	-4838
二十	-4839
元の	-4840
具合	-4841
内の	-4842
制服	-4843
国を	-4844
多く	-4845
扱い	-4846
時計	-4847
東大	-4848
湯音	-4849
長の	-4850
▁いっ	-4851
かえり	-4852
かわい	-4853
すげえ	-4854
すんだ	-4855
だなぁ	-4856
と思い	-4857
の一つ	-4858
カフェ	-4859
シャン	-4860
仲良く	-4861
分かん	-4862
困った	-4863
多くの	-4864
過ぎて	-4865
▁おめえ	-4866
▁その後	-4867
いたのは	-4868
がいない	-4869
さないで	-4870
ったのか	-4871
ってます	-4872
と思うよ	-4873
なさいよ	-4874
なんだか	-4875
において	-4876
にはもう	-4877
ようやく	-4878
らないと	-4879
んじゃあ	-4880
▁さすがに	-4881
▁そうだね	-4882
というのか	-4883
▁そういうこと	-4884
んじゃないのか	-4885
▁去	-4886
▁弟	-4887
▁断	-4888
▁根	-4889
▁退	-4890
▁間	-4891
が止	-4892
ご存	-4893
だべ	-4894
どお	-4895
コア	-4896
ッフ	-4897
ルメ	-4898
他に	-4899
入る	-4900
公園	-4901
意気	-4902
戻る	-4903
指導	-4904
様を	-4905
波紋	-4906
済み	-4907
犯人	-4908
異常	-4909
社の	-4910
腕を	-4911
走る	-4912
▁んだ	-4913
▁余計	-4914
▁取り	-4915
▁強い	-4916
くんが	-4917
けりゃ	-4918
したか	-4919
でかい	-4920
なると	-4921
ねぇぞ	-4922
の意味	-4923
は私が	-4924
んのに	-4925
ガード	-4926
スパイ	-4927
ムライ	-4928
ワイン	-4929
仕事を	-4930
掛けた	-4931
最高の	-4932
理由は	-4933
隠れて	-4934
▁一人で	-4935
があなた	-4936
せっかく	-4937
なんだろ	-4938
はっきり	-4939
わかって	-4940
をつける	-4941
を見つけ	-4942
待ってて	-4943
必要ない	-4944
▁私たちの	-4945
んだけどね	-4946
ピッチング	-4947
ではなかった	-4948
▁岩	-4949
▁肉	-4950
▁離	-4951
いね	-4952
おや	-4953
と戦	-4954
ばか	-4955
ガネ	-4956
キン	-4957
セス	-4958
交代	-4959
呼吸	-4960
寄り	-4961
寝る	-4962
振る	-4963
接近	-4964
水が	-4965
砂漠	-4966
▁うそ	-4967
▁はな	-4968
▁プロ	-4969
▁結果	-4970
▁行け	-4971
からお	-4972
がいた	-4973
すりゃ	-4974
するに	-4975
のって	-4976
みよう	-4977
やがれ	-4978
を持ち	-4979
んのは	-4980
ニック	-4981
ホテル	-4982
メンコ	-4983
ローマ	-4984
人とも	-4985
体機動	-4986
全ての	-4987
彼女の	-4988
新たな	-4989
自分に	-4990
飛んで	-4991
▁うまく	-4992
▁ほかの	-4993
▁大事な	-4994
▁明日の	-4995
から来た	-4996
ついてる	-4997
になると	-4998
に対して	-4999
んできた	-5000
バッター	-5001
恐ろしい	-5002
▁ああそう	-5003
▁おいしい	-5004
▁クリスタ	-5005
からずっと	-5006
じいちゃん	-5007
と思ってる	-5008
何があった	-5009
そういうこと	-5010
▁久	-5011
くよ	-5012
ざる	-5013
とけ	-5014
の奥	-5015
ひろ	-5016
べく	-5017
みな	-5018
アラ	-5019
ギュ	-5020
ボケ	-5021
一歩	-5022
丹波	-5023
作る	-5024
回復	-5025
声を	-5026
家を	-5027
恐怖	-5028
探し	-5029
映像	-5030
水を	-5031
神様	-5032
耐え	-5033
自慢	-5034
表情	-5035
赤い	-5036
野寺	-5037
▁パパ	-5038
▁ラン	-5039
▁生徒	-5040
いいぞ	-5041
かせる	-5042
しそう	-5043
しねえ	-5044
じゃね	-5045
の能力	-5046
むしろ	-5047
シャル	-5048
テール	-5049
ライン	-5050
ーパー	-5051
時間は	-5052
▁今回の	-5053
かったな	-5054
かないで	-5055
が欲しい	-5056
してんだ	-5057
だったが	-5058
どこかで	-5059
アッシュ	-5060
コーヒー	-5061
二人とも	-5062
終わりだ	-5063
▁いい加減	-5064
▁これより	-5065
▁ようやく	-5066
▁エリアル	-5067
いいですか	-5068
えなかった	-5069
かと思った	-5070
きましょう	-5071
しちゃって	-5072
ようとして	-5073
りましょう	-5074
われている	-5075
ントロール	-5076
分かります	-5077
思い出した	-5078
じゃないのか	-5079
▁和	-5080
▁熱	-5081
▁緑	-5082
▁道	-5083
とね	-5084
の死	-5085
オニ	-5086
ネス	-5087
ムカ	-5088
メモ	-5089
仮面	-5090
取れ	-5091
唯一	-5092
女は	-5093
専門	-5094
彼が	-5095
得点	-5096
知る	-5097
諸君	-5098
達も	-5099
▁フィ	-5100
▁大人	-5101
▁目標	-5102
それも	-5103
っしょ	-5104
オレは	-5105
バック	-5106
世界を	-5107
帰ろう	-5108
楽しく	-5109
▁好きな	-5110
いいけど	-5111
ともかく	-5112
に入った	-5113
に入れて	-5114
はしない	-5115
▁俺たちが	-5116
するために	-5117
だと思って	-5118
はずがない	-5119
素晴らしい	-5120
ことができた	-5121
▁お願いします	-5122
▁守	-5123
▁弱	-5124
▁桜	-5125
▁阿	-5126
▁首	-5127
がて	-5128
しだ	-5129
の目	-5130
はよ	-5131
わが	-5132
ガス	-5133
側に	-5134
働き	-5135
僕に	-5136
割り	-5137
商売	-5138
孤独	-5139
帰れ	-5140
意地	-5141
暴走	-5142
田一	-5143
登場	-5144
背中	-5145
逆に	-5146
避け	-5147
雰囲	-5148
▁サン	-5149
▁地下	-5150
かして	-5151
が一番	-5152
くのは	-5153
だなあ	-5154
っかけ	-5155
にはな	-5156
ませぬ	-5157
を信じ	-5158
を止め	-5159
休んで	-5160
作って	-5161
巨人に	-5162
本物の	-5163
特別な	-5164
逃げた	-5165
▁何とか	-5166
▁教えて	-5167
あったら	-5168
いきます	-5169
いながら	-5170
えてきた	-5171
があると	-5172
さっきの	-5173
じゃなく	-5174
になれば	-5175
ショック	-5176
私たちの	-5177
集まって	-5178
▁わたしは	-5179
▁ウォール	-5180
▁当たり前	-5181
と思うけど	-5182
ストレート	-5183
に決まってる	-5184
びっくりした	-5185
▁悔	-5186
▁軍	-5187
▁銀	-5188
が通	-5189
こん	-5190
でよ	-5191
と出	-5192
に触	-5193
の分	-5194
の前	-5195
ぶつ	-5196
れが	-5197
ビビ	-5198
事で	-5199
冒険	-5200
女が	-5201
徹底	-5202
成績	-5203
所詮	-5204
機能	-5205
現場	-5206
見ろ	-5207
記念	-5208
頭に	-5209
▁やだ	-5210
▁ブラ	-5211
▁俺を	-5212
▁手を	-5213
▁正義	-5214
▁結婚	-5215
すのは	-5216
っとと	-5217
っとも	-5218
はあの	-5219
まさに	-5220
よって	-5221
わざと	-5222
を確認	-5223
事務所	-5224
井さん	-5225
太さん	-5226
意外と	-5227
普通に	-5228
野さん	-5229
▁あの日	-5230
▁この世	-5231
▁この辺	-5232
▁すまん	-5233
▁キルア	-5234
▁巨人の	-5235
▁聞いた	-5236
でしたね	-5237
ナンバー	-5238
▁あいつら	-5239
▁しまった	-5240
とりあえず	-5241
ようですね	-5242
分かりません	-5243
▁狙	-5244
でい	-5245
に住	-5246
の奴	-5247
の森	-5248
ネタ	-5249
メル	-5250
三陸	-5251
二つ	-5252
交渉	-5253
医者	-5254
弁護	-5255
待機	-5256
承知	-5257
撤退	-5258
気味	-5259
環境	-5260
田君	-5261
直す	-5262
聞け	-5263
自己	-5264
装備	-5265
誤解	-5266
転校	-5267
辛い	-5268
頭が	-5269
▁いけ	-5270
▁たく	-5271
▁コー	-5272
▁バー	-5273
▁先に	-5274
▁初め	-5275
▁前に	-5276
▁後ろ	-5277
いるか	-5278
お待ち	-5279
がまだ	-5280
っぷり	-5281
どうせ	-5282
やすみ	-5283
やり方	-5284
わいね	-5285
チャン	-5286
ペース	-5287
ロット	-5288
人たち	-5289
始まる	-5290
必要な	-5291
昨日の	-5292
殺して	-5293
泣いて	-5294
立って	-5295
言い方	-5296
買い物	-5297
▁ひどい	-5298
あんたは	-5299
ってたら	-5300
のおかげ	-5301
ダメージ	-5302
気持ちは	-5303
考えてる	-5304
▁あなたも	-5305
▁すまない	-5306
▁そいつは	-5307
があっても	-5308
だったけど	-5309
どこにいる	-5310
ばあちゃん	-5311
ヒストリア	-5312
って言ってる	-5313
んでしょうか	-5314
▁何やってんだ	-5315
んじゃないかって	-5316
▁余	-5317
▁別	-5318
▁暗	-5319
▁松	-5320
▁薬	-5321
▁迷	-5322
こな	-5323
ごろ	-5324
の顔	-5325
めの	-5326
イズ	-5327
ソカ	-5328
チの	-5329
メッ	-5330
予告	-5331
努力	-5332
図書	-5333
壁の	-5334
景色	-5335
気持	-5336
深海	-5337
無茶	-5338
空気	-5339
要求	-5340
達に	-5341
関わ	-5342
▁お嬢	-5343
▁急に	-5344
▁言葉	-5345
そっか	-5346
だもん	-5347
っつう	-5348
ねえか	-5349
のにな	-5350
わよね	-5351
を助け	-5352
を果た	-5353
ショウ	-5354
ストラ	-5355
ピンチ	-5356
ンジン	-5357
ーっと	-5358
事件の	-5359
付いて	-5360
勝てる	-5361
時から	-5362
行ける	-5363
飛行機	-5364
▁すごく	-5365
▁そそう	-5366
▁コニー	-5367
くらいの	-5368
それぞれ	-5369
つかない	-5370
始まった	-5371
決まった	-5372
▁俺だって	-5373
してほしい	-5374
してもらう	-5375
できました	-5376
ですからね	-5377
のでしょう	-5378
クリスマス	-5379
ことになった	-5380
ございません	-5381
▁もしかしたら	-5382
▁構	-5383
▁若	-5384
めば	-5385
んち	-5386
サル	-5387
ビル	-5388
一発	-5389
休憩	-5390
屋根	-5391
年で	-5392
広い	-5393
延び	-5394
恋愛	-5395
戦で	-5396
打つ	-5397
拘束	-5398
聖杯	-5399
速い	-5400
騒が	-5401
▁しゃ	-5402
▁カー	-5403
▁宇宙	-5404
がその	-5405
こだわ	-5406
たのか	-5407
に出て	-5408
の問題	-5409
ほかに	-5410
やない	-5411
らして	-5412
れます	-5413
ウント	-5414
オーラ	-5415
サイト	-5416
ベッド	-5417
ミルの	-5418
入った	-5419
憲兵団	-5420
暮らし	-5421
永遠に	-5422
知らず	-5423
自由に	-5424
過ぎる	-5425
▁すでに	-5426
▁アイツ	-5427
▁バカな	-5428
▁今すぐ	-5429
▁行こう	-5430
えました	-5431
かったら	-5432
こいつら	-5433
したから	-5434
とうとう	-5435
はいつも	-5436
ままでは	-5437
みたいだ	-5438
みたいね	-5439
を受けた	-5440
を止める	-5441
不思議な	-5442
合わない	-5443
▁あいつが	-5444
▁やれやれ	-5445
ってたんだ	-5446
というわけ	-5447
ようになる	-5448
んだろうが	-5449
ピッチャー	-5450
気をつけて	-5451
▁こんにちは	-5452
▁どうしても	-5453
されています	-5454
わけにはいか	-5455
なければならない	-5456
▁苦	-5457
▁重	-5458
とり	-5459
に何	-5460
のコ	-5461
は見	-5462
ほか	-5463
ぼう	-5464
まね	-5465
ゴミ	-5466
サボ	-5467
ドア	-5468
ミサ	-5469
リズ	-5470
中央	-5471
人質	-5472
処分	-5473
処理	-5474
古い	-5475
回る	-5476
家が	-5477
後輩	-5478
手前	-5479
抵抗	-5480
日を	-5481
海南	-5482
深く	-5483
特殊	-5484
男子	-5485
自殺	-5486
菓子	-5487
警部	-5488
遺跡	-5489
長く	-5490
▁だめ	-5491
▁コン	-5492
▁出て	-5493
▁恒星	-5494
▁気が	-5495
▁準備	-5496
かける	-5497
たぶん	-5498
だけを	-5499
だわさ	-5500
っかい	-5501
ってね	-5502
でござ	-5503
ときの	-5504
の人生	-5505
やるぜ	-5506
を開始	-5507
コイツ	-5508
ライク	-5509
リーン	-5510
任せる	-5511
働いて	-5512
入れた	-5513
学校の	-5514
巨人を	-5515
捕まえ	-5516
見ても	-5517
選んだ	-5518
▁あった	-5519
▁面白い	-5520
あなたに	-5521
いるんだ	-5522
きれいな	-5523
してあげ	-5524
できたら	-5525
なんかに	-5526
ねえんだ	-5527
のことで	-5528
もしない	-5529
ウォール	-5530
クイーン	-5531
マウンド	-5532
気にして	-5533
負けない	-5534
▁まあまあ	-5535
▁久しぶり	-5536
するなんて	-5537
相変わらず	-5538
▁そうですね	-5539
られています	-5540
んじゃねえよ	-5541
▁いやいやいや	-5542
▁『	-5543
▁に	-5544
▁危	-5545
▁土	-5546
▁己	-5547
▁息	-5548
▁抜	-5549
▁物	-5550
▁黄	-5551
がや	-5552
に来	-5553
の国	-5554
んけ	-5555
ォー	-5556
スク	-5557
ミネ	-5558
リィ	-5559
リル	-5560
今も	-5561
修行	-5562
僕を	-5563
分の	-5564
参考	-5565
命の	-5566
圭太	-5567
地で	-5568
届け	-5569
急げ	-5570
抱き	-5571
教室	-5572
本を	-5573
権利	-5574
知識	-5575
継承	-5576
自覚	-5577
艦隊	-5578
遅刻	-5579
遠慮	-5580
陛下	-5581
▁やり	-5582
▁ガキ	-5583
▁人で	-5584
▁練習	-5585
かかる	-5586
この町	-5587
ご苦労	-5588
さらに	-5589
どこへ	-5590
の仲間	-5591
は俺が	-5592
まずは	-5593
もって	-5594
ゴール	-5595
ヒット	-5596
仕掛け	-5597
以外の	-5598
全てを	-5599
切れる	-5600
投げて	-5601
書いた	-5602
行くよ	-5603
見えた	-5604
認めて	-5605
逃げろ	-5606
▁お前を	-5607
▁この前	-5608
▁つうか	-5609
▁父さん	-5610
▁誰にも	-5611
さすがに	-5612
だという	-5613
といえば	-5614
やるから	-5615
らないで	-5616
んのかよ	-5617
ラーメン	-5618
上がった	-5619
入ってる	-5620
気持ちが	-5621
▁あなたに	-5622
かっている	-5623
がなかった	-5624
そうだけど	-5625
久しぶりに	-5626
帰ってきた	-5627
▁そのために	-5628
になっちゃう	-5629
▁円	-5630
▁夕	-5631
▁盗	-5632
▁胸	-5633
ざま	-5634
せぇ	-5635
ほぼ	-5636
を刺	-5637
ウニ	-5638
オラ	-5639
ダム	-5640
ボン	-5641
リュ	-5642
俺だ	-5643
倒す	-5644
凄い	-5645
処刑	-5646
去る	-5647
口に	-5648
巨大	-5649
所属	-5650
明け	-5651
本来	-5652
決着	-5653
消し	-5654
点差	-5655
為に	-5656
登録	-5657
真似	-5658
罪を	-5659
臭い	-5660
色々	-5661
親友	-5662
電波	-5663
▁敵の	-5664
▁母親	-5665
▁痛い	-5666
▁鈴芽	-5667
ここへ	-5668
この子	-5669
そちら	-5670
ですな	-5671
どもの	-5672
なりに	-5673
もった	-5674
れても	-5675
センチ	-5676
バット	-5677
ビルス	-5678
一つの	-5679
二人の	-5680
先輩が	-5681
先輩は	-5682
出来る	-5683
受ける	-5684
年前に	-5685
彼女は	-5686
昔から	-5687
相手の	-5688
▁いって	-5689
▁そこの	-5690
▁めんま	-5691
▁ハンジ	-5692
▁危ない	-5693
いいのに	-5694
うるさい	-5695
すべてを	-5696
はどこだ	-5697
まだまだ	-5698
グループ	-5699
センター	-5700
ヴァント	-5701
▁いったい	-5702
▁いつまで	-5703
▁うるせえ	-5704
▁しばらく	-5705
▁そのまま	-5706
▁今度こそ	-5707
▁落ち着け	-5708
いつまでも	-5709
してんだよ	-5710
られません	-5711
行ってくる	-5712
じゃないんだ	-5713
を持っている	-5714
▁歩	-5715
▁蓮	-5716
か月	-5717
の高	-5718
まじ	-5719
を残	-5720
アホ	-5721
シタ	-5722
チビ	-5723
ッカ	-5724
ピン	-5725
ポン	-5726
主人	-5727
人物	-5728
保証	-5729
原稿	-5730
収容	-5731
名乗	-5732
変態	-5733
夫婦	-5734
度は	-5735
感動	-5736
教育	-5737
敵を	-5738
残る	-5739
浴び	-5740
自ら	-5741
龍馬	-5742
▁後は	-5743
▁戦闘	-5744
▁日向	-5745
▁最悪	-5746
▁第一	-5747
▁言う	-5748
あとは	-5749
いちゃ	-5750
かつて	-5751
が出て	-5752
とった	-5753
のかも	-5754
のもの	-5755
の存在	-5756
ままだ	-5757
めたら	-5758
もんか	-5759
んとこ	-5760
ギリス	-5761
ページ	-5762
先生に	-5763
勝った	-5764
唯一の	-5765
当たる	-5766
時点で	-5767
替えて	-5768
桜木君	-5769
現れる	-5770
目に遭	-5771
私には	-5772
能力者	-5773
落とす	-5774
誕生日	-5775
▁クラス	-5776
▁何だか	-5777
あいつが	-5778
あいつの	-5779
あるから	-5780
がってる	-5781
こっちの	-5782
しくなる	-5783
といって	-5784
らなきゃ	-5785
アイテム	-5786
聞こえて	-5787
許さない	-5788
▁われわれ	-5789
さまでした	-5790
してしまう	-5791
に向かって	-5792
もあります	-5793
わけがない	-5794
プログラム	-5795
いてください	-5796
そんなことを	-5797
分かりました	-5798
▁取	-5799
▁念	-5800
▁未	-5801
▁楽	-5802
▁犬	-5803
かま	-5804
すり	-5805
せに	-5806
のご	-5807
べる	-5808
を売	-5809
を発	-5810
キル	-5811
ゴロ	-5812
ーブ	-5813
下手	-5814
人か	-5815
仕業	-5816
伯爵	-5817
例の	-5818
初め	-5819
味わ	-5820
嫌な	-5821
対象	-5822
御坂	-5823
悪く	-5824
悲し	-5825
成り	-5826
操縦	-5827
普段	-5828
正解	-5829
江戸	-5830
治療	-5831
泥棒	-5832
無い	-5833
狭い	-5834
皇帝	-5835
真面	-5836
石を	-5837
第二	-5838
結界	-5839
途中	-5840
運び	-5841
鈴鹿	-5842
鉄の	-5843
開け	-5844
風邪	-5845
飛ぶ	-5846
▁何と	-5847
▁何故	-5848
▁真っ	-5849
かなあ	-5850
からよ	-5851
けてる	-5852
さんお	-5853
そばに	-5854
に会う	-5855
の話を	-5856
ばっぱ	-5857
ほかの	-5858
よりは	-5859
んだか	-5860
アイツ	-5861
ジェラ	-5862
ゾーン	-5863
プリン	-5864
ヤバい	-5865
レット	-5866
ワイイ	-5867
上がり	-5868
世界の	-5869
伝える	-5870
動いて	-5871
化け物	-5872
場所で	-5873
恐らく	-5874
方不明	-5875
買った	-5876
▁ありが	-5877
が見える	-5878
じぇじぇ	-5879
だったね	-5880
ところは	-5881
とっても	-5882
どこまで	-5883
ますから	-5884
やります	-5885
よくない	-5886
マフィア	-5887
俺たちが	-5888
▁これじゃ	-5889
▁でもその	-5890
はなかった	-5891
キャプテン	-5892
戻ってきた	-5893
気になって	-5894
▁これからも	-5895
▁だからこそ	-5896
▁り	-5897
▁仮	-5898
▁幸	-5899
▁武	-5900
▁軽	-5901
々は	-5902
お店	-5903
くか	-5904
ずる	-5905
ほれ	-5906
ゆき	-5907
を破	-5908
マト	-5909
レオ	-5910
先の	-5911
出発	-5912
勝手	-5913
執行	-5914
大型	-5915
恐れ	-5916
払う	-5917
捕獲	-5918
提案	-5919
敗北	-5920
汚い	-5921
泣き	-5922
犯行	-5923
神経	-5924
種類	-5925
走り	-5926
遅れ	-5927
達を	-5928
部を	-5929
間は	-5930
青道	-5931
▁ハッ	-5932
▁一方	-5933
▁人を	-5934
▁始祖	-5935
▁考え	-5936
▁誰だ	-5937
えたら	-5938
でない	-5939
でもう	-5940
とやら	-5941
に手を	-5942
の前で	-5943
ぼっち	-5944
よなら	-5945
んだい	-5946
ロード	-5947
受けた	-5948
少しは	-5949
思いつ	-5950
教える	-5951
時代の	-5952
暮らす	-5953
最初の	-5954
無理だ	-5955
諦めて	-5956
部屋で	-5957
離れた	-5958
▁この子	-5959
▁何それ	-5960
▁巨人が	-5961
▁死んだ	-5962
いらない	-5963
してから	-5964
そう思う	-5965
ってたの	-5966
なかなか	-5967
に乗って	-5968
みんなに	-5969
やってた	-5970
ライダー	-5971
果たして	-5972
落とした	-5973
▁いろんな	-5974
▁ずいぶん	-5975
があるなら	-5976
しやがって	-5977
と申します	-5978
聞きました	-5979
言いました	-5980
んじゃねえぞ	-5981
ディフェンス	-5982
んじゃないですか	-5983
▁優	-5984
▁剣	-5985
▁吉	-5986
▁失	-5987
▁横	-5988
▁瀧	-5989
▁猫	-5990
たん	-5991
ちま	-5992
ん中	-5993
クス	-5994
ドウ	-5995
フロ	-5996
レナ	-5997
不死	-5998
予選	-5999
出番	-6000
博士	-6001
営業	-6002
奉行	-6003
奴隷	-6004
好み	-6005
封じ	-6006
島に	-6007
新聞	-6008
注文	-6009
痛み	-6010
編集	-6011
補給	-6012
複雑	-6013
返せ	-6014
音を	-6015
食事	-6016
▁アイ	-6017
▁シン	-6018
▁女の	-6019
▁忘れ	-6020
▁面倒	-6021
▁魔法	-6022
いでに	-6023
おめえ	-6024
が出る	-6025
くても	-6026
ちそう	-6027
つきあ	-6028
なんの	-6029
の人に	-6030
は私の	-6031
もねえ	-6032
やつが	-6033
ようぜ	-6034
エリア	-6035
持ち主	-6036
目的は	-6037
笑って	-6038
▁すげえ	-6039
▁クソッ	-6040
▁昨日の	-6041
あいつら	-6042
それって	-6043
ためにも	-6044
っという	-6045
ターハイ	-6046
使えない	-6047
手伝って	-6048
知りたい	-6049
▁お待たせ	-6050
▁頑張って	-6051
もらえない	-6052
必要がある	-6053
間違いなく	-6054
▁ジョーカー	-6055
▁亜	-6056
▁冬	-6057
▁秒	-6058
▁鬼	-6059
が広	-6060
が行	-6061
けが	-6062
しを	-6063
すの	-6064
ずり	-6065
に応	-6066
の裏	-6067
もと	-6068
よぉ	-6069
よこ	-6070
を押	-6071
を撃	-6072
んね	-6073
クの	-6074
シカ	-6075
テメ	-6076
ヌキ	-6077
ノコ	-6078
ホロ	-6079
ヶ月	-6080
一郎	-6081
不足	-6082
伸ば	-6083
兵衛	-6084
匂い	-6085
奈美	-6086
守備	-6087
家庭	-6088
就職	-6089
招待	-6090
挑戦	-6091
木の	-6092
果て	-6093
穴を	-6094
育て	-6095
色の	-6096
血が	-6097
読む	-6098
金の	-6099
集合	-6100
▁おじ	-6101
▁一生	-6102
▁後で	-6103
▁意味	-6104
▁楽し	-6105
▁殺す	-6106
▁逃が	-6107
から見	-6108
だしな	-6109
とこで	-6110
と違う	-6111
の味方	-6112
の言葉	-6113
は俺の	-6114
またま	-6115
もこの	-6116
コスモ	-6117
似合う	-6118
使った	-6119
出せる	-6120
弁護士	-6121
文化祭	-6122
状況を	-6123
的には	-6124
答えて	-6125
▁お帰り	-6126
▁そこは	-6127
▁人とも	-6128
▁大切な	-6129
▁決して	-6130
せんせー	-6131
とかいう	-6132
なんだが	-6133
を取り戻	-6134
一生懸命	-6135
▁今日から	-6136
くださいね	-6137
したかった	-6138
するつもり	-6139
になっても	-6140
ねえんだよ	-6141
やっている	-6142
ッカーマン	-6143
分かんねえ	-6144
▁そうやって	-6145
っているのは	-6146
▁分かりました	-6147
▁紅	-6148
▁腕	-6149
▁触	-6150
あが	-6151
な話	-6152
の体	-6153
はん	-6154
を描	-6155
ジオ	-6156
ツィ	-6157
フフ	-6158
ブレ	-6159
中止	-6160
住民	-6161
何度	-6162
信号	-6163
側の	-6164
叩き	-6165
圧倒	-6166
捜索	-6167
攻略	-6168
検査	-6169
氷河	-6170
点は	-6171
目撃	-6172
相応	-6173
脅威	-6174
衝撃	-6175
衣装	-6176
車で	-6177
進む	-6178
遊ぶ	-6179
▁いわ	-6180
▁ばか	-6181
▁やっ	-6182
▁シェ	-6183
▁チェ	-6184
▁ハン	-6185
▁写真	-6186
▁未来	-6187
▁終わ	-6188
▁降谷	-6189
しとる	-6190
じゃな	-6191
どこだ	-6192
どもが	-6193
に入れ	-6194
の上に	-6195
コール	-6196
パンツ	-6197
ヤツは	-6198
リック	-6199
レンジ	-6200
今のは	-6201
危険な	-6202
場所は	-6203
夏休み	-6204
大した	-6205
待った	-6206
時間に	-6207
▁この人	-6208
▁なんな	-6209
▁マジで	-6210
▁何度も	-6211
▁大きな	-6212
▁完全に	-6213
▁誰かが	-6214
きながら	-6215
していく	-6216
すんなよ	-6217
それじゃ	-6218
それでも	-6219
できるか	-6220
とっくに	-6221
もういい	-6222
るなんて	-6223
クリスタ	-6224
ドキドキ	-6225
ブラック	-6226
ヴィクト	-6227
何言って	-6228
捕まえて	-6229
▁お前には	-6230
▁そりゃあ	-6231
▁もともと	-6232
▁アッシュ	-6233
▁何やって	-6234
そうですね	-6235
みたいだな	-6236
レーション	-6237
▁これからは	-6238
▁さっきから	-6239
▁おはようございます	-6240
▁咲	-6241
▁慎	-6242
▁暴	-6243
▁甘	-6244
▁非	-6245
えん	-6246
が増	-6247
でさ	-6248
の生	-6249
エス	-6250
ピア	-6251
ヨー	-6252
ワク	-6253
不幸	-6254
人気	-6255
偉い	-6256
内で	-6257
力に	-6258
半端	-6259
号機	-6260
喜び	-6261
回も	-6262
国は	-6263
大佐	-6264
審査	-6265
届く	-6266
幻想	-6267
度の	-6268
日向	-6269
本部	-6270
正直	-6271
球を	-6272
田舎	-6273
男だ	-6274
留守	-6275
笑う	-6276
速攻	-6277
開発	-6278
集め	-6279
▁お兄	-6280
▁すま	-6281
▁どの	-6282
▁マル	-6283
▁今夜	-6284
▁仕方	-6285
▁仗助	-6286
▁本来	-6287
▁覚悟	-6288
ありゃ	-6289
いては	-6290
がねぇ	-6291
けんな	-6292
してや	-6293
つらい	-6294
ねーよ	-6295
のもと	-6296
は全て	-6297
をかけ	-6298
を利用	-6299
んだし	-6300
アンタ	-6301
カップ	-6302
カレー	-6303
センス	-6304
ナイフ	-6305
付けた	-6306
呼んだ	-6307
座って	-6308
捨てた	-6309
掛ける	-6310
繰り返	-6311
警察に	-6312
食って	-6313
▁でもね	-6314
▁もはや	-6315
そうなの	-6316
でしたか	-6317
ないのに	-6318
にあった	-6319
に戻って	-6320
ますます	-6321
を受ける	-6322
んだっけ	-6323
違います	-6324
食べたい	-6325
▁おっしゃ	-6326
▁その前に	-6327
▁どんなに	-6328
▁マスター	-6329
したくない	-6330
そういうの	-6331
だからって	-6332
といいます	-6333
なんですね	-6334
よろしくね	-6335
プレーヤー	-6336
▁エルディア	-6337
だと思います	-6338
大丈夫ですか	-6339
▁ザ	-6340
▁妹	-6341
▁片	-6342
▁福	-6343
▁鍵	-6344
▁関	-6345
が多	-6346
が高	-6347
ご覧	-6348
せろ	-6349
ちの	-6350
とど	-6351
に渡	-6352
オリ	-6353
ピカ	-6354
マシ	-6355
ミナ	-6356
レフ	-6357
一方	-6358
三井	-6359
体育	-6360
停止	-6361
大勢	-6362
嫌だ	-6363
宮殿	-6364
得る	-6365
把握	-6366
散歩	-6367
歓迎	-6368
稼ぎ	-6369
街の	-6370
進化	-6371
隠れ	-6372
頼り	-6373
首を	-6374
▁よい	-6375
▁ドラ	-6376
▁何や	-6377
▁敵は	-6378
かもね	-6379
から出	-6380
かろう	-6381
ここを	-6382
しすぎ	-6383
してよ	-6384
すまん	-6385
って事	-6386
の名前	-6387
めてる	-6388
もので	-6389
やかし	-6390
やかに	-6391
らねぇ	-6392
られん	-6393
んたん	-6394
オレの	-6395
プレイ	-6396
マーク	-6397
ユミル	-6398
互いに	-6399
知り合	-6400
良々木	-6401
行くの	-6402
言い訳	-6403
▁あのう	-6404
▁うまい	-6405
▁せっか	-6406
▁どっか	-6407
▁はじめ	-6408
▁ははい	-6409
▁はーい	-6410
▁バスケ	-6411
▁小さい	-6412
▁簡単に	-6413
いいこと	-6414
いつまで	-6415
いよいよ	-6416
けばいい	-6417
すまない	-6418
そっくり	-6419
ところを	-6420
ないのか	-6421
になろう	-6422
の間にか	-6423
みんなが	-6424
ようなら	-6425
らしいな	-6426
りますよ	-6427
思い出す	-6428
繰り返す	-6429
考えても	-6430
▁だいたい	-6431
▁私だって	-6432
じゃないと	-6433
っていうの	-6434
といけない	-6435
られるのは	-6436
シャーマン	-6437
プリキュア	-6438
生きている	-6439
▁わかってる	-6440
ということは	-6441
よかったのに	-6442
▁ありがとうございました	-6443
▁船	-6444
が降	-6445
ぜひ	-6446
で見	-6447
に潜	-6448
の数	-6449
の水	-6450
はじ	-6451
イケ	-6452
グリ	-6453
サラ	-6454
リヤ	-6455
・・	-6456
使命	-6457
及び	-6458
古代	-6459
向け	-6460
吹っ	-6461
回収	-6462
壁を	-6463
対策	-6464
強さ	-6465
心は	-6466
快斗	-6467
日も	-6468
書類	-6469
維持	-6470
認識	-6471
部が	-6472
防御	-6473
▁全国	-6474
▁止め	-6475
▁田中	-6476
▁立ち	-6477
▁答え	-6478
▁自由	-6479
けどさ	-6480
ちょっ	-6481
っての	-6482
とその	-6483
どこか	-6484
に入り	-6485
に取り	-6486
はじめ	-6487
は必ず	-6488
みてぇ	-6489
を知る	-6490
コート	-6491
シロエ	-6492
レイス	-6493
ーラー	-6494
世界に	-6495
人間は	-6496
友人帳	-6497
寝てる	-6498
引っ越	-6499
様です	-6500
褒めて	-6501
起こる	-6502
顔して	-6503
▁かなり	-6504
▁くっそ	-6505
▁コイツ	-6506
▁サシャ	-6507
▁不思議	-6508
▁何より	-6509
▁最後に	-6510
となって	-6511
ましたね	-6512
を出して	-6513
シュヴァ	-6514
ジョルノ	-6515
デビュー	-6516
何やって	-6517
届かない	-6518
忘れてた	-6519
気づいて	-6520
私たちは	-6521
聞いてる	-6522
覚えてる	-6523
▁何ですか	-6524
なんてない	-6525
を見つけた	-6526
していました	-6527
わけではない	-6528
ブチャラティ	-6529
▁ぬ	-6530
▁単	-6531
▁反	-6532
▁学	-6533
▁帆	-6534
▁愚	-6535
▁昼	-6536
▁歳	-6537
▁毒	-6538
▁流	-6539
▁消	-6540
▁裏	-6541
▁謝	-6542
のア	-6543
ぼれ	-6544
ろし	-6545
ブス	-6546
メシ	-6547
ワシ	-6548
一切	-6549
仕留	-6550
企業	-6551
体で	-6552
体も	-6553
全滅	-6554
口が	-6555
周囲	-6556
国家	-6557
大地	-6558
天野	-6559
弱点	-6560
放送	-6561
教会	-6562
早速	-6563
特定	-6564
疑問	-6565
病気	-6566
笑い	-6567
血球	-6568
裁判	-6569
規模	-6570
評価	-6571
課題	-6572
辞書	-6573
違反	-6574
長は	-6575
防衛	-6576
集団	-6577
▁いく	-6578
▁いざ	-6579
▁ご飯	-6580
▁じぇ	-6581
▁つい	-6582
▁よせ	-6583
▁チョ	-6584
▁ルー	-6585
▁中学	-6586
▁事件	-6587
▁大き	-6588
お帰り	-6589
がどう	-6590
くなよ	-6591
したな	-6592
したよ	-6593
そうと	-6594
って思	-6595
できん	-6596
に乗り	-6597
の人は	-6598
やから	-6599
らした	-6600
んでた	-6601
アリー	-6602
チョピ	-6603
今回の	-6604
借りて	-6605
必死に	-6606
感じる	-6607
憎しみ	-6608
我々の	-6609
最初に	-6610
立った	-6611
詳しく	-6612
随分と	-6613
駄目だ	-6614
▁いいな	-6615
▁おーい	-6616
▁今なら	-6617
お前には	-6618
だけどな	-6619
としてる	-6620
られるか	-6621
んだもん	-6622
ジャンプ	-6623
出された	-6624
大丈夫だ	-6625
気付いて	-6626
聞こえた	-6627
▁あいつの	-6628
▁二人とも	-6629
じゃないし	-6630
らっしゃる	-6631
んだけどな	-6632
フラメンコ	-6633
メッセージ	-6634
▁おめでとう	-6635
▁大丈夫です	-6636
▁少なくとも	-6637
とは思えない	-6638
ようになって	-6639
ペンギンさん	-6640
▁いらっしゃい	-6641
▁ちょちょっと	-6642
▁ひょっとして	-6643
になってしまう	-6644
▁坊	-6645
▁売	-6646
お兄	-6647
が本	-6648
の足	-6649
アナ	-6650
ドゥ	-6651
ナツ	-6652
ハラ	-6653
ルナ	-6654
伝統	-6655
冷静	-6656
十二	-6657
合図	-6658
命が	-6659
宗介	-6660
容疑	-6661
年に	-6662
引退	-6663
彗星	-6664
形で	-6665
慣れ	-6666
成果	-6667
撃つ	-6668
時も	-6669
月の	-6670
消滅	-6671
範囲	-6672
術の	-6673
起動	-6674
阻止	-6675
▁ガビ	-6676
▁ダイ	-6677
▁チャ	-6678
▁ハイ	-6679
▁撃て	-6680
▁監督	-6681
▁被害	-6682
▁電話	-6683
▁黙れ	-6684
いたり	-6685
いねえ	-6686
がつく	-6687
すこと	-6688
でさえ	-6689
は全部	-6690
みてえ	-6691
もまた	-6692
ようで	-6693
らせた	-6694
を作り	-6695
んねん	-6696
イング	-6697
ディオ	-6698
ネズミ	-6699
フォー	-6700
メガネ	-6701
リーの	-6702
ロッパ	-6703
一度も	-6704
付いた	-6705
任せた	-6706
何だか	-6707
大事に	-6708
帰った	-6709
状況は	-6710
走って	-6711
開けて	-6712
▁あいや	-6713
▁わたく	-6714
▁彼女の	-6715
いるのは	-6716
さないと	-6717
さんです	-6718
すんだよ	-6719
そうだよ	-6720
どこかに	-6721
われてる	-6722
オーバー	-6723
子さんの	-6724
知らねえ	-6725
誰よりも	-6726
▁こちらは	-6727
▁こっちも	-6728
▁これって	-6729
▁こんなの	-6730
▁そうなの	-6731
▁最後まで	-6732
お姉ちゃん	-6733
なかったな	-6734
のこと好き	-6735
みたいです	-6736
やってきた	-6737
やってくれ	-6738
亡くなった	-6739
必要はない	-6740
思い出して	-6741
▁アキちゃん	-6742
▁大丈夫だよ	-6743
しております	-6744
つもりだった	-6745
かもしれないけど	-6746
させていただきます	-6747
▁ぶ	-6748
▁島	-6749
▁用	-6750
▁銃	-6751
▁鹿	-6752
うれ	-6753
おば	-6754
けん	-6755
さな	-6756
すて	-6757
づく	-6758
に流	-6759
に通	-6760
は人	-6761
やだ	-6762
キシ	-6763
コミ	-6764
シル	-6765
ッキ	-6766
ッサ	-6767
ナム	-6768
ミニ	-6769
ーと	-6770
一族	-6771
不満	-6772
働く	-6773
内緒	-6774
取引	-6775
始ま	-6776
嫉妬	-6777
季節	-6778
実力	-6779
寄せ	-6780
対戦	-6781
市民	-6782
師の	-6783
建物	-6784
指輪	-6785
撃た	-6786
材料	-6787
気も	-6788
海女	-6789
熱い	-6790
真剣	-6791
確信	-6792
腹が	-6793
貴方	-6794
遭遇	-6795
選挙	-6796
露伴	-6797
▁いま	-6798
▁ウィ	-6799
▁今も	-6800
▁会社	-6801
▁勉強	-6802
▁天野	-6803
▁怪盗	-6804
▁残り	-6805
▁気に	-6806
▁甘い	-6807
▁落ち	-6808
▁長い	-6809
あげた	-6810
えよう	-6811
がいて	-6812
くなり	-6813
これも	-6814
しいな	-6815
せめて	-6816
だけよ	-6817
どこで	-6818
に集中	-6819
の力で	-6820
の情報	-6821
はよく	-6822
カイジ	-6823
ダイヤ	-6824
ハート	-6825
モデル	-6826
日から	-6827
考えろ	-6828
見たい	-6829
貴重な	-6830
込めて	-6831
集まり	-6832
頑張れ	-6833
飛ばす	-6834
▁やがて	-6835
▁オレが	-6836
▁今回は	-6837
▁大した	-6838
▁黙って	-6839
あなたを	-6840
えばいい	-6841
この野郎	-6842
しておく	-6843
しながら	-6844
ちゃダメ	-6845
と違って	-6846
どんなに	-6847
なったら	-6848
はどうだ	-6849
まであと	-6850
やってみ	-6851
スラーン	-6852
セイバー	-6853
ッション	-6854
トリック	-6855
ロシップ	-6856
変わって	-6857
▁これなら	-6858
▁ほらほら	-6859
くらいなら	-6860
ことがない	-6861
してもいい	-6862
しなくても	-6863
そうですか	-6864
だけだから	-6865
ものがある	-6866
よりずっと	-6867
アキちゃん	-6868
戻ってくる	-6869
持っている	-6870
▁それなのに	-6871
▁ヒストリア	-6872
▁落ち着いて	-6873
しなくていい	-6874
なかったんだ	-6875
めちゃくちゃ	-6876
んじゃねえか	-6877
コントロール	-6878
▁ゾ	-6879
▁悠	-6880
▁潮	-6881
▁英	-6882
▁試	-6883
うよ	-6884
お茶	-6885
でか	-6886
にて	-6887
の山	-6888
の所	-6889
ふさ	-6890
わぬ	-6891
イカ	-6892
エイ	-6893
クは	-6894
スが	-6895
バの	-6896
億泰	-6897
地上	-6898
埋め	-6899
奴ら	-6900
恨み	-6901
意を	-6902
教わ	-6903
暑い	-6904
物に	-6905
発表	-6906
祖父	-6907
道が	-6908
部は	-6909
限定	-6910
風に	-6911
風景	-6912
▁ミス	-6913
▁三井	-6914
▁兵長	-6915
▁攻撃	-6916
▁早速	-6917
▁見つ	-6918
▁部屋	-6919
▁間に	-6920
あとで	-6921
いくぞ	-6922
かぎり	-6923
ぐねえ	-6924
ごっこ	-6925
してね	-6926
そうよ	-6927
たから	-6928
だとか	-6929
とって	-6930
になれ	-6931
のだが	-6932
の動き	-6933
の流れ	-6934
やばい	-6935
るべき	-6936
を守り	-6937
ガラス	-6938
サーブ	-6939
スト区	-6940
テージ	-6941
ポーズ	-6942
ントム	-6943
人間に	-6944
失った	-6945
少ない	-6946
帝国の	-6947
時には	-6948
様子が	-6949
残って	-6950
生き物	-6951
諦める	-6952
▁ありゃ	-6953
▁いいの	-6954
▁この先	-6955
▁もしも	-6956
かります	-6957
ことです	-6958
ってとこ	-6959
ってんの	-6960
にはまだ	-6961
に連れて	-6962
ねぇだろ	-6963
まとめて	-6964
もんだな	-6965
れていた	-6966
クション	-6967
下がって	-6968
考えると	-6969
行きたい	-6970
言います	-6971
▁あの人は	-6972
▁仕方ない	-6973
ありえない	-6974
いてくれる	-6975
きてくれた	-6976
こともない	-6977
にしてやる	-6978
わかってる	-6979
▁そうすれば	-6980
ことじゃない	-6981
なかったから	-6982
くれてありがとう	-6983
▁再	-6984
▁奏	-6985
▁旅	-6986
▁透	-6987
▁音	-6988
▁香	-6989
あた	-6990
いじ	-6991
がめ	-6992
ちこ	-6993
の色	-6994
の花	-6995
もた	-6996
やで	-6997
ゆく	-6998
を外	-6999
を消	-7000
を許	-7001
エロ	-7002
カラ	-7003
キモ	-7004
スマ	-7005
デザ	-7006
ヘイ	-7007
ヤジ	-7008
リラ	-7009
ロウ	-7010
ーー	-7011
世代	-7012
俺ら	-7013
印象	-7014
宣言	-7015
家で	-7016
役割	-7017
成宮	-7018
戦場	-7019
排除	-7020
整備	-7021
歩き	-7022
洞窟	-7023
狡噛	-7024
独り	-7025
科学	-7026
突入	-7027
触れ	-7028
誘導	-7029
返事	-7030
麻奈	-7031
▁えぇ	-7032
▁お金	-7033
▁チク	-7034
▁一瞬	-7035
▁例の	-7036
▁次に	-7037
▁現実	-7038
▁目的	-7039
▁過去	-7040
▁高校	-7041
▁魚住	-7042
からか	-7043
する気	-7044
なんな	-7045
に出た	-7046
に参加	-7047
ねぇか	-7048
の部屋	-7049
まぐれ	-7050
みせる	-7051
も早く	-7052
れるか	-7053
ろうか	-7054
をつか	-7055
イーン	-7056
オラン	-7057
オレが	-7058
コード	-7059
先輩に	-7060
小野寺	-7061
有名な	-7062
立てて	-7063
言えよ	-7064
降りて	-7065
▁いいね	-7066
▁えーと	-7067
▁この間	-7068
▁二度と	-7069
▁最初は	-7070
あげよう	-7071
いなさい	-7072
おかげで	-7073
がないと	-7074
くらいは	-7075
しますか	-7076
じいさん	-7077
せばいい	-7078
たどり着	-7079
だからだ	-7080
といった	-7081
わないと	-7082
われわれ	-7083
ガンシナ	-7084
ストレス	-7085
ハッピー	-7086
ファイト	-7087
ンスター	-7088
付き合う	-7089
明らかに	-7090
決まって	-7091
生まれる	-7092
込まれた	-7093
選ばれた	-7094
閉じ込め	-7095
▁あたしは	-7096
▁おかげで	-7097
▁お前らは	-7098
▁ですから	-7099
▁やってみ	-7100
▁ゆっくり	-7101
きたかった	-7102
していただ	-7103
どうしたら	-7104
はどうした	-7105
を見つける	-7106
ユイちゃん	-7107
▁分からない	-7108
と思っている	-7109
▁しょうがない	-7110
になっちゃった	-7111
ありませんでした	-7112
▁探	-7113
▁救	-7114
▁極	-7115
▁球	-7116
▁背	-7117
いっ	-7118
お見	-7119
が大	-7120
が来	-7121
ごま	-7122
ざん	-7123
ちん	-7124
に備	-7125
のれ	-7126
の神	-7127
の頭	-7128
もね	-7129
カリ	-7130
クズ	-7131
ジイ	-7132
スポ	-7133
ズマ	-7134
デカ	-7135
ナナ	-7136
与え	-7137
世の	-7138
今夜	-7139
出身	-7140
名の	-7141
土地	-7142
外で	-7143
大陸	-7144
弟子	-7145
想定	-7146
打線	-7147
死亡	-7148
水の	-7149
点に	-7150
父上	-7151
現象	-7152
田中	-7153
矛囲	-7154
知れ	-7155
者と	-7156
辞め	-7157
電車	-7158
順調	-7159
▁いる	-7160
▁おま	-7161
▁そっ	-7162
▁より	-7163
▁ナツ	-7164
▁彼が	-7165
▁月島	-7166
▁沢村	-7167
▁特別	-7168
いっぱ	-7169
けるな	-7170
さねえ	-7171
そなた	-7172
づらい	-7173
てない	-7174
といて	-7175
なんざ	-7176
なんぞ	-7177
にすぎ	-7178
にせよ	-7179
の悪い	-7180
の方は	-7181
をつく	-7182
を生み	-7183
を行う	-7184
世界は	-7185
今回は	-7186
仕事は	-7187
優秀な	-7188
全力で	-7189
全員が	-7190
冷たい	-7191
向かう	-7192
慣れて	-7193
苦しみ	-7194
見つけ	-7195
通りに	-7196
連中が	-7197
連中は	-7198
▁この町	-7199
▁どこだ	-7200
▁どこの	-7201
▁先ほど	-7202
▁少しは	-7203
▁思った	-7204
くらいで	-7205
けません	-7206
するって	-7207
それとも	-7208
とともに	-7209
の中から	-7210
みんなの	-7211
もあった	-7212
やらない	-7213
ようだが	-7214
りゃいい	-7215
クラスの	-7216
ディング	-7217
フランス	-7218
言っとく	-7219
近づいて	-7220
▁おかえり	-7221
▁そうです	-7222
▁ところが	-7223
▁エレンは	-7224
してるから	-7225
なんだよね	-7226
みたいだし	-7227
られていた	-7228
手に入れた	-7229
申し訳ない	-7230
言ってるの	-7231
▁いつまでも	-7232
▁こんなこと	-7233
▁そしてその	-7234
サーヴァント	-7235
行きましょう	-7236
▁ちょっと待て	-7237
▁べ	-7238
▁ズ	-7239
▁六	-7240
▁友	-7241
▁嘉	-7242
▁影	-7243
▁恭	-7244
▁綾	-7245
▁運	-7246
▁里	-7247
いざ	-7248
うそ	-7249
がき	-7250
が人	-7251
が悪	-7252
じた	-7253
なき	-7254
に移	-7255
の剣	-7256
の夢	-7257
の小	-7258
をあ	-7259
を支	-7260
オッ	-7261
カス	-7262
ガム	-7263
グル	-7264
タコ	-7265
チン	-7266
ッジ	-7267
フリ	-7268
マム	-7269
ムダ	-7270
ラク	-7271
ログ	-7272
不能	-7273
予感	-7274
企画	-7275
会話	-7276
体験	-7277
元に	-7278
午後	-7279
同盟	-7280
型の	-7281
奪還	-7282
女に	-7283
式の	-7284
新人	-7285
様と	-7286
渡す	-7287
男に	-7288
祓い	-7289
絶望	-7290
至る	-7291
通信	-7292
重ね	-7293
魅力	-7294
▁お茶	-7295
▁すご	-7296
▁つか	-7297
▁テメ	-7298
▁戦争	-7299
▁死ね	-7300
▁烏野	-7301
▁記憶	-7302
▁貴方	-7303
▁遅い	-7304
あれが	-7305
いたよ	-7306
が多い	-7307
するわ	-7308
ぞれの	-7309
っぽど	-7310
でこの	-7311
で一番	-7312
ないぞ	-7313
に連絡	-7314
はねえ	-7315
ひとり	-7316
ひろ美	-7317
も何も	-7318
れてた	-7319
を始め	-7320
を頼む	-7321
ットの	-7322
ハウス	-7323
ビュラ	-7324
ミスタ	-7325
ローン	-7326
下がれ	-7327
何にも	-7328
動かす	-7329
口から	-7330
戦える	-7331
目覚め	-7332
聞こえ	-7333
藤さん	-7334
言おう	-7335
追いか	-7336
通りだ	-7337
進んで	-7338
過ぎた	-7339
▁待てよ	-7340
▁違うよ	-7341
こっちは	-7342
さなきゃ	-7343
しといて	-7344
すっごく	-7345
するため	-7346
するなら	-7347
ですかね	-7348
とおりだ	-7349
にかけて	-7350
にするな	-7351
のだろう	-7352
ばらしい	-7353
をもって	-7354
を使った	-7355
サービス	-7356
セッター	-7357
ユミルの	-7358
出会った	-7359
来たんだ	-7360
死んでも	-7361
込まれて	-7362
▁いつでも	-7363
▁こいつら	-7364
▁たまには	-7365
▁大丈夫だ	-7366
いなければ	-7367
してたんだ	-7368
するような	-7369
そうだった	-7370
なかったか	-7371
にしている	-7372
ビルスーツ	-7373
持ってきた	-7374
▁何かあった	-7375
いたしました	-7376
しかできない	-7377
▁ざ	-7378
▁代	-7379
▁子	-7380
▁情	-7381
▁絵	-7382
▁鎧	-7383
▁静	-7384
あい	-7385
がり	-7386
が解	-7387
きら	-7388
こも	-7389
すま	-7390
せぬ	-7391
に加	-7392
の先	-7393
の光	-7394
まわ	-7395
もだ	-7396
を一	-7397
を愛	-7398
イク	-7399
ガイ	-7400
ガミ	-7401
シィ	-7402
デイ	-7403
リの	-7404
ルが	-7405
ルは	-7406
ロボ	-7407
世紀	-7408
主義	-7409
交わ	-7410
会場	-7411
住む	-7412
兵を	-7413
兵隊	-7414
吸い	-7415
執念	-7416
女王	-7417
妙に	-7418
実現	-7419
屋の	-7420
気合	-7421
理屈	-7422
神殿	-7423
経営	-7424
総統	-7425
舞い	-7426
設計	-7427
財布	-7428
運ぶ	-7429
道に	-7430
遣い	-7431
配置	-7432
顔が	-7433
▁ほな	-7434
▁ナイ	-7435
▁体が	-7436
▁何度	-7437
▁兵士	-7438
▁助け	-7439
▁心臓	-7440
▁私達	-7441
▁総員	-7442
▁陵南	-7443
しくな	-7444
したと	-7445
だいぶ	-7446
だがな	-7447
で見た	-7448
にこの	-7449
にもな	-7450
はここ	-7451
はずの	-7452
まーす	-7453
もよく	-7454
るなよ	-7455
わたく	-7456
アカン	-7457
カバー	-7458
ールを	-7459
乗り越	-7460
以外に	-7461
任せろ	-7462
尽くす	-7463
崎さん	-7464
強くな	-7465
怖くて	-7466
惜しい	-7467
抜いて	-7468
立てる	-7469
自身が	-7470
言葉は	-7471
計画を	-7472
貴様は	-7473
追い詰	-7474
▁お互い	-7475
▁すげぇ	-7476
▁そなた	-7477
▁ウサギ	-7478
▁クリス	-7479
▁全ての	-7480
▁本当の	-7481
▁駄目だ	-7482
いいかな	-7483
おっしゃ	-7484
かないと	-7485
が死んだ	-7486
してたら	-7487
それでは	-7488
ってから	-7489
どこにも	-7490
にしては	-7491
ましたか	-7492
られても	-7493
を持った	-7494
を殺して	-7495
を求めて	-7496
ショート	-7497
パターン	-7498
プライド	-7499
人だった	-7500
全然違う	-7501
捕まえる	-7502
言うなら	-7503
頑張った	-7504
▁あのとき	-7505
▁あんなに	-7506
▁それまで	-7507
いたくない	-7508
さっきから	-7509
したのです	-7510
だろうけど	-7511
であります	-7512
できるのは	-7513
はいったい	-7514
ほしかった	-7515
みたいだね	-7516
よかったら	-7517
を守るため	-7518
を見つけて	-7519
何かあった	-7520
▁ベルトルト	-7521
このままじゃ	-7522
ということだ	-7523
もうちょっと	-7524
わけないだろ	-7525
何やってんだ	-7526
▁どういうことだ	-7527
▁申し訳ありません	-7528
▁九	-7529
▁店	-7530
▁文	-7531
▁服	-7532
▁百	-7533
▁眠	-7534
▁秋	-7535
▁面	-7536
々が	-7537
が何	-7538
が崩	-7539
すみ	-7540
ひな	-7541
ゆえ	-7542
を流	-7543
を示	-7544
を負	-7545
デー	-7546
ババ	-7547
ビン	-7548
プト	-7549
ベイ	-7550
一年	-7551
下ろ	-7552
不可	-7553
京都	-7554
伸明	-7555
借金	-7556
古典	-7557
基礎	-7558
壁に	-7559
士郎	-7560
外の	-7561
心地	-7562
忠誠	-7563
急ぎ	-7564
戦を	-7565
持た	-7566
捧げ	-7567
案外	-7568
様々	-7569
様な	-7570
海に	-7571
満ち	-7572
溶岩	-7573
燃え	-7574
立花	-7575
義務	-7576
良く	-7577
術を	-7578
観察	-7579
設定	-7580
誘拐	-7581
足が	-7582
退治	-7583
逆転	-7584
面で	-7585
頂戴	-7586
頃の	-7587
領域	-7588
顔で	-7589
馴染	-7590
高く	-7591
▁おー	-7592
▁やべ	-7593
▁わが	-7594
▁ジュ	-7595
▁プリ	-7596
▁今後	-7597
▁団長	-7598
▁報告	-7599
▁調子	-7600
あたり	-7601
あの日	-7602
あるの	-7603
いたか	-7604
えると	-7605
したが	-7606
すんの	-7607
っこう	-7608
ってか	-7609
ないわ	-7610
ねぇし	-7611
の場所	-7612
やめる	-7613
を切り	-7614
アイス	-7615
ダンク	-7616
ットは	-7617
リーグ	-7618
ワーク	-7619
人間を	-7620
切れた	-7621
勝手な	-7622
原さん	-7623
掛かり	-7624
殺され	-7625
殺しに	-7626
気にな	-7627
知らぬ	-7628
適当に	-7629
重要な	-7630
魔術師	-7631
▁かわい	-7632
▁けれど	-7633
▁ほっと	-7634
▁ネット	-7635
▁フリー	-7636
▁可愛い	-7637
▁君たち	-7638
▁急いで	-7639
あたしの	-7640
あらゆる	-7641
あるまい	-7642
ができた	-7643
さんなら	-7644
そのもの	-7645
そもそも	-7646
だけどね	-7647
できてる	-7648
なんじゃ	-7649
はどうな	-7650
ばかりで	-7651
われます	-7652
ライバル	-7653
存在する	-7654
橘カイジ	-7655
母さんが	-7656
落ち着け	-7657
落として	-7658
見ている	-7659
▁いつもの	-7660
▁お前たち	-7661
▁ファルコ	-7662
▁私たちが	-7663
くれました	-7664
じゃねえよ	-7665
とか言って	-7666
なんですが	-7667
ようとした	-7668
ようにして	-7669
▁失礼します	-7670
いただきたい	-7671
じゃないから	-7672
つもりはない	-7673
なかったのか	-7674
教えてくれた	-7675
いませんでした	-7676
どういうことだ	-7677
▁客	-7678
▁座	-7679
▁矢	-7680
▁純	-7681
▁肩	-7682
▁荒	-7683
▁鉄	-7684
お話	-7685
かあ	-7686
とく	-7687
の番	-7688
は出	-7689
を着	-7690
を迎	-7691
を隠	-7692
カメ	-7693
ダン	-7694
トウ	-7695
ビリ	-7696
ピラ	-7697
ヴォ	-7698
三日	-7699
呼べ	-7700
員の	-7701
団の	-7702
困難	-7703
地域	-7704
増や	-7705
強化	-7706
忍び	-7707
悩み	-7708
所の	-7709
沙汰	-7710
注目	-7711
爆破	-7712
生は	-7713
石の	-7714
神に	-7715
継ぎ	-7716
調整	-7717
警官	-7718
速度	-7719
錬成	-7720
雑誌	-7721
食料	-7722
魂を	-7723
▁くだ	-7724
▁イヤ	-7725
▁サー	-7726
▁スペ	-7727
▁フォ	-7728
▁前の	-7729
▁嫌だ	-7730
▁幸せ	-7731
▁悪魔	-7732
▁我は	-7733
▁武器	-7734
▁男の	-7735
▁面白	-7736
いたく	-7737
がよく	-7738
が来て	-7739
けたら	-7740
しとけ	-7741
っつー	-7742
のでは	-7743
はそう	-7744
みれば	-7745
を出す	-7746
を取る	-7747
エンド	-7748
シュタ	-7749
バレー	-7750
パルス	-7751
プレッ	-7752
モンド	-7753
ヴァン	-7754
伝説の	-7755
信じる	-7756
取れる	-7757
姉さん	-7758
引っか	-7759
張って	-7760
彼らの	-7761
彼らは	-7762
普通の	-7763
止めた	-7764
犯人は	-7765
疲れて	-7766
藻奈美	-7767
見てた	-7768
認める	-7769
諦めた	-7770
集める	-7771
面から	-7772
▁信じて	-7773
▁女の子	-7774
▁本物の	-7775
いただき	-7776
があんた	-7777
こいつの	-7778
するのが	-7779
だろうね	-7780
ちゃんだ	-7781
っつって	-7782
ってるよ	-7783
できねえ	-7784
なんだな	-7785
のエース	-7786
の巨人の	-7787
もあるし	-7788
もともと	-7789
れるのは	-7790
を目指す	-7791
ジョジョ	-7792
上げます	-7793
合わせる	-7794
殺されて	-7795
美味しい	-7796
▁これだけ	-7797
▁なんでも	-7798
▁何なんだ	-7799
だっていう	-7800
ってもらう	-7801
ってわけか	-7802
ってわけだ	-7803
どうするの	-7804
どうだった	-7805
どうなって	-7806
なんでしょ	-7807
に行きたい	-7808
キャンディ	-7809
バスケット	-7810
パーセント	-7811
ミネーター	-7812
大丈夫だよ	-7813
▁おとなしく	-7814
▁ってことは	-7815
▁どうしたら	-7816
させてもらう	-7817
だったのです	-7818
▁このままでは	-7819
なくてはならない	-7820
▁乗	-7821
▁偽	-7822
▁民	-7823
▁酒	-7824
いも	-7825
えで	-7826
がう	-7827
きが	-7828
っく	-7829
のと	-7830
アジ	-7831
オカ	-7832
ザン	-7833
デレ	-7834
ハチ	-7835
井戸	-7836
僕ら	-7837
再会	-7838
分は	-7839
区の	-7840
午前	-7841
天気	-7842
奪う	-7843
宮城	-7844
富士	-7845
役目	-7846
打席	-7847
故に	-7848
敵は	-7849
曜日	-7850
月島	-7851
来週	-7852
校舎	-7853
正確	-7854
殺害	-7855
火星	-7856
甲斐	-7857
男を	-7858
男性	-7859
確率	-7860
私達	-7861
継ぐ	-7862
繋が	-7863
薄い	-7864
裏切	-7865
証言	-7866
貴族	-7867
釣り	-7868
闘技	-7869
音は	-7870
食え	-7871
▁てか	-7872
▁ワン	-7873
▁以上	-7874
▁偶然	-7875
▁君も	-7876
▁失敗	-7877
▁女子	-7878
▁妖怪	-7879
▁師匠	-7880
▁手伝	-7881
▁無事	-7882
あろう	-7883
いい子	-7884
いかん	-7885
お風呂	-7886
が見つ	-7887
ざます	-7888
ちゅう	-7889
っそり	-7890
とかで	-7891
のかね	-7892
までだ	-7893
もはや	-7894
やつだ	-7895
やめた	-7896
やり直	-7897
クシス	-7898
ハルヒ	-7899
ヤツが	-7900
ヤツら	-7901
リーズ	-7902
元に戻	-7903
勝ちだ	-7904
回って	-7905
大切に	-7906
強力な	-7907
悲しみ	-7908
我々が	-7909
手伝い	-7910
振り回	-7911
明日の	-7912
無事で	-7913
珍しく	-7914
知らん	-7915
行する	-7916
▁いやー	-7917
▁うさぎ	-7918
▁ええと	-7919
▁おおい	-7920
▁おのれ	-7921
▁でもさ	-7922
▁本気で	-7923
があんな	-7924
が始まる	-7925
こんなの	-7926
されます	-7927
してるよ	-7928
っちゃい	-7929
ないでよ	-7930
なんだぞ	-7931
なんだね	-7932
にお願い	-7933
の中には	-7934
ほんとに	-7935
をかけた	-7936
を助けて	-7937
を失った	-7938
んばんは	-7939
カウント	-7940
クリーム	-7941
ラッキー	-7942
一つだけ	-7943
大人しく	-7944
思います	-7945
構わない	-7946
目の前に	-7947
知ってた	-7948
立たない	-7949
▁いやあの	-7950
▁いやでも	-7951
▁そこから	-7952
▁ほんとに	-7953
▁エレンが	-7954
▁最初から	-7955
▁草太さん	-7956
いてくれた	-7957
かっこいい	-7958
きやがった	-7959
ここに来た	-7960
たくさんの	-7961
ったらしい	-7962
にとっても	-7963
に決まって	-7964
はずだった	-7965
んだからな	-7966
帰ってきて	-7967
待っている	-7968
終わったら	-7969
▁何があった	-7970
▁幻の銀水晶	-7971
とんでもない	-7972
みたいだけど	-7973
を守るために	-7974
▁清	-7975
▁潜	-7976
▁焦	-7977
▁牧	-7978
▁狩	-7979
▁解	-7980
▁鏡	-7981
がに	-7982
でえ	-7983
に手	-7984
のり	-7985
のエ	-7986
の形	-7987
びに	-7988
をこ	-7989
を向	-7990
ウの	-7991
ゼル	-7992
ミラ	-7993
一般	-7994
丁寧	-7995
中だ	-7996
五十	-7997
以降	-7998
便利	-7999
再現	-8000
前は	-8001
力も	-8002
勘弁	-8003
回の	-8004
変更	-8005
娘が	-8006
室で	-8007
山に	-8008
布団	-8009
必殺	-8010
感染	-8011
憧れ	-8012
我の	-8013
戦は	-8014
推理	-8015
提供	-8016
教授	-8017
明る	-8018
月日	-8019
根性	-8020
段階	-8021
水着	-8022
決ま	-8023
決断	-8024
海賊	-8025
潰す	-8026
特徴	-8027
種の	-8028
締め	-8029
胸に	-8030
芸能	-8031
軍は	-8032
退屈	-8033
進め	-8034
遠く	-8035
頃は	-8036
▁アホ	-8037
▁スタ	-8038
▁ユー	-8039
▁今だ	-8040
▁僕に	-8041
▁帰る	-8042
▁影山	-8043
▁急げ	-8044
▁来週	-8045
▁死に	-8046
▁秘密	-8047
▁鈴鹿	-8048
▁隊長	-8049
あの女	-8050
いけば	-8051
えれば	-8052
が出た	-8053
この間	-8054
ご存じ	-8055
さんで	-8056
その時	-8057
っさり	-8058
と戦う	-8059
の上で	-8060
の結果	-8061
は何だ	-8062
みます	-8063
やつら	-8064
やる気	-8065
わかり	-8066
を捨て	-8067
んだと	-8068
んやろ	-8069
アルバ	-8070
クラブ	-8071
シーン	-8072
スティ	-8073
スロー	-8074
ッパー	-8075
テリー	-8076
ベース	-8077
ラスト	-8078
力を貸	-8079
君たち	-8080
含めて	-8081
我々は	-8082
抜けて	-8083
教えた	-8084
木さん	-8085
気をつ	-8086
状況で	-8087
生き返	-8088
相手が	-8089
答える	-8090
素直に	-8091
言うて	-8092
離れる	-8093
頑張る	-8094
▁お待ち	-8095
▁そこを	-8096
▁そちら	-8097
▁アンタ	-8098
▁兄さん	-8099
▁知って	-8100
▁考えて	-8101
▁見せて	-8102
▁誰かに	-8103
ぐらいの	-8104
しますよ	-8105
そうそう	-8106
だろうし	-8107
ところだ	-8108
どうかな	-8109
に会いに	-8110
をかける	-8111
を変える	-8112
を見てる	-8113
バラバラ	-8114
ランチャ	-8115
人として	-8116
取られた	-8117
少しずつ	-8118
待ってた	-8119
母さんの	-8120
生き延び	-8121
立体機動	-8122
考えない	-8123
行こうぜ	-8124
見つけて	-8125
▁あれから	-8126
▁悪いけど	-8127
おとなしく	-8128
くなってる	-8129
これからも	-8130
せなかった	-8131
そういえば	-8132
と思うんだ	-8133
んだけどさ	-8134
んですから	-8135
似たような	-8136
話を聞いて	-8137
▁あんたたち	-8138
▁お前たちは	-8139
ことがあった	-8140
するしかない	-8141
って言われた	-8142
みたいですね	-8143
を知っている	-8144
言ってるんだ	-8145
▁何言ってんだ	-8146
▁大丈夫ですか	-8147
ことがあったら	-8148
▁細	-8149
▁罪	-8150
▁虫	-8151
▁谷	-8152
▁連	-8153
▁雷	-8154
々を	-8155
うと	-8156
お主	-8157
がす	-8158
さで	-8159
さぬ	-8160
すと	-8161
たば	-8162
と同	-8163
と見	-8164
に食	-8165
の内	-8166
の歌	-8167
の鍵	-8168
ぶら	-8169
やね	-8170
を捜	-8171
を頼	-8172
イデ	-8173
ゾン	-8174
タバ	-8175
タラ	-8176
ッス	-8177
ニカ	-8178
ネコ	-8179
ヘリ	-8180
ユニ	-8181
不利	-8182
個性	-8183
値段	-8184
偵察	-8185
制圧	-8186
効率	-8187
周辺	-8188
回転	-8189
対決	-8190
小説	-8191
式に	-8192
愉快	-8193
援護	-8194
放し	-8195
方も	-8196
時を	-8197
時刻	-8198
栄養	-8199
構造	-8200
片づ	-8201
稽古	-8202
空に	-8203
細工	-8204
給料	-8205
花火	-8206
衛宮	-8207
誰に	-8208
長が	-8209
駆逐	-8210
魂が	-8211
魔女	-8212
▁いち	-8213
▁いて	-8214
▁おば	-8215
▁ねっ	-8216
▁イタ	-8217
▁ノー	-8218
▁ボス	-8219
▁俺達	-8220
▁再び	-8221
▁十分	-8222
▁油断	-8223
▁言い	-8224
▁飲み	-8225
あるか	-8226
いずれ	-8227
おった	-8228
したぞ	-8229
せずに	-8230
たたき	-8231
ちゃま	-8232
ちんと	-8233
どこの	-8234
ないだ	-8235
にまで	-8236
に引き	-8237
に興味	-8238
はこれ	-8239
もその	-8240
もちゃ	-8241
をやる	-8242
を入れ	-8243
を待つ	-8244
を追い	-8245
カーブ	-8246
ディ島	-8247
ハンジ	-8248
プール	-8249
ベンチ	-8250
レーム	-8251
人です	-8252
以外は	-8253
何だよ	-8254
作戦は	-8255
作戦を	-8256
出来た	-8257
動ける	-8258
問題は	-8259
大変な	-8260
嫌いな	-8261
攻めて	-8262
最強の	-8263
状態で	-8264
能力は	-8265
自分は	-8266
落とし	-8267
読んだ	-8268
豊かな	-8269
雰囲気	-8270
▁この国	-8271
▁僕には	-8272
▁思い出	-8273
▁明日は	-8274
▁犯人は	-8275
あたしは	-8276
しそうな	-8277
したのに	-8278
しようと	-8279
だけでは	-8280
だけなら	-8281
に関する	-8282
のですよ	-8283
の可能性	-8284
はすべて	-8285
はどんな	-8286
やろうか	-8287
りしない	-8288
んなくて	-8289
カワイイ	-8290
ギュラー	-8291
ドラゴン	-8292
今度こそ	-8293
何もかも	-8294
安心して	-8295
美ちゃん	-8296
行くから	-8297
▁いえいえ	-8298
▁ここには	-8299
▁ごめんな	-8300
▁そそんな	-8301
▁ななんだ	-8302
▁ねえねえ	-8303
▁はっきり	-8304
▁懐かしい	-8305
こうやって	-8306
さんのこと	-8307
してくれよ	-8308
だとしたら	-8309
だと思った	-8310
ってことだ	-8311
というのに	-8312
はどうする	-8313
エルヴィン	-8314
何でもない	-8315
欲しかった	-8316
▁ここにいる	-8317
▁だとしたら	-8318
なんじゃない	-8319
んじゃねぇよ	-8320
アッカーマン	-8321
プレッシャー	-8322
▁オブジェクト	-8323
させてください	-8324
▁健	-8325
▁城	-8326
▁機	-8327
▁誠	-8328
▁髪	-8329
」「	-8330
あー	-8331
きは	-8332
くさ	-8333
すよ	-8334
せえ	-8335
はさ	-8336
ばら	-8337
も出	-8338
を傷	-8339
を手	-8340
ん坊	-8341
アシ	-8342
カナ	-8343
クビ	-8344
コツ	-8345
ビア	-8346
ブン	-8347
ブー	-8348
レム	-8349
仲直	-8350
件は	-8351
光景	-8352
動け	-8353
北鉄	-8354
収穫	-8355
命は	-8356
商品	-8357
対応	-8358
射撃	-8359
担任	-8360
数日	-8361
昔の	-8362
有利	-8363
朱里	-8364
焼け	-8365
狙い	-8366
球は	-8367
瑞沢	-8368
用だ	-8369
発揮	-8370
知恵	-8371
第三	-8372
紛れ	-8373
表現	-8374
討ち	-8375
課後	-8376
走れ	-8377
達成	-8378
長谷	-8379
障害	-8380
面の	-8381
順番	-8382
頭の	-8383
顔は	-8384
風が	-8385
風の	-8386
▁さっ	-8387
▁カン	-8388
▁バレ	-8389
▁他に	-8390
▁君に	-8391
▁大地	-8392
▁折木	-8393
▁昔は	-8394
▁気づ	-8395
▁第二	-8396
▁自然	-8397
▁間違	-8398
▁関係	-8399
▁黒い	-8400
いたな	-8401
いると	-8402
おいた	-8403
かねえ	-8404
たくて	-8405
ともな	-8406
のじゃ	-8407
の練習	-8408
の通り	-8409
ほんの	-8410
ものね	-8411
ようが	-8412
りゃあ	-8413
わしの	-8414
カット	-8415
カツキ	-8416
キリト	-8417
ピタル	-8418
レッド	-8419
中から	-8420
入り口	-8421
北三陸	-8422
取り戻	-8423
探偵社	-8424
日本の	-8425
様々な	-8426
蟲奉行	-8427
調べた	-8428
賢者の	-8429
送って	-8430
運んで	-8431
▁どこに	-8432
▁デート	-8433
▁マキア	-8434
▁何これ	-8435
▁何だと	-8436
▁我々の	-8437
▁普通に	-8438
▁楽しみ	-8439
▁珍しい	-8440
から出て	-8441
くれてる	-8442
けないと	-8443
しかけて	-8444
それから	-8445
ためなら	-8446
ちゃんな	-8447
であれば	-8448
でござる	-8449
となると	-8450
と思えば	-8451
どんだけ	-8452
にしてた	-8453
に向かう	-8454
の向こう	-8455
はいはい	-8456
まっすぐ	-8457
やられた	-8458
わないで	-8459
を助ける	-8460
スーパー	-8461
バスケ部	-8462
ファウル	-8463
ルナレフ	-8464
会えない	-8465
姉ちゃん	-8466
帰ってこ	-8467
私たちが	-8468
言うなよ	-8469
▁そのうち	-8470
▁なんだと	-8471
▁ようこそ	-8472
▁スタンド	-8473
▁深海さん	-8474
あげるから	-8475
があるのか	-8476
することは	-8477
のお母さん	-8478
はどうして	-8479
頑張ってる	-8480
▁なんですか	-8481
こんなことを	-8482
しかなかった	-8483
なかったけど	-8484
もありません	-8485
ジョースター	-8486
信じられない	-8487
▁もうちょっと	-8488
とは思わなかった	-8489
▁休	-8490
▁原	-8491
▁寄	-8492
▁散	-8493
▁稲	-8494
▁謎	-8495
お礼	-8496
お腹	-8497
ぐり	-8498
ぜん	-8499
にね	-8500
に一	-8501
に及	-8502
ねる	-8503
の後	-8504
の根	-8505
の町	-8506
ぼく	-8507
むか	-8508
よび	-8509
らら	-8510
を襲	-8511
んて	-8512
イジ	-8513
ウォ	-8514
ケツ	-8515
コの	-8516
コレ	-8517
スナ	-8518
ソー	-8519
ヒロ	-8520
リサ	-8521
上昇	-8522
伏せ	-8523
低い	-8524
何故	-8525
入院	-8526
利き	-8527
制限	-8528
刺激	-8529
務め	-8530
卑怯	-8531
喫茶	-8532
奴だ	-8533
奴の	-8534
安定	-8535
幻書	-8536
度に	-8537
建て	-8538
怪物	-8539
戻れ	-8540
所は	-8541
控え	-8542
推測	-8543
放せ	-8544
斬り	-8545
期の	-8546
歩く	-8547
永井	-8548
汚れ	-8549
王が	-8550
生物	-8551
番組	-8552
結論	-8553
肉体	-8554
臆病	-8555
薬を	-8556
討伐	-8557
評判	-8558
路を	-8559
輝く	-8560
返り	-8561
追跡	-8562
選ぶ	-8563
▁キラ	-8564
▁タイ	-8565
▁フン	-8566
▁リン	-8567
▁三葉	-8568
▁卒業	-8569
▁危険	-8570
▁古代	-8571
▁大事	-8572
▁将軍	-8573
▁後悔	-8574
▁映画	-8575
▁若い	-8576
▁見ろ	-8577
▁部活	-8578
いいね	-8579
いかが	-8580
おこう	-8581
が起こ	-8582
この前	-8583
ちょい	-8584
なじみ	-8585
ろいろ	-8586
を突き	-8587
ウェン	-8588
ェレナ	-8589
シング	-8590
スーツ	-8591
テイル	-8592
ピアノ	-8593
ブルー	-8594
メイト	-8595
モード	-8596
出すな	-8597
分けて	-8598
図書館	-8599
奉太郎	-8600
情報が	-8601
感じた	-8602
感じで	-8603
生きた	-8604
目を覚	-8605
自らの	-8606
行けば	-8607
起きる	-8608
近くに	-8609
造人間	-8610
▁すっげ	-8611
▁テスト	-8612
▁人間の	-8613
▁年前の	-8614
▁楽しい	-8615
▁自分は	-8616
あなたも	-8617
お待たせ	-8618
きっかけ	-8619
こいつが	-8620
こいつを	-8621
こっちだ	-8622
されても	-8623
だけだよ	-8624
っぱなし	-8625
と同じだ	-8626
と思うと	-8627
によると	-8628
に向けて	-8629
ねえから	-8630
のですね	-8631
ぴったり	-8632
を信じて	-8633
を聞いて	-8634
チームに	-8635
フォーム	-8636
付き合い	-8637
捕まった	-8638
気づいた	-8639
負けたら	-8640
▁ああいう	-8641
▁あたしが	-8642
▁あたしの	-8643
▁あっいや	-8644
▁あんたも	-8645
▁こちらの	-8646
▁ほとんど	-8647
▁生きてる	-8648
ありがたい	-8649
いいじゃん	-8650
から聞いた	-8651
しまいます	-8652
だけでいい	-8653
だけなのに	-8654
存在しない	-8655
意味がない	-8656
殺してやる	-8657
知っていた	-8658
聞こえない	-8659
▁しかしこの	-8660
▁間違いない	-8661
しているのは	-8662
っております	-8663
ひょっとして	-8664
もったいない	-8665
を手に入れた	-8666
分かってない	-8667
分からないけど	-8668
▁凛	-8669
▁戸	-8670
▁笹	-8671
▁薫	-8672
▁隠	-8673
▁隣	-8674
おれ	-8675
かず	-8676
が強	-8677
くろ	-8678
しめ	-8679
ずく	-8680
っ子	-8681
ぬか	-8682
のん	-8683
の者	-8684
もろ	-8685
やさ	-8686
をは	-8687
タレ	-8688
テイ	-8689
デュ	-8690
プス	-8691
ヘン	-8692
ベェ	-8693
ラブ	-8694
ロル	-8695
ーな	-8696
一匹	-8697
三人	-8698
中国	-8699
付く	-8700
何時	-8701
倉庫	-8702
儀式	-8703
制覇	-8704
力だ	-8705
同然	-8706
噛み	-8707
固定	-8708
坊主	-8709
場は	-8710
壊す	-8711
妄想	-8712
尊敬	-8713
工場	-8714
左右	-8715
帰還	-8716
建築	-8717
弾丸	-8718
思考	-8719
性を	-8720
惑わ	-8721
払い	-8722
抜く	-8723
握り	-8724
構え	-8725
歌う	-8726
死の	-8727
泣く	-8728
派遣	-8729
王国	-8730
短い	-8731
精霊	-8732
統一	-8733
至急	-8734
芝居	-8735
褒め	-8736
解除	-8737
誇り	-8738
輪島	-8739
迷い	-8740
速く	-8741
運ば	-8742
頭を	-8743
黒子	-8744
▁ほん	-8745
▁イデ	-8746
▁キリ	-8747
▁ケガ	-8748
▁ティ	-8749
▁トリ	-8750
▁ヤバ	-8751
▁京谷	-8752
▁今年	-8753
▁協力	-8754
▁大学	-8755
▁帰り	-8756
▁想像	-8757
▁振り	-8758
▁旦那	-8759
▁迷惑	-8760
▁逆に	-8761
がそう	-8762
けどよ	-8763
ごとに	-8764
さんや	-8765
なぜか	-8766
のこの	-8767
のよね	-8768
の話だ	-8769
はお前	-8770
もんで	-8771
わずか	-8772
を楽し	-8773
を見ろ	-8774
インド	-8775
ケース	-8776
コピー	-8777
サーク	-8778
スカー	-8779
ダーの	-8780
ドライ	-8781
バイス	-8782
ヒソカ	-8783
上から	-8784
化する	-8785
場合は	-8786
役立た	-8787
払って	-8788
殺人鬼	-8789
比べて	-8790
求めて	-8791
求める	-8792
激しい	-8793
育った	-8794
行くか	-8795
▁いやぁ	-8796
▁うわっ	-8797
▁おめぇ	-8798
▁かっこ	-8799
▁ってか	-8800
▁どこか	-8801
▁ほんの	-8802
▁もちろ	-8803
▁やって	-8804
▁シロエ	-8805
▁テレビ	-8806
▁プリン	-8807
▁僕らは	-8808
▁相手の	-8809
▁難しい	-8810
きません	-8811
こっちゃ	-8812
されてた	-8813
さんにも	-8814
してある	-8815
しないよ	-8816
し続ける	-8817
するまで	-8818
っておる	-8819
どうにも	-8820
なんだぜ	-8821
はあった	-8822
をもたら	-8823
ファルコ	-8824
会いたい	-8825
動けない	-8826
取れない	-8827
徹底的に	-8828
怖かった	-8829
悪いこと	-8830
間に合う	-8831
▁ああもう	-8832
▁あっはい	-8833
▁こっちだ	-8834
▁そこには	-8835
▁そんな事	-8836
▁でももう	-8837
▁なぜなら	-8838
▁みんなが	-8839
▁もっとも	-8840
▁シロクマ	-8841
▁マジかよ	-8842
▁要するに	-8843
が始まった	-8844
そのような	-8845
それじゃあ	-8846
だからこそ	-8847
って聞いた	-8848
のことです	-8849
ましょうよ	-8850
をしていた	-8851
を取り戻す	-8852
ストライク	-8853
テンション	-8854
モンスター	-8855
気を付けて	-8856
気持ち悪い	-8857
▁いいだろう	-8858
▁なんだこの	-8859
▁素晴らしい	-8860
もんじゃない	-8861
なんかじゃない	-8862
になっています	-8863
おはようございます	-8864
▁双	-8865
▁好	-8866
▁転	-8867
▁降	-8868
いら	-8869
てえ	-8870
で大	-8871
な人	-8872
に使	-8873
ふり	-8874
めよ	-8875
やわ	-8876
らえ	-8877
るし	-8878
グー	-8879
パル	-8880
ボク	-8881
ボコ	-8882
ポジ	-8883
三葉	-8884
下り	-8885
中身	-8886
分に	-8887
切嗣	-8888
制御	-8889
前進	-8890
勇利	-8891
動画	-8892
去年	-8893
取材	-8894
回戦	-8895
執事	-8896
報酬	-8897
壊滅	-8898
奈川	-8899
宿題	-8900
小屋	-8901
得た	-8902
御飯	-8903
採用	-8904
放題	-8905
教官	-8906
整理	-8907
明智	-8908
替わ	-8909
本の	-8910
特訓	-8911
畜生	-8912
積極	-8913
空を	-8914
美子	-8915
艦長	-8916
足で	-8917
軍が	-8918
隙間	-8919
面を	-8920
▁うま	-8921
▁おれ	-8922
▁お腹	-8923
▁ぜひ	-8924
▁ひど	-8925
▁アレ	-8926
▁オイ	-8927
▁ハー	-8928
▁下手	-8929
▁中央	-8930
▁仙道	-8931
▁受け	-8932
▁地獄	-8933
▁大吉	-8934
▁必要	-8935
▁所詮	-8936
▁携帯	-8937
▁更に	-8938
▁殿下	-8939
▁気を	-8940
▁目が	-8941
▁目を	-8942
▁美味	-8943
▁言わ	-8944
▁訓練	-8945
うさぎ	-8946
うちは	-8947
お互い	-8948
かるた	-8949
がする	-8950
がんば	-8951
ぐれも	-8952
こった	-8953
さまの	-8954
としか	-8955
のによ	-8956
ひと言	-8957
まるか	-8958
やさけ	-8959
やれよ	-8960
ょっと	-8961
を使い	-8962
を用意	-8963
アスカ	-8964
ウイル	-8965
ジョン	-8966
タヌキ	-8967
ダウン	-8968
バター	-8969
バッド	-8970
バトル	-8971
レード	-8972
ンマイ	-8973
一体何	-8974
中です	-8975
何より	-8976
勝負だ	-8977
卓会議	-8978
委員長	-8979
学校で	-8980
感じて	-8981
正体を	-8982
決まる	-8983
派手に	-8984
瞬間に	-8985
程度の	-8986
見せる	-8987
辞める	-8988
近くで	-8989
選んで	-8990
離れろ	-8991
▁あのお	-8992
▁きれい	-8993
▁ついて	-8994
▁よくも	-8995
▁エース	-8996
▁承太郎	-8997
▁昨日は	-8998
▁相手は	-8999
▁続いて	-9000
いい加減	-9001
えません	-9002
これまで	-9003
さまです	-9004
してきて	-9005
じゃろう	-9006
するとは	-9007
たっぷり	-9008
でしたが	-9009
ますよね	-9010
まともに	-9011
もう一回	-9012
やろうぜ	-9013
ようこそ	-9014
らしくて	-9015
わたしは	-9016
んじゃね	-9017
んだんだ	-9018
イギリス	-9019
エレンは	-9020
サポート	-9021
チームの	-9022
メニュー	-9023
ランプリ	-9024
作られた	-9025
動かない	-9026
子さんが	-9027
間違えた	-9028
頑張ろう	-9029
▁あたしも	-9030
▁それこそ	-9031
▁とうとう	-9032
▁どこまで	-9033
▁ブロック	-9034
▁ランナー	-9035
かなければ	-9036
こと言って	-9037
されたのは	-9038
そうとした	-9039
▁	-9040
い	-9041
の	-9042
な	-9043
て	-9044
っ	-9045
た	-9046
か	-9047
ん	-9048
し	-9049
に	-9050
は	-9051
で	-9052
だ	-9053
と	-9054
る	-9055
う	-9056
が	-9057
こ	-9058
ら	-9059
も	-9060
れ	-9061
す	-9062
ま	-9063
を	-9064
あ	-9065
よ	-9066
そ	-9067
く	-9068
さ	-9069
ー	-9070
り	-9071
お	-9072
け	-9073
ち	-9074
え	-9075
ゃ	-9076
き	-9077
ど	-9078
ね	-9079
や	-9080
ン	-9081
わ	-9082
じ	-9083
つ	-9084
人	-9085
ろ	-9086
せ	-9087
め	-9088
ス	-9089
何	-9090
ル	-9091
イ	-9092
ト	-9093
前	-9094
み	-9095
一	-9096
ッ	-9097
ば	-9098
ラ	-9099
私	-9100
俺	-9101
言	-9102
ア	-9103
見	-9104
今	-9105
リ	-9106
大	-9107
分	-9108
ょ	-9109
ク	-9110
出	-9111
レ	-9112
。	-9113
行	-9114
気	-9115
カ	-9116
ず	-9117
思	-9118
日	-9119
生	-9120
手	-9121
子	-9122
間	-9123
ご	-9124
タ	-9125
シ	-9126
事	-9127
マ	-9128
バ	-9129
来	-9130
ほ	-9131
ぞ	-9132
ド	-9133
本	-9134
キ	-9135
君	-9136
ジ	-9137
時	-9138
げ	-9139
中	-9140
ロ	-9141
フ	-9142
チ	-9143
上	-9144
コ	-9145
先	-9146
自	-9147
力	-9148
目	-9149
メ	-9150
エ	-9151
合	-9152
ぇ	-9153
オ	-9154
べ	-9155
当	-9156
方	-9157
ム	-9158
入	-9159
ャ	-9160
テ	-9161
知	-9162
全	-9163
話	-9164
部	-9165
様	-9166
ぜ	-9167
戦	-9168
者	-9169
ナ	-9170
ィ	-9171
ミ	-9172
ウ	-9173
プ	-9174
会	-9175
体	-9176
ダ	-9177
サ	-9178
女	-9179
年	-9180
僕	-9181
パ	-9182
持	-9183
後	-9184
聞	-9185
最	-9186
死	-9187
「	-9188
」	-9189
デ	-9190
グ	-9191
無	-9192
へ	-9193
待	-9194
物	-9195
下	-9196
変	-9197
長	-9198
心	-9199
理	-9200
ツ	-9201
動	-9202
殺	-9203
食	-9204
度	-9205
ブ	-9206
ぐ	-9207
違	-9208
勝	-9209
地	-9210
誰	-9211
場	-9212
世	-9213
ガ	-9214
ぶ	-9215
取	-9216
回	-9217
ハ	-9218
ぁ	-9219
作	-9220
家	-9221
悪	-9222
ュ	-9223
む	-9224
ニ	-9225
ぎ	-9226
ざ	-9227
び	-9228
意	-9229
二	-9230
彼	-9231
同	-9232
達	-9233
高	-9234
ヤ	-9235
実	-9236
帰	-9237
立	-9238
決	-9239
ビ	-9240
所	-9241
名	-9242
好	-9243
ェ	-9244
ョ	-9245
使	-9246
学	-9247
強	-9248
対	-9249
通	-9250
ケ	-9251
セ	-9252
ぱ	-9253
外	-9254
国	-9255
相	-9256
考	-9257
・	-9258
仕	-9259
早	-9260
明	-9261
切	-9262
感	-9263
々	-9264
ボ	-9265
界	-9266
ピ	-9267
不	-9268
味	-9269
野	-9270
夫	-9271
確	-9272
少	-9273
ひ	-9274
我	-9275
ズ	-9276
的	-9277
込	-9278
王	-9279
ぬ	-9280
結	-9281
モ	-9282
付	-9283
初	-9284
代	-9285
能	-9286
丈	-9287
真	-9288
巨	-9289
父	-9290
命	-9291
、	-9292
小	-9293
神	-9294
道	-9295
次	-9296
男	-9297
以	-9298
連	-9299
撃	-9300
用	-9301
ネ	-9302
ホ	-9303
必	-9304
ァ	-9305
木	-9306
正	-9307
教	-9308
発	-9309
楽	-9310
信	-9311
海	-9312
金	-9313
要	-9314
残	-9315
戻	-9316
番	-9317
魔	-9318
張	-9319
引	-9320
別	-9321
母	-9322
向	-9323
緒	-9324
近	-9325
ベ	-9326
ワ	-9327
然	-9328
面	-9329
止	-9330
着	-9331
落	-9332
ゴ	-9333
助	-9334
ギ	-9335
兵	-9336
ソ	-9337
水	-9338
三	-9339
終	-9340
校	-9341
逃	-9342
美	-9343
絶	-9344
始	-9345
ノ	-9346
覚	-9347
守	-9348
現	-9349
田	-9350
続	-9351
負	-9352
直	-9353
身	-9354
親	-9355
ヒ	-9356
新	-9357
貴	-9358
敵	-9359
願	-9360
機	-9361
兄	-9362
調	-9363
頼	-9364
山	-9365
輩	-9366
屋	-9367
元	-9368
解	-9369
ふ	-9370
流	-9371
書	-9372
足	-9373
成	-9374
士	-9375
返	-9376
開	-9377
失	-9378
性	-9379
顔	-9380
ヴ	-9381
月	-9382
空	-9383
伝	-9384
嫌	-9385
集	-9386
情	-9387
員	-9388
内	-9389
ゲ	-9390
ポ	-9391
奴	-9392
受	-9393
安	-9394
白	-9395
口	-9396
点	-9397
関	-9398
化	-9399
花	-9400
葉	-9401
配	-9402
呼	-9403
起	-9404
島	-9405
主	-9406
定	-9407
問	-9408
太	-9409
夏	-9410
天	-9411
友	-9412
打	-9413
任	-9414
選	-9415
夜	-9416
郎	-9417
多	-9418
球	-9419
団	-9420
特	-9421
可	-9422
飛	-9423
急	-9424
試	-9425
法	-9426
追	-9427
十	-9428
業	-9429
報	-9430
愛	-9431
ペ	-9432
数	-9433
乗	-9434
川	-9435
姉	-9436
指	-9437
消	-9438
皆	-9439
づ	-9440
仲	-9441
社	-9442
由	-9443
ぼ	-9444
重	-9445
過	-9446
夢	-9447
石	-9448
東	-9449
ユ	-9450
件	-9451
得	-9452
頭	-9453
風	-9454
ゆ	-9455
攻	-9456
探	-9457
放	-9458
警	-9459
軍	-9460
良	-9461
状	-9462
進	-9463
音	-9464
抜	-9465
利	-9466
離	-9467
題	-9468
他	-9469
組	-9470
頑	-9471
倒	-9472
北	-9473
備	-9474
原	-9475
在	-9476
置	-9477
赤	-9478
果	-9479
断	-9480
忘	-9481
電	-9482
応	-9483
隊	-9484
苦	-9485
星	-9486
記	-9487
血	-9488
平	-9489
供	-9490
画	-9491
運	-9492
優	-9493
歩	-9494
期	-9495
犯	-9496
文	-9497
構	-9498
危	-9499
怖	-9500
術	-9501
練	-9502
約	-9503
色	-9504
第	-9505
村	-9506
活	-9507
係	-9508
駄	-9509
反	-9510
存	-9511
族	-9512
谷	-9513
ザ	-9514
計	-9515
加	-9516
殿	-9517
予	-9518
突	-9519
想	-9520
望	-9521
声	-9522
車	-9523
許	-9524
寝	-9525
完	-9526
壁	-9527
遠	-9528
捕	-9529
師	-9530
休	-9531
形	-9532
ォ	-9533
念	-9534
投	-9535
痛	-9536
素	-9537
馬	-9538
走	-9539
速	-9540
礼	-9541
常	-9542
火	-9543
査	-9544
怪	-9545
格	-9546
認	-9547
破	-9548
遅	-9549
役	-9550
降	-9551
光	-9552
笑	-9553
習	-9554
買	-9555
黒	-9556
傷	-9557
半	-9558
売	-9559
壊	-9560
器	-9561
飲	-9562
限	-9563
万	-9564
送	-9565
京	-9566
隠	-9567
井	-9568
束	-9569
御	-9570
説	-9571
態	-9572
幸	-9573
恐	-9574
住	-9575
朝	-9576
告	-9577
影	-9578
読	-9579
転	-9580
桜	-9581
単	-9582
店	-9583
都	-9584
務	-9585
察	-9586
宮	-9587
験	-9588
客	-9589
料	-9590
民	-9591
市	-9592
久	-9593
掛	-9594
春	-9595
有	-9596
室	-9597
罪	-9598
遊	-9599
公	-9600
姿	-9601
渡	-9602
難	-9603
似	-9604
退	-9605
迷	-9606
千	-9607
歌	-9608
深	-9609
普	-9610
頃	-9611
欲	-9612
ヘ	-9613
弾	-9614
昔	-9615
町	-9616
青	-9617
類	-9618
園	-9619
振	-9620
義	-9621
議	-9622
邪	-9623
古	-9624
介	-9625
保	-9626
質	-9627
訳	-9628
佐	-9629
救	-9630
ゼ	-9631
息	-9632
怒	-9633
表	-9634
武	-9635
精	-9636
技	-9637
装	-9638
治	-9639
病	-9640
去	-9641
産	-9642
未	-9643
余	-9644
奪	-9645
超	-9646
差	-9647
門	-9648
城	-9649
令	-9650
弱	-9651
異	-9652
参	-9653
姫	-9654
故	-9655
昨	-9656
経	-9657
根	-9658
害	-9659
視	-9660
南	-9661
狙	-9662
藤	-9663
証	-9664
娘	-9665
裏	-9666
談	-9667
妖	-9668
局	-9669
語	-9670
密	-9671
盗	-9672
泣	-9673
触	-9674
交	-9675
土	-9676
捨	-9677
再	-9678
船	-9679
品	-9680
座	-9681
線	-9682
制	-9683
街	-9684
婚	-9685
官	-9686
準	-9687
秘	-9688
羽	-9689
答	-9690
滅	-9691
ぽ	-9692
復	-9693
申	-9694
位	-9695
和	-9696
困	-9697
護	-9698
式	-9699
院	-9700
監	-9701
逆	-9702
闘	-9703
恋	-9704
希	-9705
疲	-9706
居	-9707
共	-9708
弟	-9709
腹	-9710
飯	-9711
毎	-9712
険	-9713
肉	-9714
例	-9715
支	-9716
波	-9717
茶	-9718
晴	-9719
暗	-9720
森	-9721
判	-9722
段	-9723
移	-9724
将	-9725
服	-9726
絡	-9727
四	-9728
旅	-9729
跡	-9730
寄	-9731
広	-9732
押	-9733
接	-9734
祭	-9735
爆	-9736
育	-9737
西	-9738
写	-9739
暮	-9740
沢	-9741
五	-9742
週	-9743
剣	-9744
嘘	-9745
腕	-9746
鹿	-9747
周	-9748
況	-9749
済	-9750
細	-9751
辺	-9752
台	-9753
派	-9754
像	-9755
衛	-9756
謝	-9757
割	-9758
満	-9759
届	-9760
修	-9761
種	-9762
坂	-9763
敗	-9764
減	-9765
崎	-9766
識	-9767
奈	-9768
奥	-9769
熱	-9770
争	-9771
徒	-9772
区	-9773
岩	-9774
捜	-9775
焼	-9776
雪	-9777
際	-9778
側	-9779
黙	-9780
憶	-9781
襲	-9782
首	-9783
号	-9784
惑	-9785
程	-9786
勢	-9787
暴	-9788
眠	-9789
越	-9790
ヨ	-9791
協	-9792
導	-9793
陽	-9794
囲	-9795
収	-9796
増	-9797
背	-9798
甘	-9799
両	-9800
散	-9801
瞬	-9802
薬	-9803
求	-9804
遺	-9805
巻	-9806
悟	-9807
演	-9808
右	-9809
舞	-9810
霊	-9811
働	-9812
路	-9813
鬼	-9814
極	-9815
魚	-9816
奇	-9817
宝	-9818
処	-9819
志	-9820
勉	-9821
円	-9822
注	-9823
了	-9824
末	-9825
造	-9826
潜	-9827
観	-9828
冷	-9829
英	-9830
騒	-9831
喜	-9832
型	-9833
工	-9834
頂	-9835
丸	-9836
効	-9837
若	-9838
銀	-9839
階	-9840
個	-9841
刀	-9842
鉄	-9843
設	-9844
権	-9845
片	-9846
陸	-9847
ゾ	-9848
継	-9849
静	-9850
宿	-9851
簡	-9852
避	-9853
誘	-9854
案	-9855
示	-9856
乱	-9857
具	-9858
草	-9859
貸	-9860
聖	-9861
ゅ	-9862
刻	-9863
雨	-9864
才	-9865
織	-9866
興	-9867
除	-9868
容	-9869
吹	-9870
晶	-9871
吉	-9872
泉	-9873
絵	-9874
図	-9875
悲	-9876
迎	-9877
司	-9878
登	-9879
責	-9880
曲	-9881
犬	-9882
映	-9883
量	-9884
与	-9885
防	-9886
脱	-9887
払	-9888
刑	-9889
祖	-9890
統	-9891
資	-9892
鈴	-9893
職	-9894
字	-9895
条	-9896
総	-9897
幻	-9898
援	-9899
鳴	-9900
帝	-9901
替	-9902
独	-9903
悔	-9904
端	-9905
龍	-9906
亡	-9907
酒	-9908
労	-9909
猫	-9910
撮	-9911
里	-9912
魂	-9913
商	-9914
操	-9915
研	-9916
妹	-9917
諦	-9918
標	-9919
戸	-9920
閉	-9921
八	-9922
基	-9923
左	-9924
建	-9925
担	-9926
描	-9927
鳥	-9928
歳	-9929
勇	-9930
疑	-9931
百	-9932
紙	-9933
更	-9934
驚	-9935
留	-9936
館	-9937
香	-9938
坊	-9939
景	-9940
等	-9941
低	-9942
値	-9943
浮	-9944
借	-9945
席	-9946
折	-9947
比	-9948
射	-9949
底	-9950
途	-9951
弁	-9952
穴	-9953
被	-9954
承	-9955
艦	-9956
杯	-9957
論	-9958
価	-9959
奏	-9960
暇	-9961
抱	-9962
領	-9963
補	-9964
帯	-9965
胸	-9966
湘	-9967
政	-9968
毒	-9969
純	-9970
宇	-9971
橋	-9972
七	-9973
究	-9974
妙	-9975
辞	-9976
刺	-9977
拠	-9978
髪	-9979
尽	-9980
吸	-9981
慢	-9982
松	-9983
砂	-9984
詰	-9985
輪	-9986
銃	-9987
寺	-9988
温	-9989
玉	-9990
岡	-9991
汚	-9992
枚	-9993
ヌ	-9994
授	-9995
砲	-9996
踏	-9997
軽	-9998
緊	-9999
象	-10000
録	-10001
雑	-10002
互	-10003
嬉	-10004
獄	-10005
ぉ	-10006
激	-10007
堂	-10008
材	-10009
永	-10010
従	-10011
厳	-10012
級	-10013
懸	-10014
納	-10015
勘	-10016
咲	-10017
嬢	-10018
為	-10019
訓	-10020
ぃ	-10021
印	-10022
並	-10023
功	-10024
屈	-10025
督	-10026
伸	-10027
積	-10028
系	-10029
検	-10030
率	-10031
甲	-10032
鍵	-10033
冗	-10034
改	-10035
倉	-10036
圧	-10037
執	-10038
属	-10039
禁	-10040
己	-10041
慣	-10042
脳	-10043
角	-10044
課	-10045
鏡	-10046
策	-10047
虫	-10048
栄	-10049
郷	-10050
仮	-10051
噂	-10052
布	-10053
換	-10054
瀬	-10055
秒	-10056
非	-10057
恥	-10058
氷	-10059
珍	-10060
史	-10061
握	-10062
横	-10063
適	-10064
固	-10065
庭	-10066
福	-10067
呪	-10068
因	-10069
昼	-10070
医	-10071
氏	-10072
管	-10073
雄	-10074
歴	-10075
潰	-10076
紀	-10077
伊	-10078
封	-10079
算	-10080
荒	-10081
整	-10082
荷	-10083
宙	-10084
委	-10085
科	-10086
響	-10087
骨	-10088
獣	-10089
給	-10090
麻	-10091
班	-10092
唯	-10093
威	-10094
駆	-10095
也	-10096
湯	-10097
筋	-10098
混	-10099
距	-10100
扉	-10101
染	-10102
各	-10103
提	-10104
芸	-10105
及	-10106
洗	-10107
老	-10108
偽	-10109
河	-10110
儀	-10111
夕	-10112
樹	-10113
矢	-10114
短	-10115
麗	-10116
燃	-10117
盛	-10118
眼	-10119
列	-10120
源	-10121
耳	-10122
臓	-10123
芽	-10124
錬	-10125
侵	-10126
卒	-10127
呂	-10128
抗	-10129
損	-10130
繰	-10131
衣	-10132
冬	-10133
崩	-10134
忙	-10135
慎	-10136
模	-10137
ゥ	-10138
尾	-10139
紹	-10140
財	-10141
陰	-10142
欠	-10143
阿	-10144
偵	-10145
境	-10146
拾	-10147
健	-10148
恵	-10149
縁	-10150
闇	-10151
陣	-10152
菜	-10153
順	-10154
府	-10155
殴	-10156
輝	-10157
依	-10158
忍	-10159
敷	-10160
鎧	-10161
携	-10162
企	-10163
六	-10164
展	-10165
憎	-10166
塔	-10167
省	-10168
討	-10169
偉	-10170
専	-10171
胞	-10172
皇	-10173
緑	-10174
裁	-10175
毛	-10176
獲	-10177
誠	-10178
伏	-10179
塁	-10180
油	-10181
秋	-10182
遣	-10183
黄	-10184
呉	-10185
域	-10186
扱	-10187
札	-10188
狩	-10189
謎	-10190
亜	-10191
倍	-10192
句	-10193
懐	-10194
編	-10195
寒	-10196
快	-10197
略	-10198
節	-10199
至	-10200
辛	-10201
迫	-10202
憲	-10203
晩	-10204
焦	-10205
詳	-10206
億	-10207
掃	-10208
稼	-10209
ぴ	-10210
趣	-10211
随	-10212
仙	-10213
恨	-10214
偶	-10215
嫁	-10216
蓮	-10217
寂	-10218
旦	-10219
泊	-10220
祈	-10221
竜	-10222
透	-10223
遭	-10224
隣	-10225
ヶ	-10226
営	-10227
揮	-10228
施	-10229
聴	-10230
ぺ	-10231
丹	-10232
便	-10233
恒	-10234
炎	-10235
犠	-10236
匠	-10237
挑	-10238
牲	-10239
舎	-10240
規	-10241
九	-10242
徹	-10243
繋	-10244
脅	-10245
塞	-10246
斬	-10247
清	-10248
漫	-10249
災	-10250
照	-10251
袋	-10252
訪	-10253
揃	-10254
駅	-10255
騎	-10256
悩	-10257
測	-10258
薄	-10259
秀	-10260
肩	-10261
賭	-10262
那	-10263
否	-10264
紅	-10265
雲	-10266
預	-10267
岸	-10268
推	-10269
柄	-10270
締	-10271
誤	-10272
震	-10273
宗	-10274
層	-10275
愚	-10276
棒	-10277
築	-10278
揺	-10279
江	-10280
隙	-10281
匹	-10282
央	-10283
裂	-10284
誇	-10285
費	-10286
奉	-10287
華	-10288
還	-10289
』	-10290
環	-10291
到	-10292
含	-10293
妻	-10294
窓	-10295
翔	-10296
致	-10297
歯	-10298
養	-10299
仗	-10300
挙	-10301
耐	-10302
褒	-10303
陵	-10304
吐	-10305
忠	-10306
浜	-10307
評	-10308
諸	-10309
ぷ	-10310
璧	-10311
障	-10312
匂	-10313
板	-10314
雷	-10315
僧	-10316
審	-10317
庫	-10318
泳	-10319
涙	-10320
索	-10321
賞	-10322
契	-10323
富	-10324
幼	-10325
康	-10326
戒	-10327
港	-10328
烏	-10329
鎖	-10330
『	-10331
豪	-10332
潮	-10333
占	-10334
既	-10335
曜	-10336
洋	-10337
律	-10338
植	-10339
罰	-10340
豊	-10341
躍	-10342
凄	-10343
包	-10344
招	-10345
誕	-10346
賊	-10347
候	-10348
叩	-10349
善	-10350
埋	-10351
箱	-10352
劇	-10353
延	-10354
択	-10355
掘	-10356
盤	-10357
幕	-10358
慮	-10359
泥	-10360
製	-10361
臭	-10362
露	-10363
丁	-10364
叶	-10365
孤	-10366
憧	-10367
溶	-10368
皮	-10369
噛	-10370
沈	-10371
津	-10372
敬	-10373
智	-10374
沙	-10375
競	-10376
酔	-10377
硬	-10378
勤	-10379
婦	-10380
裕	-10381
幽	-10382
惜	-10383
狂	-10384
酷	-10385
即	-10386
尉	-10387
抑	-10388
綺	-10389
帳	-10390
湖	-10391
紋	-10392
賢	-10393
努	-10394
厄	-10395
池	-10396
祝	-10397
米	-10398
虎	-10399
誓	-10400
弥	-10401
浴	-10402
喰	-10403
就	-10404
巡	-10405
煙	-10406
牛	-10407
載	-10408
伯	-10409
児	-10410
副	-10411
彦	-10412
拳	-10413
乃	-10414
悠	-10415
針	-10416
卵	-10417
微	-10418
恩	-10419
狭	-10420
蟲	-10421
償	-10422
則	-10423
尊	-10424
撤	-10425
柱	-10426
群	-10427
蔵	-10428
覧	-10429
停	-10430
凶	-10431
林	-10432
沼	-10433
腐	-10434
午	-10435
喋	-10436
採	-10437
鼻	-10438
乾	-10439
孫	-10440
宅	-10441
涯	-10442
削	-10443
博	-10444
双	-10445
季	-10446
尋	-10447
枝	-10448
牧	-10449
腰	-10450
拶	-10451
挨	-10452
暑	-10453
県	-10454
跳	-10455
飼	-10456
之	-10457
塩	-10458
幹	-10459
液	-10460
療	-10461
菓	-10462
豚	-10463
逮	-10464
典	-10465
凛	-10466
喧	-10467
塗	-10468
械	-10469
複	-10470
宣	-10471
干	-10472
伴	-10473
州	-10474
粉	-10475
飾	-10476
刃	-10477
桐	-10478
猿	-10479
糸	-10480
般	-10481
葬	-10482
蛇	-10483
蹴	-10484
免	-10485
窟	-10486
航	-10487
踊	-10488
紛	-10489
冒	-10490
拝	-10491
易	-10492
績	-10493
尻	-10494
渉	-10495
矛	-10496
縛	-10497
仏	-10498
翼	-10499
臣	-10500
釣	-10501
叫	-10502
召	-10503
圭	-10504
灰	-10505
騙	-10506
嘩	-10507
如	-10508
爵	-10509
稲	-10510
酸	-10511
雇	-10512
拘	-10513
摩	-10514
滑	-10515
覇	-10516
詩	-10517
讐	-10518
賀	-10519
倫	-10520
巣	-10521
薫	-10522
遇	-10523
徴	-10524
怯	-10525
抵	-10526
滝	-10527
爺	-10528
看	-10529
請	-10530
貧	-10531
靴	-10532
彩	-10533
陛	-10534
廃	-10535
浅	-10536
澪	-10537
症	-10538
託	-10539
謀	-10540
冥	-10541
寿	-10542
庁	-10543
斗	-10544
昇	-10545
梨	-10546
肝	-10547
衝	-10548
覆	-10549
訴	-10550
譲	-10551
遂	-10552
隷	-10553
紫	-10554
衆	-10555
餌	-10556
鮮	-10557
吾	-10558
帆	-10559
床	-10560
慌	-10561
柴	-10562
泰	-10563
畑	-10564
瞳	-10565
縦	-10566
講	-10567
軌	-10568
額	-10569
拒	-10570
排	-10571
斎	-10572
漁	-10573
網	-10574
綾	-10575
羅	-10576
丘	-10577
房	-10578
霧	-10579
乳	-10580
殊	-10581
熊	-10582
範	-10583
絞	-10584
崖	-10585
旧	-10586
棄	-10587
瀧	-10588
砕	-10589
魅	-10590
嘉	-10591
挟	-10592
控	-10593
揚	-10594
称	-10595
肌	-10596
虚	-10597
催	-10598
徳	-10599
憑	-10600
捧	-10601
惨	-10602
橘	-10603
沖	-10604
洞	-10605
縄	-10606
臨	-10607
詮	-10608
鍛	-10609
ぅ	-10610
掴	-10611
畜	-10612
童	-10613
飽	-10614
磨	-10615
稿	-10616
隔	-10617
仁	-10618
貫	-10619
卑	-10620
盾	-10621
竹	-10622
菌	-10623
豆	-10624
鈍	-10625
駒	-10626
仰	-10627
朱	-10628
漠	-10629
癖	-10630
祓	-10631
縮	-10632
蒼	-10633
虐	-10634
乙	-10635
充	-10636
涼	-10637
票	-10638
税	-10639
笹	-10640
漏	-10641
狐	-10642
章	-10643
誌	-10644
暖	-10645
歓	-10646
熟	-10647
辱	-10648
却	-10649
誉	-10650
傾	-10651
凍	-10652
厚	-10653
墓	-10654
夾	-10655
柔	-10656
鑑	-10657
陥	-10658
零	-10659
馴	-10660
党	-10661
婆	-10662
巫	-10663
恭	-10664
狼	-10665
琴	-10666
雰	-10667
剥	-10668
憩	-10669
澤	-10670
鐘	-10671
麦	-10672
創	-10673
哀	-10674
宰	-10675
征	-10676
添	-10677
盟	-10678
蝶	-10679
遥	-10680
析	-10681
汰	-10682
爪	-10683
罠	-10684
劣	-10685
噴	-10686
塾	-10687
序	-10688
没	-10689
灯	-10690
脈	-10691
脚	-10692
阻	-10693
〜	-10694
斉	-10695
煮	-10696
版	-10697
玲	-10698
艇	-10699
賛	-10700
傘	-10701
堅	-10702
妬	-10703
捉	-10704
署	-10705
閣	-10706
幅	-10707
把	-10708
濡	-10709
維	-10710
蒸	-10711
診	-10712
卿	-10713
囚	-10714
塚	-10715
渚	-10716
湧	-10717
藻	-10718
農	-10719
鋭	-10720
鋼	-10721
阪	-10722
雛	-10723
云	-10724
寸	-10725
槍	-10726
沿	-10727
伺	-10728
梅	-10729
猛	-10730
益	-10731
励	-10732
募	-10733
唱	-10734
履	-10735
峰	-10736
杉	-10737
狡	-10738
裸	-10739
敦	-10740
栗	-10741
梓	-10742
篠	-10743
穏	-10744
詞	-10745
卓	-10746
喫	-10747
奮	-10748
患	-10749
戴	-10750
礫	-10751
紗	-10752
荘	-10753
融	-10754
貼	-10755
須	-10756
寮	-10757
嵐	-10758
礎	-10759
繁	-10760
萌	-10761
鍋	-10762
堪	-10763
妄	-10764
巧	-10765
弓	-10766
旗	-10767
泡	-10768
潔	-10769
炭	-10770
玄	-10771
癒	-10772
耶	-10773
駐	-10774
凡	-10775
勧	-10776
宜	-10777
戯	-10778
桃	-10779
湾	-10780
鳳	-10781
喉	-10782
嫉	-10783
彗	-10784
惚	-10785
概	-10786
筆	-10787
粒	-10788
雫	-10789
丼	-10790
剛	-10791
拐	-10792
籠	-10793
粋	-10794
羨	-10795
膨	-10796
蘇	-10797
銭	-10798
愉	-10799
此	-10800
汗	-10801
痕	-10802
稽	-10803
絆	-10804
芝	-10805
販	-10806
輸	-10807
雅	-10808
革	-10809
圏	-10810
壺	-10811
寧	-10812
幾	-10813
忌	-10814
浦	-10815
緋	-10816
鉱	-10817
乏	-10818
伐	-10819
帽	-10820
椅	-10821
漆	-10822
眺	-10823
符	-10824
羊	-10825
臆	-10826
佳	-10827
侮	-10828
叔	-10829
塊	-10830
廊	-10831
拭	-10832
樫	-10833
殻	-10834
洸	-10835
瑞	-10836
緩	-10837
舌	-10838
茂	-10839
莫	-10840
鉢	-10841
亀	-10842
哲	-10843
嗅	-10844
槙	-10845
烈	-10846
貨	-10847
贈	-10848
釈	-10849
侍	-10850
兎	-10851
兼	-10852
囮	-10853
拍	-10854
拡	-10855
柳	-10856
棚	-10857
溜	-10858
漢	-10859
垂	-10860
妨	-10861
斑	-10862
是	-10863
核	-10864
濃	-10865
牙	-10866
皿	-10867
磁	-10868
糖	-10869
貰	-10870
逐	-10871
齢	-10872
傍	-10873
冠	-10874
塵	-10875
斐	-10876
斜	-10877
浸	-10878
蛍	-10879
辿	-10880
逢	-10881
隅	-10882
項	-10883
均	-10884
彫	-10885
徐	-10886
憂	-10887
摘	-10888
枯	-10889
歪	-10890
澄	-10891
睡	-10892
胆	-10893
袖	-10894
顧	-10895
駿	-10896
僅	-10897
喚	-10898
拓	-10899
无	-10900
朗	-10901
机	-10902
汁	-10903
溝	-10904
糧	-10905
凝	-10906
呆	-10907
廷	-10908
弄	-10909
欺	-10910
溢	-10911
漬	-10912
狗	-10913
穫	-10914
纏	-10915
蜂	-10916
赦	-10917
髄	-10918
偏	-10919
剤	-10920
喪	-10921
嗣	-10922
壇	-10923
庵	-10924
怠	-10925
戚	-10926
旋	-10927
枠	-10928
痴	-10929
翻	-10930
邦	-10931
酬	-10932
骸	-10933
仇	-10934
凪	-10935
宵	-10936
掻	-10937
曹	-10938
笛	-10939
芋	-10940
葛	-10941
僚	-10942
拙	-10943
曇	-10944
煌	-10945
献	-10946
粘	-10947
縫	-10948
翌	-10949
肢	-10950
胃	-10951
脊	-10952
蓋	-10953
鎮	-10954
陶	-10955
隆	-10956
馳	-10957
叱	-10958
昭	-10959
杜	-10960
枕	-10961
湿	-10962
滞	-10963
膝	-10964
蘭	-10965
醜	-10966
霜	-10967
克	-10968
冊	-10969
往	-10970
敢	-10971
暁	-10972
棟	-10973
殖	-10974
瓶	-10975
賃	-10976
顎	-10977
亮	-10978
憐	-10979
桂	-10980
浪	-10981
渇	-10982
滴	-10983
牢	-10984
砦	-10985
籍	-10986
紡	-10987
缶	-10988
脇	-10989
菅	-10990
蓄	-10991
藍	-10992
錯	-10993
鶴	-10994
刊	-10995
唐	-10996
径	-10997
椿	-10998
窮	-10999
箒	-11000
綿	-11001
舟	-11002
軟	-11003
轟	-11004
逸	-11005
ヵ	-11006
儲	-11007
垣	-11008
怨	-11009
挫	-11010
旭	-11011
架	-11012
殲	-11013
燥	-11014
猟	-11015
珠	-11016
肺	-11017
詫	-11018
貯	-11019
傑	-11020
券	-11021
宴	-11022
懲	-11023
抹	-11024
杏	-11025
柊	-11026
汝	-11027
炊	-11028
煩	-11029
珀	-11030
琥	-11031
笠	-11032
耗	-11033
詐	-11034
貝	-11035
醍	-11036
醐	-11037
嘆	-11038
嶋	-11039
廉	-11040
怜	-11041
拷	-11042
浄	-11043
濯	-11044
疎	-11045
疫	-11046
痺	-11047
粗	-11048
繊	-11049
葵	-11050
薦	-11051
虜	-11052
飢	-11053
乞	-11054
妃	-11055
慰	-11056
括	-11057
擦	-11058
禍	-11059
虹	-11060
鼓	-11061
鼠	-11062
ヅ	-11063
凌	-11064
刷	-11065
吠	-11066
掌	-11067
炉	-11068
筒	-11069
肥	-11070
膚	-11071
裔	-11072
譜	-11073
邸	-11074
郁	-11075
閥	-11076
勿	-11077
夷	-11078
妥	-11079
宛	-11080
榊	-11081
禄	-11082
舐	-11083
苗	-11084
薇	-11085
薔	-11086
覗	-11087
迦	-11088
遍	-11089
遮	-11090
附	-11091
俊	-11092
奢	-11093
屯	-11094
捻	-11095
掲	-11096
棘	-11097
濁	-11098
瑠	-11099
盆	-11100
眩	-11101
貞	-11102
贄	-11103
軒	-11104
陀	-11105
隼	-11106
兆	-11107
冴	-11108
揉	-11109
昆	-11110
滋	-11111
穂	-11112
繭	-11113
芥	-11114
芦	-11115
芯	-11116
茜	-11117
軸	-11118
銘	-11119
鶏	-11120
鶫	-11121
ヲ	-11122
呑	-11123
帥	-11124
幡	-11125
撲	-11126
晃	-11127
柏	-11128
狸	-11129
猪	-11130
秩	-11131
股	-11132
蔑	-11133
購	-11134
贅	-11135
錠	-11136
唇	-11137
庶	-11138
慈	-11139
扇	-11140
搬	-11141
梶	-11142
淡	-11143
渦	-11144
潤	-11145
痩	-11146
耀	-11147
耕	-11148
衰	-11149
轄	-11150
醒	-11151
餓	-11152
凜	-11153
堀	-11154
巴	-11155
据	-11156
昧	-11157
晒	-11158
暦	-11159
李	-11160
梟	-11161
槽	-11162
毬	-11163
沸	-11164
渋	-11165
湊	-11166
爽	-11167
稚	-11168
紳	-11169
莉	-11170
迂	-11171
鎚	-11172
麺	-11173
些	-11174
傲	-11175
勲	-11176
唾	-11177
墜	-11178
墨	-11179
壮	-11180
岳	-11181
敏	-11182
暢	-11183
曽	-11184
株	-11185
漂	-11186
獅	-11187
簿	-11188
粛	-11189
翠	-11190
膜	-11191
芳	-11192
蜜	-11193
隻	-11194
叉	-11195
吊	-11196
孝	-11197
崇	-11198
廻	-11199
棲	-11200
汽	-11201
溺	-11202
燈	-11203
瓦	-11204
畳	-11205
眉	-11206
腸	-11207
蒔	-11208
蛛	-11209
蜘	-11210
貢	-11211
辻	-11212
這	-11213
鎌	-11214
雀	-11215
霞	-11216
黛	-11217
亭	-11218
儂	-11219
妾	-11220
姓	-11221
媒	-11222
寛	-11223
屍	-11224
拗	-11225
渓	-11226
瑚	-11227
磯	-11228
穢	-11229
筈	-11230
紺	-11231
胡	-11232
脂	-11233
苛	-11234
藩	-11235
蛮	-11236
謙	-11237
踪	-11238
躇	-11239
躊	-11240
閃	-11241
鱗	-11242
促	-11243
匿	-11244
啓	-11245
妊	-11246
巳	-11247
掟	-11248
搭	-11249
摂	-11250
撒	-11251
擬	-11252
攫	-11253
暫	-11254
檻	-11255
眷	-11256
礁	-11257
菊	-11258
薙	-11259
諜	-11260
賑	-11261
赴	-11262
較	-11263
述	-11264
鉛	-11265
隕	-11266
雌	-11267
需	-11268
鞠	-11269
頬	-11270
鯖	-11271
麓	-11272
倣	-11273
其	-11274
刈	-11275
堕	-11276
孔	-11277
披	-11278
拉	-11279
昏	-11280
桁	-11281
琉	-11282
睨	-11283
祐	-11284
筧	-11285
粟	-11286
紐	-11287
與	-11288
蚊	-11289
訂	-11290
詛	-11291
詠	-11292
謹	-11293
貌	-11294
逝	-11295
釜	-11296
馨	-11297
侯	-11298
俗	-11299
剰	-11300
劍	-11301
弔	-11302
惹	-11303
懇	-11304
擁	-11305
曖	-11306
朽	-11307
枢	-11308
槌	-11309
渕	-11310
睦	-11311
碁	-11312
禅	-11313
粧	-11314
腫	-11315
茅	-11316
蔽	-11317
輔	-11318
鞄	-11319
鯨	-11320
伽	-11321
侑	-11322
俳	-11323
卯	-11324
培	-11325
填	-11326
巾	-11327
弊	-11328
棗	-11329
榴	-11330
煎	-11331
疾	-11332
翡	-11333
訊	-11334
貪	-11335
酢	-11336
饅	-11337
鳩	-11338
鷹	-11339
噌	-11340
垢	-11341
壕	-11342
姑	-11343
尚	-11344
峠	-11345
惧	-11346
慊	-11347
慕	-11348
挿	-11349
攘	-11350
杞	-11351
椎	-11352
楓	-11353
浩	-11354
牽	-11355
璃	-11356
祟	-11357
窒	-11358
筑	-11359
箸	-11360
緯	-11361
郵	-11362
醤	-11363
錆	-11364
鬱	-11365
魄	-11366
鯛	-11367
傀	-11368
儡	-11369
剖	-11370
哉	-11371
喩	-11372
壱	-11373
娠	-11374
峯	-11375
庇	-11376
弦	-11377
撫	-11378
斧	-11379
昴	-11380
榀	-11381
瀕	-11382
燕	-11383
燭	-11384
玩	-11385
瞑	-11386
穿	-11387
窃	-11388
箇	-11389
絹	-11390
綱	-11391
芹	-11392
菱	-11393
葦	-11394
蒲	-11395
貿	-11396
躙	-11397
酌	-11398
醸	-11399
銅	-11400
閲	-11401
閻	-11402
飴	-11403
餐	-11404
鮫	-11405
准	-11406
凹	-11407
函	-11408
喝	-11409
國	-11410
婿	-11411
屁	-11412
措	-11413
杭	-11414
柿	-11415
楠	-11416
樋	-11417
潟	-11418
煽	-11419
碇	-11420
穀	-11421
篝	-11422
綻	-11423
肯	-11424
脆	-11425
舗	-11426
舷	-11427
蟹	-11428
誅	-11429
諾	-11430
賄	-11431
賜	-11432
賠	-11433
蹂	-11434
闊	-11435
韻	-11436
餅	-11437
凱	-11438
凸	-11439
叡	-11440
只	-11441
埼	-11442
墟	-11443
姐	-11444
屑	-11445
岐	-11446
巽	-11447
彷	-11448
愁	-11449
戮	-11450
挽	-11451
朴	-11452
棋	-11453
棺	-11454
淘	-11455
牡	-11456
盲	-11457
絢	-11458
緻	-11459
聡	-11460
肖	-11461
贖	-11462
遜	-11463
雁	-11464
鞘	-11465
頻	-11466
丞	-11467
又	-11468
咎	-11469
娼	-11470
峙	-11471
嵌	-11472
循	-11473
悶	-11474
抽	-11475
掠	-11476
搾	-11477
旬	-11478
栞	-11479
楊	-11480
橙	-11481
焔	-11482
犲	-11483
甥	-11484
祥	-11485
稀	-11486
綴	-11487
罵	-11488
舜	-11489
舵	-11490
苔	-11491
茎	-11492
萩	-11493
薪	-11494
號	-11495
蜥	-11496
蜴	-11497
蝋	-11498
螺	-11499
衡	-11500
裾	-11501
賓	-11502
辰	-11503
迅	-11504
錦	-11505
鵜	-11506
鷲	-11507
麟	-11508
串	-11509
伎	-11510
傭	-11511
冨	-11512
唆	-11513
嶽	-11514
徨	-11515
恙	-11516
惰	-11517
扶	-11518
挺	-11519
朋	-11520
朧	-11521
條	-11522
汐	-11523
洛	-11524
涸	-11525
瘴	-11526
碗	-11527
糞	-11528
糾	-11529
繕	-11530
肘	-11531
膏	-11532
著	-11533
蛙	-11534
蝕	-11535
貶	-11536
轢	-11537
陳	-11538
麒	-11539
黑	-11540
併	-11541
來	-11542
債	-11543
儚	-11544
凰	-11545
刹	-11546
劫	-11547
勅	-11548
厭	-11549
坑	-11550
墳	-11551
壌	-11552
峡	-11553
巌	-11554
慧	-11555
旨	-11556
柵	-11557
栓	-11558
栽	-11559
楼	-11560
殆	-11561
淫	-11562
淵	-11563
淹	-11564
焚	-11565
甚	-11566
痣	-11567
腑	-11568
薩	-11569
蝙	-11570
蝠	-11571
遙	-11572
遷	-11573
釘	-11574
韓	-11575
騰	-11576
髭	-11577
什	-11578
俵	-11579
剃	-11580
吟	-11581
嗜	-11582
噓	-11583
埒	-11584
學	-11585
岬	-11586
憤	-11587
懺	-11588
批	-11589
旺	-11590
曾	-11591
朔	-11592
杖	-11593
枷	-11594
桶	-11595
槻	-11596
樽	-11597
沌	-11598
洒	-11599
濫	-11600
煉	-11601
瓜	-11602
痒	-11603
瞭	-11604
碑	-11605
祀	-11606
腺	-11607
蟻	-11608
襟	-11609
訣	-11610
該	-11611
謁	-11612
讃	-11613
贋	-11614
赫	-11615
践	-11616
鑢	-11617
閑	-11618
颯	-11619
鼎	-11620
丙	-11621
亥	-11622
享	-11623
仆	-11624
勃	-11625
员	-11626
咆	-11627
哮	-11628
堆	-11629
堤	-11630
塀	-11631
奨	-11632
娯	-11633
幌	-11634
恰	-11635
戌	-11636
摺	-11637
某	-11638
楪	-11639
氾	-11640
漕	-11641
畏	-11642
癪	-11643
硝	-11644
碧	-11645
禿	-11646
竿	-11647
篤	-11648
胎	-11649
胴	-11650
臙	-11651
茉	-11652
葱	-11653
蕩	-11654
蕪	-11655
訟	-11656
謳	-11657
貳	-11658
躱	-11659
輿	-11660
鋒	-11661
錫	-11662
餃	-11663
鴉	-11664
ぢ	-11665
ヂ	-11666
亞	-11667
俣	-11668
俯	-11669
厨	-11670
咬	-11671
唄	-11672
嚇	-11673
坪	-11674
埃	-11675
奔	-11676
弘	-11677
彰	-11678
慄	-11679
或	-11680
數	-11681
斥	-11682
斯	-11683
楯	-11684
檜	-11685
欒	-11686
欧	-11687
毘	-11688
汎	-11689
洲	-11690
渾	-11691
漲	-11692
燻	-11693
猾	-11694
痢	-11695
皺	-11696
祠	-11697
粥	-11698
腿	-11699
茹	-11700
蕎	-11701
蝿	-11702
跪	-11703
輌	-11704
遡	-11705
遽	-11706
銇	-11707
顕	-11708
駕	-11709
但	-11710
侘	-11711
侶	-11712
倶	-11713
僭	-11714
儘	-11715
呈	-11716
咳	-11717
哺	-11718
嘗	-11719
囁	-11720
姦	-11721
姻	-11722
媚	-11723
孕	-11724
孵	-11725
徊	-11726
徘	-11727
托	-11728
捌	-11729
捏	-11730
掩	-11731
掬	-11732
摯	-11733
曰	-11734
會	-11735
枡	-11736
桑	-11737
榛	-11738
欄	-11739
